{
  "version": "1.0",
  "truncation": null,
  "padding": null,
  "added_tokens": [
    {
      "id": 0,
      "special": true,
      "content": "[UNK]",
      "single_word": false,
      "lstrip": false,
      "rstrip": false,
      "normalized": false
    },
    {
      "id": 1,
      "special": true,
      "content": "[SOS]",
      "single_word": false,
      "lstrip": false,
      "rstrip": false,
      "normalized": false
    },
    {
      "id": 2,
      "special": true,
      "content": "[EOS]",
      "single_word": false,
      "lstrip": false,
      "rstrip": false,
      "normalized": false
    }
  ],
  "normalizer": null,
  "pre_tokenizer": {
    "type": "WhitespaceSplit"
  },
  "post_processor": null,
  "decoder": null,
  "model": {
    "type": "BPE",
    "dropout": null,
    "unk_token": "[UNK]",
    "continuing_subword_prefix": "",
    "end_of_word_suffix": "",
    "fuse_unk": false,
    "vocab": {
      "[UNK]": 0,
      "[SOS]": 1,
      "[EOS]": 2,
      "!": 3,
      "#": 4,
      "$": 5,
      "%": 6,
      "&": 7,
      "(": 8,
      ")": 9,
      "+": 10,
      ",": 11,
      "-": 12,
      ".": 13,
      "/": 14,
      "0": 15,
      "1": 16,
      "2": 17,
      "3": 18,
      "4": 19,
      "5": 20,
      "6": 21,
      "7": 22,
      "8": 23,
      "9": 24,
      ":": 25,
      ";": 26,
      "=": 27,
      "?": 28,
      "@": 29,
      "_": 30,
      "a": 31,
      "b": 32,
      "c": 33,
      "d": 34,
      "e": 35,
      "f": 36,
      "g": 37,
      "h": 38,
      "i": 39,
      "j": 40,
      "k": 41,
      "l": 42,
      "m": 43,
      "n": 44,
      "o": 45,
      "p": 46,
      "q": 47,
      "r": 48,
      "s": 49,
      "t": 50,
      "u": 51,
      "v": 52,
      "w": 53,
      "x": 54,
      "y": 55,
      "z": 56,
      "~": 57,
      "°": 58,
      "²": 59,
      "ß": 60,
      "á": 61,
      "â": 62,
      "ã": 63,
      "ä": 64,
      "ç": 65,
      "è": 66,
      "é": 67,
      "ê": 68,
      "ë": 69,
      "í": 70,
      "î": 71,
      "ï": 72,
      "ñ": 73,
      "ó": 74,
      "ô": 75,
      "ö": 76,
      "ø": 77,
      "ú": 78,
      "û": 79,
      "ü": 80,
      "ý": 81,
      "ā": 82,
      "č": 83,
      "ď": 84,
      "ē": 85,
      "ğ": 86,
      "ī": 87,
      "ĺ": 88,
      "ľ": 89,
      "ł": 90,
      "ņ": 91,
      "ň": 92,
      "ō": 93,
      "ŕ": 94,
      "š": 95,
      "ť": 96,
      "ũ": 97,
      "ū": 98,
      "ź": 99,
      "ž": 100,
      "ǔ": 101,
      "ș": 102,
      "κ": 103,
      "ο": 104,
      "π": 105,
      "ς": 106,
      "ό": 107,
      "б": 108,
      "и": 109,
      "о": 110,
      "р": 111,
      "с": 112,
      "щ": 113,
      "ַ": 114,
      "א": 115,
      "ה": 116,
      "ח": 117,
      "ל": 118,
      "מ": 119,
      "ע": 120,
      "פ": 121,
      "ש": 122,
      "؟": 123,
      "ᾰ": 124,
      "₂": 125,
      "€": 126,
      "√": 127,
      "の": 128,
      "ザ": 129,
      "ド": 130,
      "ム": 131,
      "亡": 132,
      "念": 133,
      "空": 134,
      "𝑘": 135,
      ".空": 136,
      "st": 137,
      "est": 138,
      ",空": 139,
      "om": 140,
      "on": 141,
      "en": 142,
      "an": 143,
      "er": 144,
      "ar": 145,
      "tom": 146,
      "or": 147,
      "?空": 148,
      "in": 149,
      "o空": 150,
      "at": 151,
      "ir": 152,
      "ol": 153,
      "gx": 154,
      "cx": 155,
      "ti": 156,
      "tomo空": 157,
      "ov": 158,
      "pr": 159,
      "ci": 160,
      "sx": 161,
      "el": 162,
      "ek": 163,
      "av": 164,
      "al": 165,
      "am": 166,
      "ri": 167,
      "es": 168,
      "vi": 169,
      "un": 170,
      "et": 171,
      "man": 172,
      "ul": 173,
      "de": 174,
      "ki": 175,
      "la": 176,
      "ux": 177,
      "hav": 178,
      "pov": 179,
      "ra": 180,
      "kon": 181,
      "ok": 182,
      "far": 183,
      "em": 184,
      "li": 185,
      "ent": 186,
      "bon": 187,
      "vol": 188,
      "aux": 189,
      "tom空": 190,
      "ur": 191,
      "par": 192,
      "ed": 193,
      "sci": 194,
      "as": 195,
      "dir": 196,
      "bl": 197,
      "per": 198,
      "ven": 199,
      "tr": 200,
      "si": 201,
      "tio": 202,
      "pl": 203,
      "ult": 204,
      "cxi": 205,
      "ak": 206,
      "ik": 207,
      "ort": 208,
      "fr": 209,
      "ez": 210,
      "!空": 211,
      "br": 212,
      "ag": 213,
      "ver": 214,
      "ut": 215,
      "gr": 216,
      "fi": 217,
      "aj": 218,
      "vid": 219,
      "su": 220,
      "di": 221,
      "sxat": 222,
      "dev": 223,
      "kio": 224,
      "kom": 225,
      "ap": 226,
      "eg": 227,
      "ot": 228,
      "mult": 229,
      "str": 230,
      "mon": 231,
      "parol": 232,
      "and": 233,
      "ad": 234,
      "ud": 235,
      "oj": 236,
      "ens": 237,
      "fer": 238,
      "ekt": 239,
      "du": 240,
      "mar": 241,
      "agx": 242,
      "tiu": 243,
      "kr": 244,
      "sk": 245,
      "unu": 246,
      "don": 247,
      "op": 248,
      "mangx": 249,
      "bor": 250,
      "ern": 251,
      "manj": 252,
      "ant": 253,
      "end": 254,
      "az": 255,
      "uz": 256,
      "aci": 257,
      "ist": 258,
      "pens": 259,
      "labor": 260,
      "ali": 261,
      "cxiu": 262,
      "ajn": 263,
      "ku": 264,
      "ost": 265,
      "pat": 266,
      "pi": 267,
      "pren": 268,
      "pro": 269,
      "enc": 270,
      "viv": 271,
      "ej": 272,
      "manjo空": 273,
      "ing": 274,
      "tem": 275,
      "patr": 276,
      "lern": 277,
      "hel": 278,
      "ab": 279,
      "nov": 280,
      "lo": 281,
      "kiu": 282,
      "anc": 283,
      "on空": 284,
      "tel": 285,
      "it": 286,
      "hom": 287,
      "um": 288,
      "ig": 289,
      "inf": 290,
      "sp": 291,
      "help": 292,
      "il": 293,
      "kont": 294,
      "jar": 295,
      "und": 296,
      "tag": 297,
      "int": 298,
      "amik": 299,
      "ebl": 300,
      "esper": 301,
      "temp": 302,
      "ang": 303,
      "tut": 304,
      "ank": 305,
      "ezon": 306,
      "orm": 307,
      "ard": 308,
      "tim": 309,
      ";空": 310,
      "kred": 311,
      "grand": 312,
      "bezon": 313,
      "unu空": 314,
      "libr": 315,
      "las": 316,
      "sim": 317,
      "kl": 318,
      "kap": 319,
      "abl": 320,
      "ert": 321,
      "acx": 322,
      "mort": 323,
      "son": 324,
      "okaz": 325,
      "tra": 326,
      "vir": 327,
      "io": 328,
      "fl": 329,
      "dek": 330,
      "tri": 331,
      "ces": 332,
      "trov": 333,
      "edz": 334,
      "alt": 335,
      "auxt": 336,
      "hej": 337,
      "ini": 338,
      "sek": 339,
      "ev": 340,
      "sol": 341,
      "var": 342,
      "pet": 343,
      "fin": 344,
      "sam": 345,
      "hejm": 346,
      "po": 347,
      "stru": 348,
      "dom": 349,
      "eni": 350,
      "logx": 351,
      "infan": 352,
      "org": 353,
      "ne": 354,
      "af": 355,
      "of": 356,
      "ingv": 357,
      "rib": 358,
      "rest": 359,
      "lud": 360,
      "kt": 361,
      "acxet": 362,
      "lon": 363,
      "bel": 364,
      "im": 365,
      "mand": 366,
      "leg": 367,
      "sent": 368,
      "faci": 369,
      "lingv": 370,
      "sxajn": 371,
      "facil": 372,
      "nom": 373,
      "ef": 374,
      "demand": 375,
      "ser": 376,
      "skrib": 377,
      "ink": 378,
      "pas": 379,
      "bonvol": 380,
      "y空": 381,
      "kol": 382,
      "long": 383,
      "prov": 384,
      "fru": 385,
      "fil": 386,
      "qu": 387,
      "san": 388,
      "jun": 389,
      "&qu": 390,
      "ot;空": 391,
      "&quot;空": 392,
      "angx": 393,
      "pre": 394,
      "ord": 395,
      "tomas": 396,
      "kompren": 397,
      "franc": 398,
      "igx": 399,
      "ter": 400,
      "cert": 401,
      "pli": 402,
      "ust": 403,
      "kn": 404,
      "foj": 405,
      "res": 406,
      "hor": 407,
      "tomon空": 408,
      "ekz": 409,
      "knab": 410,
      "atend": 411,
      "rig": 412,
      "mari": 413,
      "ob": 414,
      "mat": 415,
      "e空": 416,
      "suk": 417,
      "a空": 418,
      "iz": 419,
      "kat": 420,
      "du空": 421,
      "frat": 422,
      "opini": 423,
      "auxd": 424,
      "pon": 425,
      "cid": 426,
      "ask": 427,
      "stud": 428,
      "up": 429,
      "neni": 430,
      "auxr": 431,
      "vin": 432,
      "og": 433,
      "kor": 434,
      "voj": 435,
      "re": 436,
      "dorm": 437,
      "land": 438,
      "kel": 439,
      "ren": 440,
      "cxam": 441,
      "ili": 442,
      "rapi": 443,
      "urb": 444,
      "plen": 445,
      "angl": 446,
      "dez": 447,
      "instru": 448,
      "bi": 449,
      "cxambr": 450,
      "fel": 451,
      "sid": 452,
      "pekt": 453,
      "rapid": 454,
      "varm": 455,
      "rigard": 456,
      "port": 457,
      "vet": 458,
      "icx": 459,
      "met": 460,
      "hund": 461,
      "viz": 462,
      "kelk": 463,
      "dezir": 464,
      "ferm": 465,
      "mary空": 466,
      "ac": 467,
      "felicx": 468,
      "tri空": 469,
      "ep": 470,
      "sukces": 471,
      "vort": 472,
      "us": 473,
      "mem": 474,
      "afer": 475,
      "okt": 476,
      "grav": 477,
      "dek空": 478,
      "blem": 479,
      "ten": 480,
      "raj": 481,
      "problem": 482,
      "oft": 483,
      "uv": 484,
      "bost": 485,
      "pol": 486,
      "aspekt": 487,
      "sem": 488,
      "od": 489,
      "prok": 490,
      "komenc": 491,
      "ber": 492,
      "efon": 493,
      "kri": 494,
      "telefon": 495,
      "vesper": 496,
      "boston": 497,
      "akt": 498,
      "respon": 499,
      "mond": 500,
      "trink": 501,
      "fort": 502,
      "os": 503,
      "iu": 504,
      "tik": 505,
      "fra": 506,
      "sxt": 507,
      "akv": 508,
      "post": 509,
      "kur": 510,
      "sufi": 511,
      "suficx": 512,
      "last": 513,
      "kura": 514,
      "mes": 515,
      "nokt": 516,
      "rom": 517,
      "jap": 518,
      "japan": 519,
      "kutim": 520,
      "vizit": 521,
      "asx": 522,
      "inter": 523,
      "maten": 524,
      "te": 525,
      "renkont": 526,
      "rid": 527,
      "cxes": 528,
      "respond": 529,
      "fam": 530,
      "gxust": 531,
      "mal": 532,
      "ont": 533,
      "semajn": 534,
      "pluv": 535,
      "dol": 536,
      "perd": 537,
      "eb": 538,
      "antaux": 539,
      "reg": 540,
      "proksim": 541,
      "lit": 542,
      "part": 543,
      "kapabl": 544,
      "ni": 545,
      "star": 546,
      "rajt": 547,
      "pla": 548,
      "tu": 549,
      "kant": 550,
      "memor": 551,
      "erar": 552,
      "id": 553,
      "poli": 554,
      "cent": 555,
      "flu": 556,
      "vok": 557,
      "tie": 558,
      "eter": 559,
      "kul": 560,
      "sxangx": 561,
      "cist": 562,
      "plan": 563,
      "ru": 564,
      "ret": 565,
      "orges": 566,
      "forges": 567,
      "decid": 568,
      "cxi-": 569,
      "lok": 570,
      "prez": 571,
      "arb": 572,
      "pan": 573,
      "jx": 574,
      "laux": 575,
      "nask": 576,
      "prom": 577,
      "duk": 578,
      "vit": 579,
      "ric": 580,
      "ricx": 581,
      "kvin": 582,
      "mens": 583,
      "zorg": 584,
      "ind": 585,
      "interes": 586,
      "liber": 587,
      "evid": 588,
      "poz": 589,
      "ricev": 590,
      "ekzist": 591,
      "okup": 592,
      "sil": 593,
      "oh": 594,
      "muz": 595,
      "pag": 596,
      "fid": 597,
      "pord": 598,
      "neces": 599,
      "ast": 600,
      "simpl": 601,
      "permes": 602,
      "kan": 603,
      "min": 604,
      "leter": 605,
      "ide": 606,
      "klar": 607,
      "vetur": 608,
      "pret": 609,
      "okul": 610,
      "nagx": 611,
      "person": 612,
      "prefer": 613,
      "cep": 614,
      "vend": 615,
      "sercx": 616,
      "dauxr": 617,
      "vojagx": 618,
      "instruist": 619,
      "mez": 620,
      "sekv": 621,
      "ier": 622,
      "cept": 623,
      "sal": 624,
      "plor": 625,
      "dank": 626,
      "fest": 627,
      "ori": 628,
      "gxen": 629,
      "kar": 630,
      "oz": 631,
      "kaf": 632,
      "uson": 633,
      "vest": 634,
      "arm": 635,
      "til": 636,
      "rakont": 637,
      "le": 638,
      "ub": 639,
      "scipov": 640,
      "gxoj": 641,
      "spekt": 642,
      "auxsk": 643,
      "auxskult": 644,
      "bat": 645,
      "is": 646,
      "har": 647,
      "mili": 648,
      "bed": 649,
      "intenc": 650,
      "aper": 651,
      "bedauxr": 652,
      "kapt": 653,
      "rez": 654,
      "placx": 655,
      "atent": 656,
      "fraz": 657,
      "pied": 658,
      "traj": 659,
      "fal": 660,
      "montr": 661,
      "estr": 662,
      "uk": 663,
      "film": 664,
      "ger": 665,
      "ec": 666,
      "trajn": 667,
      "mensog": 668,
      "bil": 669,
      "famili": 670,
      "lum": 671,
      "flug": 672,
      "elekt": 673,
      "sig": 674,
      "joh": 675,
      "iv": 676,
      "lat": 677,
      "pardon": 678,
      "fum": 679,
      "esk": 680,
      "ip": 681,
      "ekst": 682,
      "kuir": 683,
      "manjon空": 684,
      "prav": 685,
      "koler": 686,
      "cel": 687,
      "german": 688,
      "konstru": 689,
      "vil": 690,
      "sxtel": 691,
      "fakt": 692,
      "muzik": 693,
      "sur": 694,
      "ung": 695,
      "cident": 696,
      "lav": 697,
      "dr": 698,
      "fot": 699,
      "bar": 700,
      "mir": 701,
      "traf": 702,
      "pasint": 703,
      "stult": 704,
      "bu": 705,
      "kaux": 706,
      "mank": 707,
      "televid": 708,
      "ating": 709,
      "sin": 710,
      "pur": 711,
      "kun": 712,
      "supoz": 713,
      "romp": 714,
      "lac": 715,
      "halt": 716,
      "put": 717,
      "monat": 718,
      "sat": 719,
      "serv": 720,
      "trank": 721,
      "kuracist": 722,
      "gajn": 723,
      "bra": 724,
      "fun": 725,
      "priz": 726,
      "ofi": 727,
      "los": 728,
      "konsent": 729,
      "sun": 730,
      "send": 731,
      "erc": 732,
      "akcept": 733,
      "otel": 734,
      "kci": 735,
      "pom": 736,
      "student": 737,
      "sxanc": 738,
      "traduk": 739,
      "tat": 740,
      "adi": 741,
      "fisx": 742,
      "kulp": 743,
      "trankvil": 744,
      "mur": 745,
      "mil": 746,
      "tabl": 747,
      "propr": 748,
      "cikl": 749,
      "med": 750,
      "kost": 751,
      "uni": 752,
      "lig": 753,
      "omet": 754,
      "utag": 755,
      "dolor": 756,
      "ses": 757,
      "flor": 758,
      "bus": 759,
      "negx": 760,
      "strat": 761,
      "best": 762,
      "dan": 763,
      "fart": 764,
      "lu": 765,
      "kov": 766,
      "ocx": 767,
      "kvar": 768,
      "n空": 769,
      "tur": 770,
      "mark": 771,
      "kvin空": 772,
      "cxiutag": 773,
      "kresk": 774,
      "sxlos": 775,
      "tiv": 776,
      "l空": 777,
      "enez": 778,
      "jor": 779,
      "tist": 780,
      "de空": 781,
      "prop": 782,
      "frenez": 783,
      "minut": 784,
      "sist": 785,
      "kam": 786,
      "mi": 787,
      "polic": 788,
      "venk": 789,
      "dangx": 790,
      "amuz": 791,
      "dangxer": 792,
      "konf": 793,
      "solv": 794,
      "ban": 795,
      "vund": 796,
      "manier": 797,
      "fen": 798,
      "kasx": 799,
      "lik": 800,
      "dat": 801,
      "tia": 802,
      "akcident": 803,
      "park": 804,
      "0空": 805,
      "ancx": 806,
      "versxajn": 807,
      "funkci": 808,
      "jo空": 809,
      "ajr": 810,
      "util": 811,
      "emp": 812,
      "milit": 813,
      "task": 814,
      "konsil": 815,
      "kist": 816,
      "vers": 817,
      "dist": 818,
      "veter": 819,
      "nif": 820,
      "situ": 821,
      "eks": 822,
      "duon": 823,
      "ekde空": 824,
      "rel": 825,
      "val": 826,
      "kovr": 827,
      "bicikl": 828,
      "gxard": 829,
      "surpriz": 830,
      "strang": 831,
      "gxarden": 832,
      "promes": 833,
      "propon": 834,
      "kis": 835,
      "rugx": 836,
      "konsid": 837,
      "konsider": 838,
      "atur": 839,
      ":空": 840,
      "prof": 841,
      "pen": 842,
      "neniu": 843,
      "oci": 844,
      "vent": 845,
      "iomet": 846,
      "verk": 847,
      "pli空": 848,
      "bal": 849,
      "malpli空": 850,
      "signif": 851,
      "bir": 852,
      "fenestr": 853,
      "rev": 854,
      "vek": 855,
      "pun": 856,
      "komput": 857,
      "mom": 858,
      "amen": 859,
      "fekt": 860,
      "dung": 861,
      "ament": 862,
      "auxstr": 863,
      "moment": 864,
      "gram": 865,
      "klas": 866,
      "ma": 867,
      "tig": 868,
      "river": 869,
      "krist": 870,
      "hi": 871,
      "sep": 872,
      "gust": 873,
      "pend": 874,
      "cer": 875,
      "koramik": 876,
      "ofic": 877,
      "kond": 878,
      "kie": 879,
      "inform": 880,
      "se": 881,
      "esperant": 882,
      "donac": 883,
      "fik": 884,
      "form": 885,
      "hist": 886,
      "pop": 887,
      "ekster": 888,
      "kauxz": 889,
      "staci": 890,
      "simil": 891,
      "auxstrali": 892,
      "bri": 893,
      "naux": 894,
      "lakt": 895,
      "konsci": 896,
      "sub": 897,
      "pil": 898,
      "dik": 899,
      "ekzamen": 900,
      "mont": 901,
      "ign": 902,
      "stat": 903,
      "prun": 904,
      "kv": 905,
      "johan": 906,
      "sper": 907,
      "sxalt": 908,
      "apar": 909,
      "her": 910,
      "histori": 911,
      "eux": 912,
      "bird": 913,
      "danc": 914,
      "rilat": 915,
      "an空": 916,
      "trakt": 917,
      "vespermangx": 918,
      "promen": 919,
      "det": 920,
      "prem": 921,
      "hon": 922,
      "pent": 923,
      "sekret": 924,
      "eval": 925,
      "ugx": 926,
      "som": 927,
      "cxeval": 928,
      "kuk": 929,
      "afabl": 930,
      "blank": 931,
      "disk": 932,
      "kal": 933,
      "atemp": 934,
      "avi": 935,
      "regx": 936,
      "paf": 937,
      "valor": 938,
      "to": 939,
      "sxip": 940,
      "dub": 941,
      "baz": 942,
      "kre": 943,
      "tagmez": 944,
      "enis": 945,
      "kolor": 946,
      "somer": 947,
      "pez": 948,
      "sagx": 949,
      "tagmangx": 950,
      "komun": 951,
      "vocx": 952,
      "terur": 953,
      "brak": 954,
      "spir": 955,
      "horlogx": 956,
      "utr": 957,
      "oni": 958,
      "ek空": 959,
      "sinjor": 960,
      "hotel": 961,
      "cxin": 962,
      "trancx": 963,
      "akir": 964,
      "invit": 965,
      "ajx": 966,
      "tal": 967,
      "paci": 968,
      "posxt": 969,
      "sak": 970,
      "ebr": 971,
      "mov": 972,
      "eri": 973,
      "kondut": 974,
      "preci": 975,
      "regul": 976,
      "cxiel": 977,
      "cent空": 978,
      "batal": 979,
      "euxr": 980,
      "lan": 981,
      "adil空": 982,
      "ins": 983,
      "ekost": 984,
      "konat": 985,
      "kuragx": 986,
      "rimark": 987,
      "kontra": 988,
      "fadil空": 989,
      "kontent": 990,
      "intel": 991,
      "supr": 992,
      "ferenc": 993,
      "cxap": 994,
      "lag": 995,
      "multekost": 996,
      "usx": 997,
      "ombr": 998,
      "silent": 999,
      "sxu": 1000,
      "fajr": 1001,
      "tenis": 1002,
      "rob": 1003,
      "prepar": 1004,
      "rif": 1005,
      "dekstr": 1006,
      "mod": 1007,
      "tak": 1008,
      "scivol": 1009,
      "hx": 1010,
      "stir": 1011,
      "songx": 1012,
      "jxet": 1013,
      "bli": 1014,
      "lam": 1015,
      "rik": 1016,
      "brul": 1017,
      "infin": 1018,
      "span": 1019,
      "bild": 1020,
      "-空": 1021,
      "ond": 1022,
      "onkl": 1023,
      "naj": 1024,
      "pub": 1025,
      "gxu": 1026,
      "bibli": 1027,
      "toki": 1028,
      "japani": 1029,
      "dolar": 1030,
      "ner": 1031,
      "konduk": 1032,
      "hispan": 1033,
      "sxpar": 1034,
      "prezent": 1035,
      "finfin": 1036,
      "atik": 1037,
      "sxul": 1038,
      "gen": 1039,
      "prin": 1040,
      "igi": 1041,
      "spert": 1042,
      "ripar": 1043,
      "jud": 1044,
      "kigx": 1045,
      "real": 1046,
      "mil空": 1047,
      "gla": 1048,
      "nigr": 1049,
      "sed": 1050,
      "emd": 1051,
      "fremd": 1052,
      "ebri": 1053,
      "for": 1054,
      "fir": 1055,
      "tridek空": 1056,
      "sekur": 1057,
      "posx": 1058,
      "religi": 1059,
      "drink": 1060,
      "beb": 1061,
      "publik": 1062,
      "gra": 1063,
      "lev": 1064,
      "otek": 1065,
      "imag": 1066,
      "flank": 1067,
      "argx": 1068,
      "sxerc": 1069,
      "kvar空": 1070,
      "mer": 1071,
      "nutr": 1072,
      "kompl": 1073,
      "ecx": 1074,
      "vizagx": 1075,
      "apart": 1076,
      "plend": 1077,
      "legx": 1078,
      "pres": 1079,
      "preciz": 1080,
      "auxg": 1081,
      "fan": 1082,
      "sami": 1083,
      "art": 1084,
      "pregx": 1085,
      "matenmangx": 1086,
      "aviad": 1087,
      "versi": 1088,
      "euxrop": 1089,
      "dud": 1090,
      "scienc": 1091,
      "blu": 1092,
      "bru": 1093,
      "sufer": 1094,
      "bier": 1095,
      "kanad": 1096,
      "prunt": 1097,
      "lim": 1098,
      "rifuz": 1099,
      "edzigx": 1100,
      "situaci": 1101,
      "nas": 1102,
      "naci": 1103,
      "fier": 1104,
      "igent": 1105,
      "gar": 1106,
      "prim": 1107,
      "najbar": 1108,
      "lun": 1109,
      "oc": 1110,
      "inteligent": 1111,
      "mancx": 1112,
      "dimancx": 1113,
      "kial": 1114,
      "diskut": 1115,
      "mor": 1116,
      "roman": 1117,
      "turn": 1118,
      "ioz": 1119,
      "posed": 1120,
      "oraci": 1121,
      "lund": 1122,
      "feri": 1123,
      "umer": 1124,
      "prezid": 1125,
      "rezult": 1126,
      "disp": 1127,
      "naskigx": 1128,
      "ge": 1129,
      "stel": 1130,
      "centr": 1131,
      "soci": 1132,
      "serioz": 1133,
      "cxapel": 1134,
      "&ap": 1135,
      "ug": 1136,
      "ument": 1137,
      "pilk": 1138,
      "glaci": 1139,
      "&apos": 1140,
      "evit": 1141,
      "natur": 1142,
      "prob": 1143,
      "tauxg": 1144,
      "prot": 1145,
      "gri": 1146,
      "numer": 1147,
      "omp": 1148,
      "krim": 1149,
      "profund": 1150,
      "korp": 1151,
      "eci": 1152,
      "lert": 1153,
      "dam": 1154,
      "vink": 1155,
      "edzin": 1156,
      "evident": 1157,
      "olog": 1158,
      "sav": 1159,
      "kusx": 1160,
      "pac": 1161,
      "perfekt": 1162,
      "strecx": 1163,
      "mesagx": 1164,
      "gaz": 1165,
      "kia": 1166,
      "trol": 1167,
      "konvink": 1168,
      "spez": 1169,
      "lauxt": 1170,
      "kristnask": 1171,
      "en空": 1172,
      "butik": 1173,
      "diferenc": 1174,
      "agra": 1175,
      "restoraci": 1176,
      "senc": 1177,
      "bonsxanc": 1178,
      "frukt": 1179,
      "plibon": 1180,
      "cxi-vesper": 1181,
      "19": 1182,
      "tir": 1183,
      "ativ": 1184,
      "honest": 1185,
      "20": 1186,
      "ofor": 1187,
      "salut": 1188,
      "bank": 1189,
      "plur": 1190,
      "vintr": 1191,
      "nun": 1192,
      "subit": 1193,
      "lanjo空": 1194,
      "postul": 1195,
      "segx": 1196,
      "bibliotek": 1197,
      "mik": 1198,
      "ombrel": 1199,
      "versitat": 1200,
      "cxi-vespere空": 1201,
      "universitat": 1202,
      "glas": 1203,
      "log": 1204,
      "murd": 1205,
      "ben": 1206,
      "sang": 1207,
      "kiom": 1208,
      "sik": 1209,
      "vel": 1210,
      "estont": 1211,
      "radi": 1212,
      "cxef": 1213,
      "amb": 1214,
      "team": 1215,
      "jan": 1216,
      "dor": 1217,
      "skat": 1218,
      "pian": 1219,
      "nombr": 1220,
      "tato": 1221,
      "rus": 1222,
      "frap": 1223,
      "aer": 1224,
      "gi": 1225,
      "por": 1226,
      "paper": 1227,
      "tas": 1228,
      "oli": 1229,
      "viand": 1230,
      "rezign": 1231,
      "skatol": 1232,
      "tatoeb": 1233,
      "jugx": 1234,
      "cxarm": 1235,
      "kontrol": 1236,
      "ital": 1237,
      "neg": 1238,
      "cion": 1239,
      "cxer": 1240,
      "divid": 1241,
      "tusx": 1242,
      "john空": 1243,
      "aparten": 1244,
      "agrabl": 1245,
      "rek": 1246,
      "kamp": 1247,
      "auxtom": 1248,
      "odor": 1249,
      "but": 1250,
      "la空": 1251,
      "ism": 1252,
      "kalkul": 1253,
      "pasx": 1254,
      "tromp": 1255,
      "dukt": 1256,
      "program": 1257,
      "o-": 1258,
      "enu": 1259,
      "respekt": 1260,
      "hum": 1261,
      "kli": 1262,
      "sxofor": 1263,
      "speci": 1264,
      "egal": 1265,
      "matem": 1266,
      "verd": 1267,
      "pal": 1268,
      "atak": 1269,
      "cin": 1270,
      "not": 1271,
      "ektiv": 1272,
      "sum": 1273,
      "impres": 1274,
      "ses空": 1275,
      "bov": 1276,
      "vali": 1277,
      "erik": 1278,
      "oj空": 1279,
      "kok": 1280,
      "observ": 1281,
      "bilet": 1282,
      "kontraux": 1283,
      "gazet": 1284,
      "dicx": 1285,
      "hejmtask": 1286,
      "politik": 1287,
      "vig": 1288,
      "emiz": 1289,
      "pacienc": 1290,
      "dec": 1291,
      "grup": 1292,
      "opod": 1293,
      "rat": 1294,
      "amas": 1295,
      "vila": 1296,
      "klopod": 1297,
      "asxin": 1298,
      "plez": 1299,
      "sport": 1300,
      "vitr": 1301,
      "produkt": 1302,
      "fab": 1303,
      "grek": 1304,
      "gxentil": 1305,
      "vilagx": 1306,
      "ment": 1307,
      "kelkfoj": 1308,
      "mok": 1309,
      "red": 1310,
      "mend": 1311,
      "tekst": 1312,
      "anim": 1313,
      "suker": 1314,
      "matematik": 1315,
      "mag": 1316,
      "cxemiz": 1317,
      "esprim": 1318,
      "urs": 1319,
      "jxur": 1320,
      "tatoeba空": 1321,
      "plezur": 1322,
      "dent": 1323,
      "tigx": 1324,
      "seks": 1325,
      "panj": 1326,
      "lecion": 1327,
      "bril": 1328,
      "obl": 1329,
      "opren": 1330,
      "tol": 1331,
      "algx": 1332,
      "konc": 1333,
      "super": 1334,
      "partopren": 1335,
      "pec": 1336,
      "efik": 1337,
      "popol": 1338,
      "just": 1339,
      "eral": 1340,
      "kart": 1341,
      "ologi": 1342,
      "&apos;空": 1343,
      "masxin": 1344,
      "naz": 1345,
      "amerik": 1346,
      "pot": 1347,
      "haven": 1348,
      "malantaux": 1349,
      "malantaux空": 1350,
      "botel": 1351,
      "nerv": 1352,
      "sxuld": 1353,
      "posten": 1354,
      "sv": 1355,
      "gxustatemp": 1356,
      "piedir": 1357,
      "vast": 1358,
      "uzi": 1359,
      "cxir": 1360,
      "ular": 1361,
      "rist": 1362,
      "esplor": 1363,
      "liter": 1364,
      "adres": 1365,
      "des": 1366,
      "fantom": 1367,
      "dudek空": 1368,
      "men": 1369,
      "proj": 1370,
      "ion": 1371,
      "obr": 1372,
      "direkt": 1373,
      "nepr": 1374,
      "kolekt": 1375,
      "pentr": 1376,
      "sxak": 1377,
      "gres": 1378,
      "suspekt": 1379,
      "cxirkaux": 1380,
      "arest": 1381,
      "venont": 1382,
      "sm": 1383,
      "salt": 1384,
      "vic": 1385,
      "plej": 1386,
      "risk": 1387,
      "eskap": 1388,
      "marsx": 1389,
      "fingr": 1390,
      "firma": 1391,
      "raport": 1392,
      "konst": 1393,
      "devu": 1394,
      "rendevu": 1395,
      "insul": 1396,
      "gast": 1397,
      "ergi": 1398,
      "pariz": 1399,
      "pic": 1400,
      "astr": 1401,
      "obil": 1402,
      "medi": 1403,
      "kla": 1404,
      "punkt": 1405,
      "busx": 1406,
      "sistem": 1407,
      "cerb": 1408,
      "rast": 1409,
      "projekt": 1410,
      "esx": 1411,
      "kin": 1412,
      "ski": 1413,
      "onom": 1414,
      "sxton": 1415,
      "trafik": 1416,
      "fiks": 1417,
      "protekt": 1418,
      "mini": 1419,
      "konserv": 1420,
      "kru": 1421,
      "ump": 1422,
      "mortig": 1423,
      "haz": 1424,
      "odi": 1425,
      "ripoz": 1426,
      "list": 1427,
      "koncern": 1428,
      "semajnfin": 1429,
      "taksi": 1430,
      "london": 1431,
      "konfuz": 1432,
      "ted": 1433,
      "fran": 1434,
      "kurs": 1435,
      "sxtat": 1436,
      "policist": 1437,
      "konfes": 1438,
      "auxtomobil": 1439,
      "hazard": 1440,
      "bak": 1441,
      "kontakt": 1442,
      "nervoz": 1443,
      "likt": 1444,
      "volu": 1445,
      "pont": 1446,
      "spec": 1447,
      "obe": 1448,
      "bedauxrind": 1449,
      "onc": 1450,
      "ikament": 1451,
      "popular": 1452,
      "stacidom": 1453,
      "nul": 1454,
      "test": 1455,
      "taj": 1456,
      "itar": 1457,
      "medikament": 1458,
      "dors": 1459,
      "gvid": 1460,
      "norm": 1461,
      "stri": 1462,
      "arg": 1463,
      "akuz": 1464,
      "profes": 1465,
      "hont": 1466,
      "sup": 1467,
      "dilig": 1468,
      "difekt": 1469,
      "merit": 1470,
      "pak": 1471,
      "okol": 1472,
      "empl": 1473,
      "urgx": 1474,
      "dig": 1475,
      "bord": 1476,
      "ejn": 1477,
      "planed": 1478,
      "gxeneral": 1479,
      "sign": 1480,
      "detal": 1481,
      "diligent": 1482,
      "h空": 1483,
      "pruv": 1484,
      "konsist": 1485,
      "ekzempl": 1486,
      "regist": 1487,
      "lej": 1488,
      "roz": 1489,
      "s空": 1490,
      "rad": 1491,
      "fresx": 1492,
      "kvi": 1493,
      "pir": 1494,
      "plant": 1495,
      "advok": 1496,
      "dolcx": 1497,
      "advokat": 1498,
      "gitar": 1499,
      "ok空": 1500,
      "aman": 1501,
      "koncert": 1502,
      "bongust": 1503,
      "trem": 1504,
      "detru": 1505,
      "nord": 1506,
      "registar": 1507,
      "cen": 1508,
      "lin": 1509,
      "eduk": 1510,
      "itat": 1511,
      "naskigxtag": 1512,
      "mo": 1513,
      "nub": 1514,
      "zon": 1515,
      "zil": 1516,
      "orig": 1517,
      "inar": 1518,
      "avor": 1519,
      "komplet": 1520,
      "franci": 1521,
      "kviet": 1522,
      "bo": 1523,
      "kompar": 1524,
      "sep空": 1525,
      "onidir": 1526,
      "fut": 1527,
      "ektr": 1528,
      "printemp": 1529,
      "dispon": 1530,
      "favor": 1531,
      "orel": 1532,
      "trump": 1533,
      "plagx": 1534,
      "brazil": 1535,
      "probabl": 1536,
      "kult": 1537,
      "mp": 1538,
      "inst": 1539,
      "farb": 1540,
      "abil": 1541,
      "cxi-maten": 1542,
      "cxerp": 1543,
      "hebr": 1544,
      "logxant": 1545,
      "okulvitr": 1546,
      "univers": 1547,
      "prokrast": 1548,
      "cxi-matene空": 1549,
      "mantel": 1550,
      "special": 1551,
      "kest": 1552,
      "prezidant": 1553,
      "largx": 1554,
      "mel": 1555,
      "sov": 1556,
      "orangx": 1557,
      "elektr": 1558,
      "hos": 1559,
      "ken空": 1560,
      "pik": 1561,
      "lauxebl": 1562,
      "flughaven": 1563,
      "potenc": 1564,
      "do": 1565,
      "nik": 1566,
      "bonven": 1567,
      "ka": 1568,
      "pap": 1569,
      "anti": 1570,
      "ordon": 1571,
      "cxag": 1572,
      "divers": 1573,
      "progres": 1574,
      "sonor": 1575,
      "flav": 1576,
      "origin": 1577,
      "hebre": 1578,
      "avert": 1579,
      "plimult": 1580,
      "milion": 1581,
      "bol": 1582,
      "paux": 1583,
      "rol": 1584,
      "amanier": 1585,
      "hospi": 1586,
      "cxagren": 1587,
      "ark": 1588,
      "supren": 1589,
      "organ": 1590,
      "salajr": 1591,
      "nuntemp": 1592,
      "00空": 1593,
      "gard": 1594,
      "teg": 1595,
      "oktobr": 1596,
      "relativ": 1597,
      "dok": 1598,
      "foli": 1599,
      "gol": 1600,
      "mot": 1601,
      "pacx": 1602,
      "auxtor": 1603,
      "ekzakt": 1604,
      "pacxj": 1605,
      "3空": 1606,
      "bul": 1607,
      "i空": 1608,
      "estim": 1609,
      "riz": 1610,
      "diabl": 1611,
      "ordinar": 1612,
      "apartament": 1613,
      "hospital": 1614,
      "fend": 1615,
      "nal": 1616,
      "veg": 1617,
      "soldat": 1618,
      "rajon": 1619,
      "kurac": 1620,
      "islam": 1621,
      "onomi": 1622,
      "arti": 1623,
      "jxurnal": 1624,
      "fak": 1625,
      "k空": 1626,
      "krajon": 1627,
      "pu": 1628,
      "in空": 1629,
      "admir": 1630,
      "okolad": 1631,
      "sing": 1632,
      "krur": 1633,
      "herb": 1634,
      "talent": 1635,
      "ko": 1636,
      "rekt": 1637,
      "cxokolad": 1638,
      "akl": 1639,
      "akom": 1640,
      "parolad": 1641,
      "ofend": 1642,
      "metr": 1643,
      "aparat": 1644,
      "negoc": 1645,
      "lejla空": 1646,
      "plenkresk": 1647,
      "gl": 1648,
      "atr": 1649,
      "aflikt": 1650,
      "sxtelist": 1651,
      "komunik": 1652,
      "prak": 1653,
      "eksci": 1654,
      "konven": 1655,
      "volont": 1656,
      "unufoj": 1657,
      "lastatemp": 1658,
      "posxtelefon": 1659,
      "algxeri": 1660,
      "praktik": 1661,
      "nur": 1662,
      "front": 1663,
      "lernej": 1664,
      "muze": 1665,
      "jork": 1666,
      "akompan": 1667,
      "pul": 1668,
      "pagx": 1669,
      "tek": 1670,
      "uri": 1671,
      "alic": 1672,
      "iluzi": 1673,
      "aktor": 1674,
      "lauxd": 1675,
      "toler": 1676,
      "5空": 1677,
      "sud": 1678,
      "afrik": 1679,
      "grimp": 1680,
      "kab": 1681,
      "sor": 1682,
      "cxiumaten": 1683,
      "poem": 1684,
      "piedpilk": 1685,
      "germani": 1686,
      "normal": 1687,
      "kultur": 1688,
      "ocxambr": 1689,
      "arangx": 1690,
      "aluz": 1691,
      "parti": 1692,
      "tro": 1693,
      "sier": 1694,
      "plum": 1695,
      "ekzerc": 1696,
      "pardonpet": 1697,
      "del": 1698,
      "jxaluz": 1699,
      "dosier": 1700,
      "ekscit": 1701,
      "proviz": 1702,
      "pani": 1703,
      "minac": 1704,
      "arme": 1705,
      "dokument": 1706,
      "cir": 1707,
      "nud": 1708,
      "s-": 1709,
      "kondicx": 1710,
      "plik": 1711,
      "ignor": 1712,
      "motor": 1713,
      "ro空": 1714,
      "plu": 1715,
      "kompani": 1716,
      "membr": 1717,
      "lign": 1718,
      "hero": 1719,
      "ced": 1720,
      "gaj": 1721,
      "kuz": 1722,
      "van": 1723,
      "bonfart": 1724,
      "tegment": 1725,
      "son空": 1726,
      "anstat": 1727,
      "edi": 1728,
      "mastr": 1729,
      "sxir": 1730,
      "aj空": 1731,
      "komerc": 1732,
      "spac": 1733,
      "jarcent": 1734,
      "anstataux": 1735,
      "2空": 1736,
      "cxini": 1737,
      "entre": 1738,
      "opir": 1739,
      "sank": 1740,
      "azi": 1741,
      "influ": 1742,
      "angul": 1743,
      "valiz": 1744,
      "entrepren": 1745,
      "mord": 1746,
      "omagx": 1747,
      "er空": 1748,
      "lip": 1749,
      "asert": 1750,
      "verkist": 1751,
      "samtemp": 1752,
      "vocxdon": 1753,
      "damagx": 1754,
      "energi": 1755,
      "venen": 1756,
      "afoj": 1757,
      "respondec": 1758,
      "orient": 1759,
      "kvard": 1760,
      "maj": 1761,
      "otabl": 1762,
      "ari": 1763,
      "priv": 1764,
      "ezi": 1765,
      "komfort": 1766,
      "kritik": 1767,
      "klarig": 1768,
      "taks": 1769,
      "futbal": 1770,
      "privat": 1771,
      "babil": 1772,
      "plom": 1773,
      "fit": 1774,
      "krom": 1775,
      "efektiv": 1776,
      "fumad": 1777,
      "jekt": 1778,
      "kaz": 1779,
      "koh": 1780,
      "mus": 1781,
      "ripet": 1782,
      "egn": 1783,
      "auxtun": 1784,
      "fals": 1785,
      "gej": 1786,
      "uar": 1787,
      "arab": 1788,
      "etagx": 1789,
      "trejn": 1790,
      "dusx": 1791,
      "abat": 1792,
      "komprenebl": 1793,
      "terpom": 1794,
      "teatr": 1795,
      "modern": 1796,
      "desegn": 1797,
      "ia": 1798,
      "ofer": 1799,
      "cxas": 1800,
      "fromagx": 1801,
      "kiot": 1802,
      "laborist": 1803,
      "graved": 1804,
      "sxtorm": 1805,
      "teori": 1806,
      "larm": 1807,
      "ribu": 1808,
      "sankt": 1809,
      "gest": 1810,
      "tab": 1811,
      "invent": 1812,
      "diplom": 1813,
      "strand": 1814,
      "mol": 1815,
      "sand": 1816,
      "sopir": 1817,
      "antik": 1818,
      "ekonomi": 1819,
      "tru": 1820,
      "disting": 1821,
      "bob": 1822,
      "frid": 1823,
      "idi": 1824,
      "map": 1825,
      "so": 1826,
      "omend": 1827,
      "ekstr": 1828,
      "plank": 1829,
      "fleg": 1830,
      "prezident": 1831,
      "rekomend": 1832,
      "antikv": 1833,
      "ici": 1834,
      "sabat": 1835,
      "inkl": 1836,
      "etern": 1837,
      "kompat": 1838,
      "firm": 1839,
      "menci": 1840,
      "boat": 1841,
      "artikol": 1842,
      "boj": 1843,
      "evolu": 1844,
      "jes": 1845,
      "jac": 1846,
      "kver": 1847,
      "embar": 1848,
      "aopini": 1849,
      "aprob": 1850,
      "if": 1851,
      "ikist": 1852,
      "sen": 1853,
      "ton": 1854,
      "gxem": 1855,
      "eksk": 1856,
      "okcident": 1857,
      "dufoj": 1858,
      "dek-": 1859,
      "serpent": 1860,
      "disput": 1861,
      "faj": 1862,
      "kos": 1863,
      "mist": 1864,
      "avid": 1865,
      "brun": 1866,
      "distanc": 1867,
      "ekspl": 1868,
      "grad": 1869,
      "embaras": 1870,
      "hez": 1871,
      "tond": 1872,
      "defend": 1873,
      "rak": 1874,
      "blind": 1875,
      "impost": 1876,
      "ju": 1877,
      "pek": 1878,
      "pant": 1879,
      "ane": 1880,
      "indi": 1881,
      "sxargx": 1882,
      "rab": 1883,
      "akr": 1884,
      "opil": 1885,
      "skribotabl": 1886,
      "sever": 1887,
      "singard": 1888,
      "eksplod": 1889,
      "hezit": 1890,
      "ch": 1891,
      "lind": 1892,
      "no": 1893,
      "oper": 1894,
      "vag": 1895,
      "tikist": 1896,
      "pri": 1897,
      "klub": 1898,
      "fraux": 1899,
      "sxtup": 1900,
      "indik": 1901,
      "surd": 1902,
      "drog": 1903,
      "prizon": 1904,
      "adiaux": 1905,
      "organiz": 1906,
      "kverel": 1907,
      "fusx": 1908,
      "alkoh": 1909,
      "koment": 1910,
      "intern": 1911,
      "latin": 1912,
      "premi": 1913,
      "klient": 1914,
      "alkohol": 1915,
      "cit": 1916,
      "rit": 1917,
      "vicx": 1918,
      "opi": 1919,
      "antagx": 1920,
      "profit": 1921,
      "vendred": 1922,
      "sxultr": 1923,
      "alon": 1924,
      "bob空": 1925,
      "bas": 1926,
      "font": 1927,
      "hast": 1928,
      "estin": 1929,
      "boneg": 1930,
      "parenc": 1931,
      "frost": 1932,
      "auxtob": 1933,
      "fojfoj": 1934,
      "miks": 1935,
      "ceter": 1936,
      "avat": 1937,
      "vide": 1938,
      "portug": 1939,
      "rub": 1940,
      "kvindek空": 1941,
      "medicin": 1942,
      "-a空": 1943,
      "fek": 1944,
      "fund": 1945,
      "hal": 1946,
      "teler": 1947,
      "pluvombrel": 1948,
      "sincer": 1949,
      "lukt": 1950,
      "buton": 1951,
      "pauxz": 1952,
      "auxtobus": 1953,
      "febr": 1954,
      "jak": 1955,
      "kast": 1956,
      "lup": 1957,
      "mam": 1958,
      "rimed": 1959,
      "es空": 1960,
      "kravat": 1961,
      "absol": 1962,
      "faktur": 1963,
      "sandvicx": 1964,
      "absolut": 1965,
      "lini": 1966,
      "na": 1967,
      "perfort": 1968,
      "grat": 1969,
      "fiask": 1970,
      "soif": 1971,
      "kad": 1972,
      "lar": 1973,
      "pel": 1974,
      "usk": 1975,
      "vul": 1976,
      "fiz": 1977,
      "api": 1978,
      "egul": 1979,
      "brit": 1980,
      "fabrik": 1981,
      "kioto空": 1982,
      "glat": 1983,
      "sxok": 1984,
      "elef": 1985,
      "ejl": 1986,
      "legom": 1987,
      "koleg": 1988,
      "junul": 1989,
      "bill空": 1990,
      "s-ro空": 1991,
      "ekstrem": 1992,
      "18": 1993,
      "ean": 1994,
      "omb": 1995,
      "tip": 1996,
      "eleg": 1997,
      "berber": 1998,
      "mild": 1999,
      "kontrakt": 2000,
      "idiot": 2001,
      "elefant": 2002,
      "bet": 2003,
      "ron": 2004,
      "artist": 2005,
      "cip": 2006,
      "ancer": 2007,
      "rajd": 2008,
      "prunte": 2009,
      "pacient": 2010,
      "fajf": 2011,
      "hung": 2012,
      "ani": 2013,
      "sxr": 2014,
      "mars": 2015,
      "temper": 2016,
      "nep": 2017,
      "korekt": 2018,
      "leon": 2019,
      "dron": 2020,
      "jane空": 2021,
      "kvardek空": 2022,
      "pruntepren": 2023,
      "-jar": 2024,
      "geni": 2025,
      "hauxt": 2026,
      "lot": 2027,
      "mak": 2028,
      "edon": 2029,
      "duobl": 2030,
      "ogra": 2031,
      "metod": 2032,
      "fisxkapt": 2033,
      "kvant": 2034,
      "princ": 2035,
      "pusx": 2036,
      "tort": 2037,
      "vaz": 2038,
      "erv": 2039,
      "tomb": 2040,
      "eder": 2041,
      "novjork": 2042,
      "poet": 2043,
      "pruntedon": 2044,
      "pork": 2045,
      "humor": 2046,
      "d空": 2047,
      "eti": 2048,
      "fon": 2049,
      "tend": 2050,
      "vor": 2051,
      "avantagx": 2052,
      "ojn空": 2053,
      "spegul": 2054,
      "dani": 2055,
      "kvali": 2056,
      "ocean": 2057,
      "raci": 2058,
      "perfid": 2059,
      "versx": 2060,
      "loz": 2061,
      "region": 2062,
      "politikist": 2063,
      "uks": 2064,
      "dudek": 2065,
      "kancer": 2066,
      "mek": 2067,
      "encist": 2068,
      "pron": 2069,
      "unt": 2070,
      "as空": 2071,
      "sugest": 2072,
      "ruin": 2073,
      "rezerv": 2074,
      "supozebl": 2075,
      "dan空": 2076,
      "naux空": 2077,
      "kruel": 2078,
      "sovagx": 2079,
      "pantalon": 2080,
      "kastel": 2081,
      "stin": 2082,
      "emoci": 2083,
      "sciencist": 2084,
      "pion": 2085,
      "valid": 2086,
      "portugal": 2087,
      "kir": 2088,
      "gran": 2089,
      "aplik": 2090,
      "abel": 2091,
      "kamion": 2092,
      "ro": 2093,
      "arane": 2094,
      "civit": 2095,
      "escept": 2096,
      "dedicx": 2097,
      "devig": 2098,
      "inigx": 2099,
      "neux": 2100,
      "mezur": 2101,
      "buter": 2102,
      "klimat": 2103,
      "ministr": 2104,
      "profesor": 2105,
      "temperatur": 2106,
      "ring": 2107,
      "simi": 2108,
      "imper": 2109,
      "kanzon": 2110,
      "rezist": 2111,
      "argument": 2112,
      "lang": 2113,
      "mum": 2114,
      "ripro": 2115,
      "klud": 2116,
      "telefonnumer": 2117,
      "posttagmez": 2118,
      "harmon": 2119,
      "prononc": 2120,
      "riprocx": 2121,
      "miz": 2122,
      "pa": 2123,
      "pup": 2124,
      "omen": 2125,
      "sxov": 2126,
      "sklav": 2127,
      "pasport": 2128,
      "tertrem": 2129,
      "start": 2130,
      "karak": 2131,
      "magaz": 2132,
      "jim": 2133,
      "uziv": 2134,
      "event": 2135,
      "obi": 2136,
      "upt": 2137,
      "urbo": 2138,
      "kantist": 2139,
      "klascxambr": 2140,
      "frauxl": 2141,
      "rok": 2142,
      "konkurs": 2143,
      "abund": 2144,
      "reven": 2145,
      "georg": 2146,
      "30空": 2147,
      "ful": 2148,
      "moj": 2149,
      "mejl": 2150,
      "sof": 2151,
      "deklar": 2152,
      "misi": 2153,
      "griz": 2154,
      "konstant": 2155,
      "original": 2156,
      "cigar": 2157,
      "el空": 2158,
      "konvers": 2159,
      "aktiv": 2160,
      "adop": 2161,
      "intens": 2162,
      "auxdac": 2163,
      "epok": 2164,
      "nivel": 2165,
      "ometr": 2166,
      "honor": 2167,
      "suprenir": 2168,
      "sxrank": 2169,
      "konversaci": 2170,
      "hodi": 2171,
      "indu": 2172,
      "akord": 2173,
      "didat": 2174,
      "kapdolor": 2175,
      "dormocxambr": 2176,
      "tuk": 2177,
      "kandidat": 2178,
      "ocxjo空": 2179,
      "gramatik": 2180,
      "posxtmark": 2181,
      "genr": 2182,
      "trump空": 2183,
      "1空": 2184,
      "io空": 2185,
      "kopi": 2186,
      "ran": 2187,
      "demok": 2188,
      "sciur": 2189,
      "asm": 2190,
      "dici": 2191,
      "minimum": 2192,
      "tabul": 2193,
      "flag": 2194,
      "jup": 2195,
      "sabl": 2196,
      "tiamanier": 2197,
      "vist": 2198,
      "filoz": 2199,
      "aliz": 2200,
      "korb": 2201,
      "kriz": 2202,
      "banan": 2203,
      "bazar": 2204,
      "mister": 2205,
      "mojos": 2206,
      "adopt": 2207,
      "demokrat": 2208,
      "ft": 2209,
      "fugx": 2210,
      "visx": 2211,
      "ikl": 2212,
      "krud": 2213,
      "materi": 2214,
      "kore": 2215,
      "harmoni": 2216,
      "hodiaux": 2217,
      "a-": 2218,
      "esting": 2219,
      "eksp": 2220,
      "kons": 2221,
      "dis": 2222,
      "infanagx": 2223,
      "profesi": 2224,
      "papili": 2225,
      "gxemel": 2226,
      "karakter": 2227,
      "gal": 2228,
      "jid": 2229,
      "ura": 2230,
      "entig": 2231,
      "blov": 2232,
      "klin": 2233,
      "lastnokt": 2234,
      "kunikl": 2235,
      "spirit": 2236,
      "gepatr": 2237,
      "fizik": 2238,
      "hungar": 2239,
      "fad": 2240,
      "gas": 2241,
      "istr": 2242,
      "vang": 2243,
      "omak": 2244,
      "arki": 2245,
      "preleg": 2246,
      "sxaf": 2247,
      "kil": 2248,
      "raz": 2249,
      "verdir": 2250,
      "rusi": 2251,
      "fikci": 2252,
      "opilk": 2253,
      "kvalit": 2254,
      "imperi": 2255,
      "7空": 2256,
      "apr": 2257,
      "barb": 2258,
      "sezon": 2259,
      "scen": 2260,
      "insist": 2261,
      "vigx": 2262,
      "lamp": 2263,
      "komplez": 2264,
      "den": 2265,
      "neder": 2266,
      "stomak": 2267,
      "anonc": 2268,
      "amn": 2269,
      "uli": 2270,
      "emi": 2271,
      "komitat": 2272,
      "spur": 2273,
      "virus": 2274,
      "vari": 2275,
      "pretend": 2276,
      "migr": 2277,
      "literatur": 2278,
      "konsult": 2279,
      "hip": 2280,
      "cial": 2281,
      "egip": 2282,
      "kapit": 2283,
      "sekund": 2284,
      "nederland": 2285,
      ")空": 2286,
      "kas": 2287,
      "kort": 2288,
      "atest": 2289,
      "sxnur": 2290,
      "mani": 2291,
      "laborposten": 2292,
      "finn": 2293,
      "sanig": 2294,
      "objekt": 2295,
      "cigared": 2296,
      "bud": 2297,
      "apog": 2298,
      "kredit": 2299,
      "financ": 2300,
      "gras": 2301,
      "radio": 2302,
      "nazi": 2303,
      "jim空": 2304,
      "4空": 2305,
      "6空": 2306,
      "fasx": 2307,
      "glit": 2308,
      "kand": 2309,
      "nam": 2310,
      "pint": 2311,
      "tun": 2312,
      "inent": 2313,
      "rael": 2314,
      "konfid": 2315,
      "matcx": 2316,
      "201": 2317,
      "(空": 2318,
      "fur": 2319,
      "hir": 2320,
      "amor": 2321,
      "lift": 2322,
      "bros": 2323,
      "komp": 2324,
      "nov-": 2325,
      "bien": 2326,
      "sxtop": 2327,
      "nokte空": 2328,
      "registr": 2329,
      "ident": 2330,
      "turk": 2331,
      "algxer": 2332,
      "glut": 2333,
      "ofert": 2334,
      "april": 2335,
      "fas": 2336,
      "ham": 2337,
      "ole": 2338,
      "konkur": 2339,
      "pere": 2340,
      "apt": 2341,
      "unuafoj": 2342,
      "tradici": 2343,
      "dekjar": 2344,
      "legad": 2345,
      "cxi-posttagmez": 2346,
      "vigl": 2347,
      "inkluziv": 2348,
      "kilometr": 2349,
      "9空": 2350,
      "ahx": 2351,
      "kra": 2352,
      "t空": 2353,
      "u空": 2354,
      "inet": 2355,
      "sxtrump": 2356,
      "viol": 2357,
      "templ": 2358,
      "kontribu": 2359,
      "sidlok": 2360,
      "fidel": 2361,
      "insult": 2362,
      "let": 2363,
      "mas": 2364,
      "tocxjo空": 2365,
      "vak": 2366,
      "stil": 2367,
      "arte": 2368,
      "prud": 2369,
      "vik": 2370,
      "unun": 2371,
      "konferenc": 2372,
      "aux空": 2373,
      "apud": 2374,
      "edzinigx": 2375,
      "solec": 2376,
      "obstin": 2377,
      "banbord": 2378,
      "eksper": 2379,
      "mizer": 2380,
      "artefar": 2381,
      "bast": 2382,
      "kud": 2383,
      "mebl": 2384,
      "era": 2385,
      "rikol": 2386,
      "ajl": 2387,
      "oport": 2388,
      "abomen": 2389,
      "iment": 2390,
      "implik": 2391,
      "cxi-nokte空": 2392,
      "mezlern": 2393,
      "kondamn": 2394,
      "fanfar": 2395,
      "&apos;": 2396,
      "benk": 2397,
      "plejpart": 2398,
      "edukad": 2399,
      "meksik": 2400,
      "ununur": 2401,
      "gant": 2402,
      "juli": 2403,
      "nok": 2404,
      "sxut": 2405,
      "liver": 2406,
      "blok": 2407,
      "persv": 2408,
      "diven": 2409,
      "difin": 2410,
      "ador": 2411,
      "skvit": 2412,
      "itali": 2413,
      "biskvit": 2414,
      "apisx": 2415,
      "prudent": 2416,
      "persvad": 2417,
      "atom": 2418,
      "etik": 2419,
      "glav": 2420,
      "individ": 2421,
      "konekt": 2422,
      "bret": 2423,
      "komb": 2424,
      "kompet": 2425,
      "agxer": 2426,
      "cxiuokaz": 2427,
      "angli": 2428,
      "tutmond": 2429,
      "angxel": 2430,
      "matur": 2431,
      "bici": 2432,
      "cxi-moment": 2433,
      "ekskurs": 2434,
      "kandel": 2435,
      "cxi-posttagmeze空": 2436,
      "rikolt": 2437,
      "fanfaron": 2438,
      "individu": 2439,
      "kompetent": 2440,
      "cxi-momente空": 2441,
      "bur": 2442,
      "fac": 2443,
      "anas": 2444,
      "trifoj": 2445,
      "seksem": 2446,
      "juni": 2447,
      "golf": 2448,
      "delik": 2449,
      "naiv": 2450,
      "eksperiment": 2451,
      "oportun": 2452,
      "uj": 2453,
      "etr": 2454,
      "kontigx": 2455,
      "grund": 2456,
      "pasagxer": 2457,
      "mirakl": 2458,
      "hered": 2459,
      "insekt": 2460,
      "genu": 2461,
      "sxaklud": 2462,
      "veget": 2463,
      "sorcx": 2464,
      "c空": 2465,
      "fos": 2466,
      "furi": 2467,
      "ual": 2468,
      "ingx": 2469,
      "alergi": 2470,
      "volv": 2471,
      "sku": 2472,
      "virt": 2473,
      "flar": 2474,
      "trist": 2475,
      "altern": 2476,
      "hejmen": 2477,
      "renkontigx": 2478,
      "israel": 2479,
      "mike空": 2480,
      "palestin": 2481,
      "purig": 2482,
      "ingxeni": 2483,
      "10空": 2484,
      "tapisx": 2485,
      "envi": 2486,
      "elig": 2487,
      "alfab": 2488,
      "tran": 2489,
      "utemp": 2490,
      "cxiujar": 2491,
      "pasi": 2492,
      "polv": 2493,
      "muzikist": 2494,
      "pasintjar": 2495,
      "oficial": 2496,
      "brakhorlogx": 2497,
      "logik": 2498,
      "magi": 2499,
      "sved": 2500,
      "operaci": 2501,
      "gratul": 2502,
      "urbocentr": 2503,
      "demokrati": 2504,
      "furioz": 2505,
      "alfabet": 2506,
      "dens": 2507,
      "fek空": 2508,
      "fond": 2509,
      "hok": 2510,
      "are": 2511,
      "amigx": 2512,
      "urat": 2513,
      "procent": 2514,
      "lernad": 2515,
      "romi": 2516,
      "tuj": 2517,
      "pozici": 2518,
      "robot": 2519,
      "grandi": 2520,
      "fascin": 2521,
      "delikat": 2522,
      "jen": 2523,
      "kot": 2524,
      "pug": 2525,
      "konklud": 2526,
      "lic": 2527,
      "alig": 2528,
      "pati": 2529,
      "itu": 2530,
      "turist": 2531,
      "datreven": 2532,
      "nauxz": 2533,
      "gener": 2534,
      "damn": 2535,
      "benz": 2536,
      "instig": 2537,
      "fulm": 2538,
      "industri": 2539,
      "hier": 2540,
      "jon": 2541,
      "kaj": 2542,
      "ling": 2543,
      "sort": 2544,
      "ukt": 2545,
      "tomez": 2546,
      "over": 2547,
      "vis": 2548,
      "viaopini": 2549,
      "defi": 2550,
      "embr": 2551,
      "asek": 2552,
      "akurat": 2553,
      "diet": 2554,
      "ego": 2555,
      "igant": 2556,
      "nebul": 2557,
      "junagx": 2558,
      "cxi-jar": 2559,
      "ukra": 2560,
      "kruc": 2561,
      "radioaparat": 2562,
      "komputil": 2563,
      "baston": 2564,
      "grandioz": 2565,
      "gn": 2566,
      "kav": 2567,
      "irm": 2568,
      "tigr": 2569,
      "amp": 2570,
      "kilo": 2571,
      "komplik": 2572,
      "skot": 2573,
      "ktur": 2574,
      "plad": 2575,
      "kostum": 2576,
      "venontsemajn": 2577,
      "jesu": 2578,
      "viktim": 2579,
      "kudr": 2580,
      "vegetar": 2581,
      "gigant": 2582,
      "mask": 2583,
      "moz": 2584,
      "tor": 2585,
      "vat": 2586,
      "sxvit": 2587,
      "deg": 2588,
      "donal": 2589,
      "taglibr": 2590,
      "poezi": 2591,
      "libertemp": 2592,
      "konfirm": 2593,
      "traktat": 2594,
      "redukt": 2595,
      "jack空": 2596,
      "basbal": 2597,
      "asekur": 2598,
      "cxi-jare空": 2599,
      "kilogram": 2600,
      "8空": 2601,
      "glo": 2602,
      "ken": 2603,
      "psi": 2604,
      "tus": 2605,
      "tiutemp": 2606,
      "alog": 2607,
      "amar": 2608,
      "pigr": 2609,
      "reprezent": 2610,
      "interpret": 2611,
      "retposxt": 2612,
      "sekvant": 2613,
      "kamera": 2614,
      "tokipon": 2615,
      "protest": 2616,
      "tajp": 2617,
      "mosk": 2618,
      "benzin": 2619,
      "bot": 2620,
      "ehx": 2621,
      "ie": 2622,
      "lo空": 2623,
      "musx": 2624,
      "enig": 2625,
      "arog": 2626,
      "konsum": 2627,
      "vidpunkt": 2628,
      "marbord": 2629,
      "miliard": 2630,
      "kuirist": 2631,
      "klak": 2632,
      "kosm": 2633,
      "noktomez": 2634,
      "ingxenier": 2635,
      "dokt": 2636,
      "fant": 2637,
      "jon空": 2638,
      "oplen": 2639,
      "ano空": 2640,
      "old": 2641,
      "gxir": 2642,
      "blond": 2643,
      "ith空": 2644,
      "studad": 2645,
      "reci": 2646,
      "barat": 2647,
      "revu": 2648,
      "intelekt": 2649,
      "model": 2650,
      "merkat": 2651,
      "venontjar": 2652,
      "aprez": 2653,
      "band": 2654,
      "mos": 2655,
      "net": 2656,
      "pes": 2657,
      "vad": 2658,
      "infer": 2659,
      "koncentr": 2660,
      "entuzi": 2661,
      "trud": 2662,
      "revolu": 2663,
      "varmeg": 2664,
      "boston空": 2665,
      "spektakl": 2666,
      "miel": 2667,
      "hispani": 2668,
      "princip": 2669,
      "geedzigx": 2670,
      "ambur": 2671,
      "vulp": 2672,
      "dentist": 2673,
      "doktor": 2674,
      "entuziasm": 2675,
      "revoluci": 2676,
      "drak": 2677,
      "mis": 2678,
      "svis": 2679,
      "brav": 2680,
      "sxatokup": 2681,
      "kron": 2682,
      "kret": 2683,
      "optim": 2684,
      "kum": 2685,
      "ankor": 2686,
      "koloni": 2687,
      "kanab": 2688,
      "parker": 2689,
      "nauxcent空": 2690,
      "konscienc": 2691,
      "fiksrigard": 2692,
      "ograf": 2693,
      "morg": 2694,
      "nor": 2695,
      "nev": 2696,
      "rul": 2697,
      "sint": 2698,
      "spion": 2699,
      "indig": 2700,
      "debl": 2701,
      "lad": 2702,
      "ras": 2703,
      "konstat": 2704,
      "agno": 2705,
      "kub": 2706,
      "samklas": 2707,
      "salat": 2708,
      "gardist": 2709,
      "moral": 2710,
      "auxtomat": 2711,
      "smith空": 2712,
      "sxirm": 2713,
      "jack": 2714,
      "agnosk": 2715,
      "col": 2716,
      "frit": 2717,
      "malic": 2718,
      "osx": 2719,
      "putr": 2720,
      "vost": 2721,
      "cxar": 2722,
      "deprim": 2723,
      "ement": 2724,
      "fiancx": 2725,
      "monstr": 2726,
      "adol": 2727,
      "simbol": 2728,
      "simpati": 2729,
      "kler": 2730,
      "metal": 2731,
      "lastjar": 2732,
      "salon": 2733,
      "balot": 2734,
      "forn": 2735,
      "januar": 2736,
      "auxtoritat": 2737,
      "filozofi": 2738,
      "donald空": 2739,
      "reciprok": 2740,
      "jackson空": 2741,
      "000空": 2742,
      "gur": 2743,
      "hobi": 2744,
      "ket": 2745,
      "pok": 2746,
      "psik": 2747,
      "ruz": 2748,
      "tomat": 2749,
      "alb": 2750,
      "ajo空": 2751,
      "otag": 2752,
      "kusen": 2753,
      "samopini": 2754,
      "imit": 2755,
      "pasvort": 2756,
      "kelner": 2757,
      "osauxr": 2758,
      "lastfoj": 2759,
      "besto": 2760,
      "sekretari": 2761,
      "cxeriz": 2762,
      "humur": 2763,
      "greki": 2764,
      "klasik": 2765,
      "linda空": 2766,
      "fok": 2767,
      "gor": 2768,
      "gim": 2769,
      "pastr": 2770,
      "analiz": 2771,
      "sxel": 2772,
      "ambici": 2773,
      "radik": 2774,
      "akcx": 2775,
      "korupt": 2776,
      "berlin": 2777,
      "fortun": 2778,
      "sesdek空": 2779,
      "kredebl": 2780,
      "olibr": 2781,
      "desert": 2782,
      "piknik": 2783,
      "material": 2784,
      "fasxist": 2785,
      "violon": 2786,
      "gamb": 2787,
      "hit": 2788,
      "nu": 2789,
      "nanc": 2790,
      "rav": 2791,
      "tan": 2792,
      "turb": 2793,
      "vili": 2794,
      "vengx": 2795,
      "pleks": 2796,
      "gren": 2797,
      "streb": 2798,
      "cxiufoj": 2799,
      "kapital": 2800,
      "katastr": 2801,
      "dezert": 2802,
      "miaopini": 2803,
      "subst": 2804,
      "precip": 2805,
      "sciencfikci": 2806,
      "humil": 2807,
      "konstanc": 2808,
      "cirkonstanc": 2809,
      "akcxent": 2810,
      "nancy空": 2811,
      "katastrof": 2812,
      "hak": 2813,
      "kag": 2814,
      "ry空": 2815,
      "rond": 2816,
      "ty空": 2817,
      "avar": 2818,
      "avent": 2819,
      "perlabor": 2820,
      "tron": 2821,
      "tret": 2822,
      "hejt": 2823,
      "impon": 2824,
      "kurten": 2825,
      "konform": 2826,
      "traktad": 2827,
      "posxtofic": 2828,
      "kadav": 2829,
      "b空": 2830,
      "faz": 2831,
      "pin": 2832,
      "demisi": 2833,
      "gru": 2834,
      "adapt": 2835,
      "marik": 2836,
      "ajn空": 2837,
      "homamas": 2838,
      "timig": 2839,
      "struktur": 2840,
      "foje空": 2841,
      "instruad": 2842,
      "biologi": 2843,
      "mien": 2844,
      "formul": 2845,
      "motiv": 2846,
      "pulover": 2847,
      "magazen": 2848,
      "egipt": 2849,
      "glob": 2850,
      "kadavr": 2851,
      "0-": 2852,
      "ba": 2853,
      "bag": 2854,
      "loj": 2855,
      "x空": 2856,
      "zo": 2857,
      "oven": 2858,
      "kiamanier": 2859,
      "konk": 2860,
      "cxikag": 2861,
      "brancx": 2862,
      "vert": 2863,
      "dukist": 2864,
      "progn": 2865,
      "dekdu": 2866,
      "respublik": 2867,
      "liberig": 2868,
      "nauxdek空": 2869,
      "kvad": 2870,
      "stirpermes": 2871,
      "garanti": 2872,
      "dorlot": 2873,
      "reklam": 2874,
      "motorcikl": 2875,
      "mojosa空": 2876,
      "aventur": 2877,
      "prognoz": 2878,
      "aki": 2879,
      "cind": 2880,
      "jam": 2881,
      "kemi": 2882,
      "lek": 2883,
      "le空": 2884,
      "musk": 2885,
      "past": 2886,
      "rand": 2887,
      "spr": 2888,
      "aten": 2889,
      "ovend": 2890,
      "cifer": 2891,
      "sxarg": 2892,
      "alingv": 2893,
      "mansak": 2894,
      "okom": 2895,
      "emoni": 2896,
      "tre": 2897,
      "verb": 2898,
      "aplauxd": 2899,
      "fervoj": 2900,
      "mard": 2901,
      "martel": 2902,
      "agxa空": 2903,
      "unuigx": 2904,
      "timid": 2905,
      "tricent空": 2906,
      "seri": 2907,
      "reput": 2908,
      "kultiv": 2909,
      "nagxad": 2910,
      "uko空": 2911,
      "ceremoni": 2912,
      "limig": 2913,
      "ambas": 2914,
      "nulig": 2915,
      "reputaci": 2916,
      "din": 2917,
      "fri": 2918,
      "fung": 2919,
      "hind": 2920,
      "na空": 2921,
      "zir": 2922,
      "ara空": 2923,
      "ator": 2924,
      "esenc": 2925,
      "filip": 2926,
      "ado空": 2927,
      "absurd": 2928,
      "domagx": 2929,
      "izol": 2930,
      "instrukci": 2931,
      "cxi-foje空": 2932,
      "jugxist": 2933,
      "-jara空": 2934,
      "trans": 2935,
      "arogant": 2936,
      "kvadrat": 2937,
      "fand": 2938,
      "rost": 2939,
      "rap": 2940,
      "emer": 2941,
      "litigx": 2942,
      "trot": 2943,
      "agad": 2944,
      "kontentig": 2945,
      "vart": 2946,
      "samagx": 2947,
      "vinber": 2948,
      "pasintsemajn": 2949,
      "balen": 2950,
      "statu": 2951,
      "sango": 2952,
      "trafikakcident": 2953,
      "majstr": 2954,
      "alternativ": 2955,
      "fantazi": 2956,
      "50空": 2957,
      "destin": 2958,
      "gut": 2959,
      "ic": 2960,
      "kac": 2961,
      "mit": 2962,
      "plast": 2963,
      "sens": 2964,
      "tar": 2965,
      "urist": 2966,
      "ong": 2967,
      "invest": 2968,
      "inspir": 2969,
      "ate": 2970,
      "olor": 2971,
      "olik": 2972,
      "titol": 2973,
      "alarm": 2974,
      "auxfoj": 2975,
      "akci": 2976,
      "agr": 2977,
      "piter": 2978,
      "prosper": 2979,
      "kontant": 2980,
      "katolik": 2981,
      "mondmilit": 2982,
      "is空": 2983,
      "fotograf": 2984,
      "kvartal": 2985,
      "pensi": 2986,
      "instal": 2987,
      "jupiter": 2988,
      "20空": 2989,
      "bomb": 2990,
      "do空": 2991,
      "fo": 2992,
      "glu": 2993,
      "naf": 2994,
      "nologi": 2995,
      "pneux": 2996,
      "incen": 2997,
      "cxel": 2998,
      "cxek": 2999
    },
    "merges": [
      ". 空",
      "s t",
      "e st",
      ", 空",
      "o m",
      "o n",
      "e n",
      "a n",
      "e r",
      "a r",
      "t om",
      "o r",
      "? 空",
      "i n",
      "o 空",
      "a t",
      "i r",
      "o l",
      "g x",
      "c x",
      "t i",
      "tom o空",
      "o v",
      "p r",
      "c i",
      "s x",
      "e l",
      "e k",
      "a v",
      "a l",
      "a m",
      "r i",
      "e s",
      "v i",
      "u n",
      "e t",
      "m an",
      "u l",
      "d e",
      "k i",
      "l a",
      "u x",
      "h av",
      "p ov",
      "r a",
      "k on",
      "o k",
      "f ar",
      "e m",
      "l i",
      "en t",
      "b on",
      "v ol",
      "a ux",
      "tom 空",
      "u r",
      "p ar",
      "e d",
      "s ci",
      "a s",
      "d ir",
      "b l",
      "p er",
      "v en",
      "t r",
      "s i",
      "ti o",
      "p l",
      "ul t",
      "cx i",
      "a k",
      "i k",
      "or t",
      "f r",
      "e z",
      "! 空",
      "b r",
      "a g",
      "v er",
      "u t",
      "g r",
      "f i",
      "a j",
      "vi d",
      "s u",
      "d i",
      "sx at",
      "de v",
      "ki o",
      "k om",
      "a p",
      "e g",
      "o t",
      "m ult",
      "st r",
      "m on",
      "par ol",
      "an d",
      "a d",
      "u d",
      "o j",
      "en s",
      "f er",
      "ek t",
      "d u",
      "m ar",
      "a gx",
      "ti u",
      "k r",
      "s k",
      "un u",
      "d on",
      "o p",
      "man gx",
      "b or",
      "er n",
      "man j",
      "an t",
      "en d",
      "a z",
      "u z",
      "a ci",
      "i st",
      "p ens",
      "la bor",
      "al i",
      "cxi u",
      "aj n",
      "k u",
      "o st",
      "p at",
      "p i",
      "pr en",
      "pr o",
      "en c",
      "vi v",
      "e j",
      "manj o空",
      "in g",
      "t em",
      "pat r",
      "l ern",
      "h el",
      "a b",
      "n ov",
      "l o",
      "ki u",
      "an c",
      "on 空",
      "t el",
      "i t",
      "h om",
      "u m",
      "i g",
      "in f",
      "s p",
      "hel p",
      "i l",
      "kon t",
      "j ar",
      "un d",
      "t ag",
      "in t",
      "am ik",
      "e bl",
      "es per",
      "tem p",
      "an g",
      "t ut",
      "an k",
      "ez on",
      "or m",
      "ar d",
      "ti m",
      "; 空",
      "kr ed",
      "gr and",
      "b ezon",
      "unu 空",
      "li br",
      "la s",
      "si m",
      "k l",
      "k ap",
      "a bl",
      "er t",
      "a cx",
      "m ort",
      "s on",
      "ok az",
      "t ra",
      "v ir",
      "i o",
      "f l",
      "d ek",
      "t ri",
      "c es",
      "tr ov",
      "ed z",
      "al t",
      "aux t",
      "h ej",
      "in i",
      "s ek",
      "e v",
      "s ol",
      "v ar",
      "p et",
      "f in",
      "s am",
      "hej m",
      "p o",
      "str u",
      "d om",
      "en i",
      "lo gx",
      "inf an",
      "or g",
      "n e",
      "a f",
      "o f",
      "ing v",
      "ri b",
      "r est",
      "l ud",
      "k t",
      "acx et",
      "l on",
      "b el",
      "i m",
      "man d",
      "l eg",
      "s ent",
      "f aci",
      "l ingv",
      "sx ajn",
      "faci l",
      "n om",
      "e f",
      "de mand",
      "s er",
      "sk rib",
      "in k",
      "p as",
      "bon vol",
      "y 空",
      "k ol",
      "lon g",
      "pr ov",
      "fr u",
      "fi l",
      "q u",
      "s an",
      "j un",
      "& qu",
      "ot ;空",
      "&qu ot;空",
      "an gx",
      "pr e",
      "or d",
      "tom as",
      "kom pren",
      "fr anc",
      "i gx",
      "t er",
      "c ert",
      "p li",
      "u st",
      "k n",
      "f oj",
      "r es",
      "h or",
      "tom on空",
      "ek z",
      "kn ab",
      "at end",
      "ri g",
      "mar i",
      "o b",
      "m at",
      "e 空",
      "su k",
      "a 空",
      "i z",
      "k at",
      "du 空",
      "fr at",
      "op ini",
      "aux d",
      "p on",
      "ci d",
      "as k",
      "st ud",
      "u p",
      "n eni",
      "aux r",
      "v in",
      "o g",
      "k or",
      "v oj",
      "r e",
      "d orm",
      "l and",
      "k el",
      "r en",
      "cx am",
      "i li",
      "ra pi",
      "ur b",
      "pl en",
      "ang l",
      "de z",
      "in stru",
      "b i",
      "cxam br",
      "f el",
      "si d",
      "p ekt",
      "rapi d",
      "var m",
      "rig ard",
      "p ort",
      "v et",
      "i cx",
      "m et",
      "h und",
      "vi z",
      "kel k",
      "dez ir",
      "fer m",
      "mar y空",
      "a c",
      "fel icx",
      "tri 空",
      "e p",
      "suk ces",
      "v ort",
      "u s",
      "m em",
      "a fer",
      "ok t",
      "gr av",
      "dek 空",
      "bl em",
      "t en",
      "ra j",
      "pro blem",
      "of t",
      "u v",
      "b ost",
      "p ol",
      "as pekt",
      "s em",
      "o d",
      "pr ok",
      "kom enc",
      "b er",
      "ef on",
      "k ri",
      "tel efon",
      "v esper",
      "bost on",
      "ak t",
      "res pon",
      "mon d",
      "tr ink",
      "f ort",
      "o s",
      "i u",
      "ti k",
      "f ra",
      "sx t",
      "ak v",
      "p ost",
      "k ur",
      "su fi",
      "sufi cx",
      "la st",
      "ku ra",
      "m es",
      "n okt",
      "r om",
      "j ap",
      "jap an",
      "ku tim",
      "viz it",
      "a sx",
      "int er",
      "mat en",
      "t e",
      "ren kont",
      "ri d",
      "cx es",
      "respon d",
      "f am",
      "gx ust",
      "m al",
      "on t",
      "sem ajn",
      "pl uv",
      "d ol",
      "per d",
      "e b",
      "ant aux",
      "r eg",
      "prok sim",
      "li t",
      "par t",
      "kap abl",
      "n i",
      "st ar",
      "raj t",
      "p la",
      "t u",
      "k ant",
      "mem or",
      "er ar",
      "i d",
      "pol i",
      "c ent",
      "fl u",
      "v ok",
      "ti e",
      "et er",
      "k ul",
      "sx angx",
      "ci st",
      "pl an",
      "r u",
      "r et",
      "org es",
      "f orges",
      "de cid",
      "cxi -",
      "l ok",
      "pr ez",
      "ar b",
      "p an",
      "j x",
      "la ux",
      "n ask",
      "pr om",
      "du k",
      "vi t",
      "ri c",
      "ri cx",
      "k vin",
      "m ens",
      "z org",
      "in d",
      "inter es",
      "li ber",
      "e vid",
      "po z",
      "ric ev",
      "ekz ist",
      "ok up",
      "si l",
      "o h",
      "m uz",
      "p ag",
      "fi d",
      "p ord",
      "ne ces",
      "a st",
      "sim pl",
      "per mes",
      "k an",
      "m in",
      "l eter",
      "i de",
      "kl ar",
      "vet ur",
      "pr et",
      "ok ul",
      "n agx",
      "per son",
      "pre fer",
      "c ep",
      "ven d",
      "ser cx",
      "d auxr",
      "voj agx",
      "instru ist",
      "m ez",
      "sek v",
      "i er",
      "cep t",
      "s al",
      "pl or",
      "d ank",
      "f est",
      "or i",
      "gx en",
      "k ar",
      "o z",
      "k af",
      "u son",
      "v est",
      "ar m",
      "ti l",
      "ra kont",
      "l e",
      "u b",
      "sci pov",
      "gx oj",
      "sp ekt",
      "aux sk",
      "auxsk ult",
      "b at",
      "i s",
      "h ar",
      "m ili",
      "b ed",
      "int enc",
      "a per",
      "bed auxr",
      "kap t",
      "r ez",
      "pla cx",
      "at ent",
      "fra z",
      "pi ed",
      "tra j",
      "f al",
      "mon tr",
      "est r",
      "u k",
      "fil m",
      "g er",
      "e c",
      "traj n",
      "mens og",
      "b il",
      "fam ili",
      "l um",
      "flu g",
      "el ekt",
      "si g",
      "j oh",
      "i v",
      "l at",
      "par don",
      "f um",
      "es k",
      "i p",
      "ek st",
      "ku ir",
      "manj on空",
      "pr av",
      "kol er",
      "c el",
      "ger man",
      "kon stru",
      "vi l",
      "sx tel",
      "f akt",
      "muz ik",
      "s ur",
      "un g",
      "cid ent",
      "l av",
      "d r",
      "f ot",
      "b ar",
      "m ir",
      "tra f",
      "pas int",
      "st ult",
      "b u",
      "k aux",
      "man k",
      "tel evid",
      "at ing",
      "s in",
      "p ur",
      "k un",
      "su poz",
      "rom p",
      "la c",
      "h alt",
      "p ut",
      "mon at",
      "s at",
      "ser v",
      "tr ank",
      "kura cist",
      "g ajn",
      "b ra",
      "f un",
      "pr iz",
      "o fi",
      "lo s",
      "kon sent",
      "s un",
      "s end",
      "er c",
      "ak cept",
      "ot el",
      "k ci",
      "p om",
      "stud ent",
      "sx anc",
      "tra duk",
      "t at",
      "a di",
      "fi sx",
      "kul p",
      "trank vil",
      "m ur",
      "m il",
      "t abl",
      "pro pr",
      "ci kl",
      "m ed",
      "k ost",
      "un i",
      "li g",
      "om et",
      "ut ag",
      "dol or",
      "s es",
      "fl or",
      "b us",
      "ne gx",
      "str at",
      "b est",
      "d an",
      "far t",
      "l u",
      "k ov",
      "o cx",
      "k var",
      "n 空",
      "t ur",
      "mar k",
      "kvin 空",
      "cxi utag",
      "kr esk",
      "sx los",
      "ti v",
      "l 空",
      "en ez",
      "j or",
      "ti st",
      "de 空",
      "pr op",
      "fr enez",
      "min ut",
      "si st",
      "k am",
      "m i",
      "poli c",
      "ven k",
      "d angx",
      "am uz",
      "dangx er",
      "kon f",
      "sol v",
      "b an",
      "v und",
      "man ier",
      "f en",
      "k asx",
      "li k",
      "d at",
      "ti a",
      "ak cident",
      "par k",
      "0 空",
      "an cx",
      "ver sxajn",
      "fun kci",
      "j o空",
      "aj r",
      "u til",
      "em p",
      "mili t",
      "t ask",
      "kon sil",
      "ki st",
      "ver s",
      "di st",
      "vet er",
      "ni f",
      "si tu",
      "ek s",
      "du on",
      "ek de空",
      "r el",
      "v al",
      "kov r",
      "bi cikl",
      "gx ard",
      "sur priz",
      "str ang",
      "gxard en",
      "prom es",
      "prop on",
      "ki s",
      "ru gx",
      "kon sid",
      "konsid er",
      "at ur",
      ": 空",
      "pro f",
      "p en",
      "neni u",
      "o ci",
      "v ent",
      "i omet",
      "ver k",
      "pli 空",
      "b al",
      "mal pli空",
      "sig nif",
      "b ir",
      "fen estr",
      "r ev",
      "v ek",
      "p un",
      "kom put",
      "m om",
      "am en",
      "f ekt",
      "d ung",
      "am ent",
      "aux str",
      "mom ent",
      "gr am",
      "k las",
      "m a",
      "ti g",
      "ri ver",
      "kri st",
      "h i",
      "s ep",
      "g ust",
      "p end",
      "c er",
      "kor amik",
      "ofi c",
      "kon d",
      "ki e",
      "inf orm",
      "s e",
      "esper ant",
      "don ac",
      "f ik",
      "f orm",
      "h ist",
      "p op",
      "ekst er",
      "kaux z",
      "st aci",
      "sim il",
      "auxstr ali",
      "b ri",
      "n aux",
      "la kt",
      "kon sci",
      "su b",
      "pi l",
      "d ik",
      "ekz amen",
      "mon t",
      "ig n",
      "st at",
      "pr un",
      "k v",
      "joh an",
      "s per",
      "sx alt",
      "a par",
      "h er",
      "hist ori",
      "e ux",
      "bir d",
      "d anc",
      "ri lat",
      "an 空",
      "tra kt",
      "vesper mangx",
      "prom en",
      "d et",
      "pr em",
      "h on",
      "p ent",
      "sek ret",
      "ev al",
      "u gx",
      "s om",
      "cx eval",
      "ku k",
      "af abl",
      "bl ank",
      "di sk",
      "k al",
      "at emp",
      "av i",
      "re gx",
      "p af",
      "val or",
      "t o",
      "sx ip",
      "du b",
      "b az",
      "kr e",
      "tag mez",
      "eni s",
      "kol or",
      "som er",
      "p ez",
      "s agx",
      "tag mangx",
      "kom un",
      "v ocx",
      "ter ur",
      "bra k",
      "sp ir",
      "hor logx",
      "u tr",
      "on i",
      "ek 空",
      "sin jor",
      "h otel",
      "cx in",
      "tr ancx",
      "ak ir",
      "in vit",
      "aj x",
      "t al",
      "p aci",
      "po sxt",
      "s ak",
      "e br",
      "m ov",
      "er i",
      "kond ut",
      "pre ci",
      "reg ul",
      "cxi el",
      "cent 空",
      "bat al",
      "eux r",
      "l an",
      "adi l空",
      "in s",
      "ek ost",
      "kon at",
      "kura gx",
      "ri mark",
      "kont ra",
      "f adil空",
      "kont ent",
      "in tel",
      "su pr",
      "fer enc",
      "cx ap",
      "la g",
      "mult ekost",
      "u sx",
      "om br",
      "sil ent",
      "sx u",
      "f ajr",
      "t enis",
      "r ob",
      "pre par",
      "ri f",
      "dek str",
      "m od",
      "t ak",
      "sci vol",
      "h x",
      "st ir",
      "son gx",
      "jx et",
      "b li",
      "l am",
      "ri k",
      "br ul",
      "inf in",
      "sp an",
      "bil d",
      "- 空",
      "on d",
      "on kl",
      "n aj",
      "p ub",
      "gx u",
      "bi bli",
      "to ki",
      "japan i",
      "dol ar",
      "n er",
      "kon duk",
      "hi span",
      "sx par",
      "prez ent",
      "f infin",
      "at ik",
      "sx ul",
      "g en",
      "pr in",
      "ig i",
      "sper t",
      "ri par",
      "j ud",
      "ki gx",
      "re al",
      "mil 空",
      "g la",
      "ni gr",
      "s ed",
      "em d",
      "fr emd",
      "eb ri",
      "f or",
      "f ir",
      "tri dek空",
      "sek ur",
      "po sx",
      "rel igi",
      "dr ink",
      "b eb",
      "pub lik",
      "g ra",
      "l ev",
      "ot ek",
      "im ag",
      "fl ank",
      "ar gx",
      "sx erc",
      "kvar 空",
      "m er",
      "n utr",
      "kom pl",
      "e cx",
      "viz agx",
      "a part",
      "pl end",
      "le gx",
      "pr es",
      "preci z",
      "aux g",
      "f an",
      "sam i",
      "ar t",
      "pre gx",
      "maten mangx",
      "avi ad",
      "ver si",
      "euxr op",
      "d ud",
      "sci enc",
      "bl u",
      "br u",
      "su fer",
      "bi er",
      "kan ad",
      "prun t",
      "li m",
      "rif uz",
      "edz igx",
      "situ aci",
      "n as",
      "n aci",
      "fi er",
      "ig ent",
      "g ar",
      "pr im",
      "naj bar",
      "l un",
      "o c",
      "intel igent",
      "man cx",
      "di mancx",
      "ki al",
      "disk ut",
      "m or",
      "rom an",
      "tur n",
      "io z",
      "po sed",
      "or aci",
      "l und",
      "fer i",
      "um er",
      "prez id",
      "rez ult",
      "di sp",
      "nas kigx",
      "g e",
      "st el",
      "cent r",
      "s oci",
      "ser ioz",
      "cxap el",
      "& ap",
      "u g",
      "um ent",
      "pil k",
      "gla ci",
      "&ap os",
      "e vit",
      "n atur",
      "pro b",
      "t auxg",
      "pr ot",
      "g ri",
      "n umer",
      "om p",
      "kri m",
      "prof und",
      "kor p",
      "e ci",
      "l ert",
      "d am",
      "v ink",
      "edz in",
      "evid ent",
      "ol og",
      "s av",
      "ku sx",
      "p ac",
      "per fekt",
      "str ecx",
      "mes agx",
      "g az",
      "ki a",
      "tr ol",
      "kon vink",
      "sp ez",
      "laux t",
      "krist nask",
      "en 空",
      "bu tik",
      "di ferenc",
      "ag ra",
      "rest oraci",
      "s enc",
      "bon sxanc",
      "fru kt",
      "pli bon",
      "cxi- vesper",
      "1 9",
      "t ir",
      "at iv",
      "hon est",
      "2 0",
      "of or",
      "sal ut",
      "b ank",
      "pl ur",
      "vin tr",
      "n un",
      "sub it",
      "lan jo空",
      "post ul",
      "se gx",
      "bibli otek",
      "m ik",
      "ombr el",
      "versi tat",
      "cxi-vesper e空",
      "uni versitat",
      "g las",
      "lo g",
      "mur d",
      "b en",
      "s ang",
      "ki om",
      "si k",
      "v el",
      "est ont",
      "ra di",
      "cx ef",
      "am b",
      "te am",
      "j an",
      "d or",
      "sk at",
      "pi an",
      "nom br",
      "tat o",
      "r us",
      "fra p",
      "a er",
      "g i",
      "p or",
      "p aper",
      "t as",
      "ol i",
      "vi and",
      "rez ign",
      "skat ol",
      "tato eb",
      "j ugx",
      "cx arm",
      "kon trol",
      "it al",
      "n eg",
      "ci on",
      "cx er",
      "di vid",
      "tu sx",
      "joh n空",
      "apar ten",
      "agra bl",
      "r ek",
      "kam p",
      "aux tom",
      "od or",
      "b ut",
      "la 空",
      "is m",
      "kal kul",
      "p asx",
      "tr omp",
      "du kt",
      "pro gram",
      "o -",
      "en u",
      "res pekt",
      "h um",
      "k li",
      "sx ofor",
      "sp eci",
      "eg al",
      "mat em",
      "ver d",
      "p al",
      "at ak",
      "c in",
      "n ot",
      "ek tiv",
      "su m",
      "im pres",
      "ses 空",
      "b ov",
      "v ali",
      "er ik",
      "oj 空",
      "k ok",
      "ob serv",
      "bil et",
      "kontra ux",
      "gaz et",
      "di cx",
      "hejm task",
      "poli tik",
      "vi g",
      "em iz",
      "paci enc",
      "de c",
      "gr up",
      "op od",
      "r at",
      "am as",
      "vi la",
      "kl opod",
      "asx in",
      "pl ez",
      "sp ort",
      "vi tr",
      "pro dukt",
      "f ab",
      "gr ek",
      "gxen til",
      "vila gx",
      "m ent",
      "kelk foj",
      "m ok",
      "r ed",
      "m end",
      "t ekst",
      "an im",
      "suk er",
      "matem atik",
      "m ag",
      "cx emiz",
      "es prim",
      "ur s",
      "jx ur",
      "tatoeb a空",
      "plez ur",
      "d ent",
      "ti gx",
      "sek s",
      "pan j",
      "le cion",
      "bri l",
      "o bl",
      "o pren",
      "t ol",
      "al gx",
      "kon c",
      "su per",
      "part opren",
      "p ec",
      "ef ik",
      "pop ol",
      "j ust",
      "er al",
      "kar t",
      "olog i",
      "&apos ;空",
      "m asxin",
      "n az",
      "am erik",
      "p ot",
      "hav en",
      "mal antaux",
      "malantaux 空",
      "b otel",
      "ner v",
      "sxul d",
      "post en",
      "s v",
      "gxust atemp",
      "pied ir",
      "v ast",
      "uz i",
      "cx ir",
      "ul ar",
      "ri st",
      "es plor",
      "li ter",
      "ad res",
      "d es",
      "fan tom",
      "dud ek空",
      "m en",
      "pr oj",
      "i on",
      "o br",
      "dir ekt",
      "ne pr",
      "kol ekt",
      "pent r",
      "sx ak",
      "gr es",
      "su spekt",
      "cxir kaux",
      "ar est",
      "ven ont",
      "s m",
      "s alt",
      "vi c",
      "pl ej",
      "ri sk",
      "es kap",
      "mar sx",
      "fin gr",
      "fir ma",
      "ra port",
      "kon st",
      "dev u",
      "ren devu",
      "ins ul",
      "g ast",
      "er gi",
      "par iz",
      "pi c",
      "a str",
      "ob il",
      "med i",
      "k la",
      "pun kt",
      "bu sx",
      "sist em",
      "cer b",
      "ra st",
      "proj ekt",
      "e sx",
      "k in",
      "s ki",
      "on om",
      "sxt on",
      "traf ik",
      "fik s",
      "prot ekt",
      "m ini",
      "kon serv",
      "kr u",
      "um p",
      "mor tig",
      "h az",
      "o di",
      "ri poz",
      "li st",
      "konc ern",
      "semajn fin",
      "tak si",
      "lon don",
      "konf uz",
      "t ed",
      "fr an",
      "kur s",
      "sxt at",
      "poli cist",
      "konf es",
      "auxtom obil",
      "haz ard",
      "b ak",
      "kont akt",
      "nerv oz",
      "li kt",
      "vol u",
      "pon t",
      "sp ec",
      "ob e",
      "bedauxr ind",
      "on c",
      "ik ament",
      "pop ular",
      "staci dom",
      "n ul",
      "t est",
      "t aj",
      "it ar",
      "med ikament",
      "dor s",
      "g vid",
      "n orm",
      "st ri",
      "ar g",
      "ak uz",
      "prof es",
      "h ont",
      "su p",
      "di lig",
      "di fekt",
      "mer it",
      "p ak",
      "ok ol",
      "em pl",
      "ur gx",
      "di g",
      "bor d",
      "ej n",
      "plan ed",
      "gxen eral",
      "sig n",
      "det al",
      "dilig ent",
      "h 空",
      "pr uv",
      "kon sist",
      "ekz empl",
      "reg ist",
      "l ej",
      "r oz",
      "s 空",
      "ra d",
      "fr esx",
      "k vi",
      "p ir",
      "pl ant",
      "ad vok",
      "dol cx",
      "advok at",
      "g itar",
      "ok 空",
      "am an",
      "kon cert",
      "bon gust",
      "tr em",
      "det ru",
      "n ord",
      "regist ar",
      "c en",
      "l in",
      "ed uk",
      "it at",
      "naskigx tag",
      "m o",
      "n ub",
      "z on",
      "z il",
      "or ig",
      "in ar",
      "av or",
      "kompl et",
      "fran ci",
      "kvi et",
      "b o",
      "kom par",
      "sep 空",
      "oni dir",
      "f ut",
      "ek tr",
      "prin temp",
      "disp on",
      "f avor",
      "or el",
      "tr ump",
      "pla gx",
      "bra zil",
      "prob abl",
      "k ult",
      "m p",
      "in st",
      "far b",
      "ab il",
      "cxi- maten",
      "cxer p",
      "h ebr",
      "logx ant",
      "okul vitr",
      "uni vers",
      "prok rast",
      "cxi-maten e空",
      "man tel",
      "speci al",
      "k est",
      "prezid ant",
      "l argx",
      "m el",
      "s ov",
      "or angx",
      "el ektr",
      "h os",
      "k en空",
      "p ik",
      "laux ebl",
      "flug haven",
      "pot enc",
      "d o",
      "n ik",
      "bon ven",
      "k a",
      "p ap",
      "an ti",
      "or don",
      "cx ag",
      "di vers",
      "pro gres",
      "son or",
      "fl av",
      "orig in",
      "hebr e",
      "av ert",
      "pli mult",
      "mili on",
      "b ol",
      "p aux",
      "r ol",
      "aman ier",
      "hos pi",
      "cxag ren",
      "ar k",
      "su pren",
      "org an",
      "sal ajr",
      "nun temp",
      "0 0空",
      "g ard",
      "t eg",
      "okt obr",
      "rel ativ",
      "d ok",
      "f oli",
      "g ol",
      "m ot",
      "p acx",
      "auxt or",
      "ekz akt",
      "pacx j",
      "3 空",
      "b ul",
      "i 空",
      "est im",
      "ri z",
      "di abl",
      "ord inar",
      "apart ament",
      "hospi tal",
      "f end",
      "n al",
      "v eg",
      "sol dat",
      "raj on",
      "kura c",
      "is lam",
      "onom i",
      "ar ti",
      "jxur nal",
      "f ak",
      "k 空",
      "k rajon",
      "p u",
      "in 空",
      "ad mir",
      "okol ad",
      "s ing",
      "kr ur",
      "her b",
      "tal ent",
      "k o",
      "r ekt",
      "cx okolad",
      "ak l",
      "ak om",
      "parol ad",
      "of end",
      "met r",
      "apar at",
      "neg oc",
      "lej la空",
      "plen kresk",
      "g l",
      "at r",
      "af likt",
      "sxtel ist",
      "komun ik",
      "pr ak",
      "ek sci",
      "kon ven",
      "vol ont",
      "unu foj",
      "last atemp",
      "posx telefon",
      "algx eri",
      "prak tik",
      "n ur",
      "fr ont",
      "lern ej",
      "muz e",
      "jor k",
      "akom pan",
      "p ul",
      "p agx",
      "t ek",
      "u ri",
      "ali c",
      "il uzi",
      "akt or",
      "laux d",
      "tol er",
      "5 空",
      "su d",
      "af rik",
      "gri mp",
      "k ab",
      "s or",
      "cxiu maten",
      "po em",
      "pied pilk",
      "german i",
      "norm al",
      "kult ur",
      "o cxambr",
      "ar angx",
      "al uz",
      "par ti",
      "tr o",
      "si er",
      "pl um",
      "ekz erc",
      "pardon pet",
      "d el",
      "jx aluz",
      "do sier",
      "eksci t",
      "prov iz",
      "pan i",
      "min ac",
      "arm e",
      "dok ument",
      "c ir",
      "n ud",
      "s -",
      "kon dicx",
      "pli k",
      "ign or",
      "mot or",
      "r o空",
      "pl u",
      "kom pani",
      "mem br",
      "lig n",
      "her o",
      "c ed",
      "g aj",
      "k uz",
      "v an",
      "bon fart",
      "teg ment",
      "s on空",
      "an stat",
      "ed i",
      "ma str",
      "sx ir",
      "aj 空",
      "kom erc",
      "sp ac",
      "jar cent",
      "anstat aux",
      "2 空",
      "cx ini",
      "ent re",
      "op ir",
      "s ank",
      "az i",
      "inf lu",
      "ang ul",
      "vali z",
      "entre pren",
      "m ord",
      "om agx",
      "er 空",
      "li p",
      "as ert",
      "ver kist",
      "sam temp",
      "vocx don",
      "dam agx",
      "en ergi",
      "ven en",
      "af oj",
      "respon dec",
      "ori ent",
      "kv ard",
      "m aj",
      "ot abl",
      "ar i",
      "pr iv",
      "ez i",
      "kom fort",
      "kri tik",
      "klar ig",
      "tak s",
      "fut bal",
      "priv at",
      "b abil",
      "pl om",
      "fi t",
      "kr om",
      "ef ektiv",
      "fum ad",
      "j ekt",
      "k az",
      "k oh",
      "m us",
      "ri pet",
      "eg n",
      "auxt un",
      "fal s",
      "g ej",
      "u ar",
      "ar ab",
      "et agx",
      "tr ejn",
      "du sx",
      "ab at",
      "kompren ebl",
      "ter pom",
      "te atr",
      "mod ern",
      "des egn",
      "i a",
      "o fer",
      "cx as",
      "fr omagx",
      "kio t",
      "labor ist",
      "grav ed",
      "sxt orm",
      "te ori",
      "l arm",
      "rib u",
      "sank t",
      "g est",
      "t ab",
      "in vent",
      "di plom",
      "str and",
      "m ol",
      "s and",
      "s opir",
      "an tik",
      "ek onomi",
      "tr u",
      "dist ing",
      "b ob",
      "f rid",
      "i di",
      "m ap",
      "s o",
      "om end",
      "ek str",
      "pl ank",
      "fl eg",
      "prezid ent",
      "rek omend",
      "antik v",
      "i ci",
      "s abat",
      "in kl",
      "et ern",
      "kom pat",
      "fir m",
      "men ci",
      "bo at",
      "arti kol",
      "b oj",
      "e volu",
      "j es",
      "j ac",
      "k ver",
      "em bar",
      "a opini",
      "a prob",
      "i f",
      "i kist",
      "s en",
      "t on",
      "gx em",
      "ek sk",
      "ok cident",
      "du foj",
      "dek -",
      "ser pent",
      "disp ut",
      "f aj",
      "k os",
      "m ist",
      "av id",
      "br un",
      "dist anc",
      "eks pl",
      "gra d",
      "embar as",
      "h ez",
      "t ond",
      "de fend",
      "ra k",
      "bl ind",
      "im post",
      "j u",
      "p ek",
      "p ant",
      "an e",
      "in di",
      "sx argx",
      "ra b",
      "ak r",
      "op il",
      "skrib otabl",
      "se ver",
      "sing ard",
      "ekspl od",
      "hez it",
      "c h",
      "l ind",
      "n o",
      "o per",
      "v ag",
      "ti kist",
      "pr i",
      "kl ub",
      "fra ux",
      "sxt up",
      "ind ik",
      "sur d",
      "dr og",
      "priz on",
      "adi aux",
      "organ iz",
      "kver el",
      "f usx",
      "al koh",
      "kom ent",
      "int ern",
      "lat in",
      "prem i",
      "kli ent",
      "alkoh ol",
      "ci t",
      "ri t",
      "vi cx",
      "op i",
      "ant agx",
      "pro fit",
      "vend red",
      "sxul tr",
      "al on",
      "bob 空",
      "b as",
      "f ont",
      "h ast",
      "est in",
      "bon eg",
      "par enc",
      "fr ost",
      "auxt ob",
      "foj foj",
      "mik s",
      "c eter",
      "av at",
      "vi de",
      "port ug",
      "ru b",
      "kvin dek空",
      "medi cin",
      "- a空",
      "f ek",
      "f und",
      "h al",
      "tel er",
      "pluv ombrel",
      "sin cer",
      "lu kt",
      "but on",
      "paux z",
      "auxtob us",
      "f ebr",
      "j ak",
      "k ast",
      "l up",
      "m am",
      "ri med",
      "es 空",
      "kr avat",
      "ab sol",
      "fakt ur",
      "sand vicx",
      "absol ut",
      "l ini",
      "n a",
      "per fort",
      "gr at",
      "fi ask",
      "so if",
      "k ad",
      "l ar",
      "p el",
      "u sk",
      "v ul",
      "fi z",
      "ap i",
      "eg ul",
      "bri t",
      "fab rik",
      "kiot o空",
      "g lat",
      "sx ok",
      "el ef",
      "ej l",
      "leg om",
      "kol eg",
      "jun ul",
      "bil l空",
      "s- ro空",
      "ekstr em",
      "1 8",
      "e an",
      "om b",
      "ti p",
      "el eg",
      "ber ber",
      "mil d",
      "kontra kt",
      "idi ot",
      "elef ant",
      "b et",
      "r on",
      "ar tist",
      "ci p",
      "anc er",
      "raj d",
      "prun te",
      "paci ent",
      "faj f",
      "h ung",
      "an i",
      "sx r",
      "mar s",
      "tem per",
      "ne p",
      "kor ekt",
      "le on",
      "dr on",
      "jan e空",
      "kvard ek空",
      "prunte pren",
      "- jar",
      "g eni",
      "h auxt",
      "l ot",
      "m ak",
      "ed on",
      "du obl",
      "og ra",
      "met od",
      "fisx kapt",
      "kv ant",
      "prin c",
      "p usx",
      "t ort",
      "v az",
      "er v",
      "tom b",
      "ed er",
      "nov jork",
      "po et",
      "prunt edon",
      "por k",
      "hum or",
      "d 空",
      "e ti",
      "f on",
      "t end",
      "v or",
      "av antagx",
      "oj n空",
      "sp egul",
      "dan i",
      "kv ali",
      "oc ean",
      "ra ci",
      "per fid",
      "ver sx",
      "lo z",
      "reg ion",
      "poli tikist",
      "uk s",
      "dud ek",
      "k ancer",
      "m ek",
      "en cist",
      "pr on",
      "un t",
      "as 空",
      "su gest",
      "ru in",
      "rez erv",
      "supoz ebl",
      "dan 空",
      "naux 空",
      "kru el",
      "sov agx",
      "pant alon",
      "kast el",
      "st in",
      "em oci",
      "sci encist",
      "pi on",
      "vali d",
      "portug al",
      "k ir",
      "gr an",
      "ap lik",
      "ab el",
      "kam ion",
      "r o",
      "ar ane",
      "ci vit",
      "es cept",
      "de dicx",
      "de vig",
      "ini gx",
      "ne ux",
      "mez ur",
      "but er",
      "kli mat",
      "mini str",
      "profes or",
      "temper atur",
      "r ing",
      "sim i",
      "im per",
      "kan zon",
      "rez ist",
      "arg ument",
      "l ang",
      "m um",
      "ri pro",
      "kl ud",
      "telefon numer",
      "post tagmez",
      "har mon",
      "pron onc",
      "ripro cx",
      "m iz",
      "p a",
      "p up",
      "om en",
      "sx ov",
      "sk lav",
      "pas port",
      "ter trem",
      "star t",
      "kar ak",
      "mag az",
      "j im",
      "uz iv",
      "ev ent",
      "ob i",
      "up t",
      "urb o",
      "kan tist",
      "klas cxambr",
      "fraux l",
      "r ok",
      "kon kurs",
      "ab und",
      "re ven",
      "ge org",
      "3 0空",
      "f ul",
      "m oj",
      "m ejl",
      "s of",
      "dek lar",
      "mi si",
      "gri z",
      "konst ant",
      "origin al",
      "ci gar",
      "el 空",
      "kon vers",
      "ak tiv",
      "ad op",
      "int ens",
      "auxd ac",
      "ep ok",
      "ni vel",
      "omet r",
      "hon or",
      "supren ir",
      "sxr ank",
      "konvers aci",
      "h odi",
      "in du",
      "ak ord",
      "di dat",
      "kap dolor",
      "dorm ocxambr",
      "tu k",
      "kan didat",
      "ocx jo空",
      "gram atik",
      "posxt mark",
      "gen r",
      "trump 空",
      "1 空",
      "i o空",
      "k opi",
      "r an",
      "de mok",
      "sci ur",
      "as m",
      "di ci",
      "mini mum",
      "tab ul",
      "f lag",
      "j up",
      "s abl",
      "ti amanier",
      "vi st",
      "fi loz",
      "ali z",
      "kor b",
      "kri z",
      "ban an",
      "baz ar",
      "mist er",
      "moj os",
      "adop t",
      "demok rat",
      "f t",
      "f ugx",
      "vi sx",
      "ik l",
      "kr ud",
      "mat eri",
      "kor e",
      "harmon i",
      "hodi aux",
      "a -",
      "est ing",
      "ek sp",
      "kon s",
      "di s",
      "infan agx",
      "profes i",
      "pap ili",
      "gxem el",
      "karak ter",
      "g al",
      "j id",
      "u ra",
      "en tig",
      "bl ov",
      "kl in",
      "last nokt",
      "kun ikl",
      "spir it",
      "ge patr",
      "fiz ik",
      "hung ar",
      "f ad",
      "g as",
      "i str",
      "v ang",
      "om ak",
      "ar ki",
      "pr eleg",
      "sx af",
      "ki l",
      "ra z",
      "ver dir",
      "ru si",
      "fik ci",
      "opil k",
      "kvali t",
      "imper i",
      "7 空",
      "a pr",
      "b arb",
      "s ezon",
      "s cen",
      "in sist",
      "vi gx",
      "lam p",
      "kompl ez",
      "d en",
      "n eder",
      "st omak",
      "an onc",
      "am n",
      "ul i",
      "em i",
      "kom itat",
      "sp ur",
      "vir us",
      "var i",
      "pret end",
      "mi gr",
      "liter atur",
      "kons ult",
      "h ip",
      "ci al",
      "eg ip",
      "kap it",
      "sek und",
      "neder land",
      ") 空",
      "k as",
      "k ort",
      "at est",
      "sx nur",
      "man i",
      "labor posten",
      "fin n",
      "san ig",
      "ob jekt",
      "cigar ed",
      "b ud",
      "ap og",
      "kred it",
      "fin anc",
      "gra s",
      "radi o",
      "naz i",
      "jim 空",
      "4 空",
      "6 空",
      "f asx",
      "g lit",
      "k and",
      "n am",
      "p int",
      "t un",
      "in ent",
      "ra el",
      "kon fid",
      "mat cx",
      "20 1",
      "( 空",
      "f ur",
      "h ir",
      "am or",
      "li ft",
      "br os",
      "kom p",
      "nov -",
      "bi en",
      "sxt op",
      "nokt e空",
      "reg istr",
      "id ent",
      "tur k",
      "algx er",
      "gl ut",
      "ofer t",
      "apr il",
      "f as",
      "h am",
      "ol e",
      "kon kur",
      "per e",
      "ap t",
      "unu afoj",
      "tra dici",
      "dek jar",
      "leg ad",
      "cxi- posttagmez",
      "vig l",
      "inkl uziv",
      "kil ometr",
      "9 空",
      "a hx",
      "k ra",
      "t 空",
      "u 空",
      "in et",
      "sx trump",
      "vi ol",
      "tem pl",
      "kont ribu",
      "sid lok",
      "fid el",
      "ins ult",
      "l et",
      "m as",
      "t ocxjo空",
      "v ak",
      "st il",
      "ar te",
      "pr ud",
      "vi k",
      "un un",
      "kon ferenc",
      "aux 空",
      "ap ud",
      "edz inigx",
      "sol ec",
      "ob stin",
      "ban bord",
      "eks per",
      "miz er",
      "arte far",
      "b ast",
      "k ud",
      "m ebl",
      "er a",
      "ri kol",
      "aj l",
      "op ort",
      "ab omen",
      "im ent",
      "im plik",
      "cxi- nokte空",
      "mez lern",
      "kond amn",
      "fan far",
      "&apos ;",
      "ben k",
      "plej part",
      "eduk ad",
      "mek sik",
      "unun ur",
      "g ant",
      "j uli",
      "n ok",
      "sx ut",
      "li ver",
      "bl ok",
      "per sv",
      "di ven",
      "di fin",
      "ad or",
      "sk vit",
      "it ali",
      "bi skvit",
      "api sx",
      "prud ent",
      "persv ad",
      "a tom",
      "e tik",
      "g lav",
      "in divid",
      "kon ekt",
      "br et",
      "kom b",
      "kom pet",
      "agx er",
      "cxiu okaz",
      "ang li",
      "tut mond",
      "angx el",
      "mat ur",
      "bi ci",
      "cxi- moment",
      "eksk urs",
      "kand el",
      "cxi-posttagmez e空",
      "rikol t",
      "fanfar on",
      "individ u",
      "kompet ent",
      "cxi-moment e空",
      "b ur",
      "f ac",
      "an as",
      "tri foj",
      "sek sem",
      "jun i",
      "gol f",
      "del ik",
      "na iv",
      "eksper iment",
      "oport un",
      "u j",
      "et r",
      "kon tigx",
      "gr und",
      "pas agxer",
      "mir akl",
      "her ed",
      "ins ekt",
      "gen u",
      "sxak lud",
      "veg et",
      "sor cx",
      "c 空",
      "f os",
      "f uri",
      "u al",
      "in gx",
      "al ergi",
      "vol v",
      "sk u",
      "vir t",
      "fl ar",
      "tri st",
      "alt ern",
      "hejm en",
      "ren kontigx",
      "is rael",
      "mik e空",
      "pal estin",
      "pu rig",
      "ingx eni",
      "1 0空",
      "t apisx",
      "en vi",
      "el ig",
      "al fab",
      "tr an",
      "ut emp",
      "cxiu jar",
      "pas i",
      "pol v",
      "muz ikist",
      "pasint jar",
      "ofi cial",
      "brak horlogx",
      "log ik",
      "mag i",
      "sv ed",
      "oper aci",
      "grat ul",
      "urbo centr",
      "demokrat i",
      "furi oz",
      "alfab et",
      "d ens",
      "f ek空",
      "f ond",
      "h ok",
      "ar e",
      "am igx",
      "ur at",
      "pro cent",
      "lern ad",
      "rom i",
      "tu j",
      "poz ici",
      "rob ot",
      "gran di",
      "fas cin",
      "delik at",
      "j en",
      "k ot",
      "p ug",
      "kon klud",
      "li c",
      "ali g",
      "pat i",
      "it u",
      "tu rist",
      "dat reven",
      "naux z",
      "gen er",
      "dam n",
      "ben z",
      "inst ig",
      "ful m",
      "indu stri",
      "h ier",
      "j on",
      "k aj",
      "l ing",
      "s ort",
      "u kt",
      "tom ez",
      "ov er",
      "vi s",
      "vi aopini",
      "de fi",
      "em br",
      "as ek",
      "ak urat",
      "di et",
      "eg o",
      "ig ant",
      "ne bul",
      "jun agx",
      "cxi- jar",
      "uk ra",
      "kru c",
      "radio aparat",
      "komp util",
      "bast on",
      "grandi oz",
      "g n",
      "k av",
      "ir m",
      "ti gr",
      "am p",
      "ki lo",
      "kom plik",
      "sk ot",
      "kt ur",
      "pla d",
      "kost um",
      "venont semajn",
      "jes u",
      "vik tim",
      "kud r",
      "veget ar",
      "g igant",
      "m ask",
      "m oz",
      "t or",
      "v at",
      "sx vit",
      "de g",
      "don al",
      "tag libr",
      "po ezi",
      "liber temp",
      "konf irm",
      "trakt at",
      "red ukt",
      "jac k空",
      "bas bal",
      "asek ur",
      "cxi-jar e空",
      "kilo gram",
      "8 空",
      "g lo",
      "k en",
      "p si",
      "t us",
      "ti utemp",
      "al og",
      "am ar",
      "pi gr",
      "re prezent",
      "inter pret",
      "ret posxt",
      "sekv ant",
      "kam era",
      "toki pon",
      "prot est",
      "taj p",
      "mo sk",
      "benz in",
      "b ot",
      "e hx",
      "i e",
      "l o空",
      "m usx",
      "en ig",
      "ar og",
      "kon sum",
      "vid punkt",
      "mar bord",
      "mili ard",
      "kuir ist",
      "kla k",
      "kos m",
      "nok tomez",
      "ingxeni er",
      "d okt",
      "f ant",
      "j on空",
      "o plen",
      "an o空",
      "ol d",
      "gx ir",
      "bl ond",
      "it h空",
      "stud ad",
      "re ci",
      "bar at",
      "rev u",
      "intel ekt",
      "mod el",
      "mer kat",
      "venont jar",
      "a prez",
      "b and",
      "m os",
      "n et",
      "p es",
      "v ad",
      "in fer",
      "kon centr",
      "ent uzi",
      "tr ud",
      "re volu",
      "varm eg",
      "bost on空",
      "spekt akl",
      "mi el",
      "hispan i",
      "prin cip",
      "ge edzigx",
      "amb ur",
      "vul p",
      "den tist",
      "dokt or",
      "entuzi asm",
      "revolu ci",
      "d rak",
      "m is",
      "s vis",
      "br av",
      "sxat okup",
      "kr on",
      "kr et",
      "op tim",
      "ku m",
      "ank or",
      "kol oni",
      "kan ab",
      "park er",
      "naux cent空",
      "konsci enc",
      "fiks rigard",
      "ogra f",
      "m org",
      "n or",
      "n ev",
      "r ul",
      "s int",
      "s pion",
      "in dig",
      "de bl",
      "la d",
      "ra s",
      "kon stat",
      "ag no",
      "ku b",
      "sam klas",
      "sal at",
      "gar dist",
      "mor al",
      "auxtom at",
      "sm ith空",
      "sxir m",
      "jac k",
      "agno sk",
      "c ol",
      "f rit",
      "m alic",
      "o sx",
      "p utr",
      "v ost",
      "cx ar",
      "de prim",
      "em ent",
      "fi ancx",
      "mon str",
      "ad ol",
      "sim bol",
      "sim pati",
      "kl er",
      "met al",
      "last jar",
      "sal on",
      "bal ot",
      "for n",
      "jan uar",
      "auxtor itat",
      "filoz ofi",
      "donal d空",
      "reci prok",
      "jack son空",
      "0 00空",
      "g ur",
      "h obi",
      "k et",
      "p ok",
      "p sik",
      "r uz",
      "tom at",
      "al b",
      "aj o空",
      "ot ag",
      "ku sen",
      "sam opini",
      "im it",
      "pas vort",
      "kel ner",
      "os auxr",
      "last foj",
      "best o",
      "sekret ari",
      "cxer iz",
      "hum ur",
      "grek i",
      "kla sik",
      "lind a空",
      "f ok",
      "g or",
      "g im",
      "p astr",
      "an aliz",
      "sx el",
      "am bici",
      "ra dik",
      "ak cx",
      "kor upt",
      "ber lin",
      "fort un",
      "ses dek空",
      "kre debl",
      "oli br",
      "des ert",
      "pik nik",
      "materi al",
      "fasx ist",
      "viol on",
      "g amb",
      "h it",
      "n u",
      "n anc",
      "r av",
      "t an",
      "t urb",
      "vi li",
      "ven gx",
      "pl eks",
      "gr en",
      "str eb",
      "cxiu foj",
      "kap ital",
      "kat astr",
      "dez ert",
      "mi aopini",
      "sub st",
      "preci p",
      "scienc fikci",
      "hum il",
      "konst anc",
      "cir konstanc",
      "akcx ent",
      "nanc y空",
      "katastr of",
      "h ak",
      "k ag",
      "r y空",
      "r ond",
      "t y空",
      "av ar",
      "av ent",
      "per labor",
      "tr on",
      "tr et",
      "hej t",
      "im pon",
      "kur ten",
      "konf orm",
      "trakt ad",
      "posxt ofic",
      "kad av",
      "b 空",
      "f az",
      "p in",
      "de misi",
      "gr u",
      "ad apt",
      "mar ik",
      "ajn 空",
      "hom amas",
      "tim ig",
      "stru ktur",
      "foj e空",
      "instru ad",
      "bi ologi",
      "mi en",
      "form ul",
      "mo tiv",
      "pul over",
      "magaz en",
      "egip t",
      "glo b",
      "kadav r",
      "0 -",
      "b a",
      "b ag",
      "l oj",
      "x 空",
      "z o",
      "ov en",
      "ki amanier",
      "kon k",
      "cxi kag",
      "br ancx",
      "ver t",
      "du kist",
      "pro gn",
      "dek du",
      "res publik",
      "liber ig",
      "naux dek空",
      "kv ad",
      "stir permes",
      "gar anti",
      "dor lot",
      "rek lam",
      "motor cikl",
      "mojos a空",
      "avent ur",
      "progn oz",
      "a ki",
      "c ind",
      "j am",
      "k emi",
      "l ek",
      "l e空",
      "m usk",
      "p ast",
      "r and",
      "s pr",
      "at en",
      "ov end",
      "ci fer",
      "sx arg",
      "al ingv",
      "man sak",
      "ok om",
      "em oni",
      "tr e",
      "ver b",
      "ap lauxd",
      "fer voj",
      "mar d",
      "mar tel",
      "agx a空",
      "unu igx",
      "tim id",
      "tri cent空",
      "ser i",
      "re put",
      "kul tiv",
      "nagx ad",
      "uk o空",
      "cer emoni",
      "lim ig",
      "amb as",
      "nul ig",
      "reput aci",
      "d in",
      "f ri",
      "f ung",
      "h ind",
      "n a空",
      "z ir",
      "ar a空",
      "at or",
      "es enc",
      "fi lip",
      "ad o空",
      "ab surd",
      "dom agx",
      "iz ol",
      "instru kci",
      "cxi- foje空",
      "jugx ist",
      "-jar a空",
      "tran s",
      "arog ant",
      "kvad rat",
      "f and",
      "r ost",
      "ra p",
      "em er",
      "li tigx",
      "tr ot",
      "ag ad",
      "kont entig",
      "var t",
      "sam agx",
      "vin ber",
      "pasint semajn",
      "bal en",
      "stat u",
      "sang o",
      "trafik akcident",
      "maj str",
      "altern ativ",
      "fant azi",
      "5 0空",
      "d estin",
      "g ut",
      "i c",
      "k ac",
      "m it",
      "p last",
      "s ens",
      "t ar",
      "u rist",
      "on g",
      "in vest",
      "in spir",
      "at e",
      "ol or",
      "ol ik",
      "ti tol",
      "al arm",
      "aux foj",
      "ak ci",
      "ag r",
      "pi ter",
      "pro sper",
      "kont ant",
      "kat olik",
      "mond milit",
      "is 空",
      "fot ograf",
      "kvar tal",
      "pen si",
      "inst al",
      "ju piter",
      "2 0空",
      "b omb",
      "d o空",
      "f o",
      "g lu",
      "n af",
      "n ologi",
      "p neux",
      "in cen",
      "cx el",
      "cx ek"
    ]
  }
}