{
  "version": "1.0",
  "truncation": null,
  "padding": null,
  "added_tokens": [
    {
      "id": 0,
      "content": "<unk>",
      "single_word": false,
      "lstrip": false,
      "rstrip": false,
      "normalized": false,
      "special": true
    },
    {
      "id": 1,
      "content": "<s>",
      "single_word": false,
      "lstrip": false,
      "rstrip": false,
      "normalized": false,
      "special": true
    },
    {
      "id": 2,
      "content": "</s>",
      "single_word": false,
      "lstrip": false,
      "rstrip": false,
      "normalized": false,
      "special": true
    }
  ],
  "normalizer": null,
  "pre_tokenizer": {
    "type": "WhitespaceSplit"
  },
  "post_processor": null,
  "decoder": {
    "type": "BPEDecoder",
    "suffix": "終"
  },
  "model": {
    "type": "BPE",
    "dropout": null,
    "unk_token": "<unk>",
    "continuing_subword_prefix": "",
    "end_of_word_suffix": "終",
    "fuse_unk": false,
    "byte_fallback": false,
    "vocab": {
      "<unk>": 0,
      "<s>": 1,
      "</s>": 2,
      "!": 3,
      "#": 4,
      "$": 5,
      "%": 6,
      "&": 7,
      "(": 8,
      ")": 9,
      "+": 10,
      ",": 11,
      "-": 12,
      ".": 13,
      "/": 14,
      "0": 15,
      "1": 16,
      "2": 17,
      "3": 18,
      "4": 19,
      "5": 20,
      "6": 21,
      "7": 22,
      "8": 23,
      "9": 24,
      ":": 25,
      ";": 26,
      "=": 27,
      "?": 28,
      "@": 29,
      "_": 30,
      "a": 31,
      "b": 32,
      "c": 33,
      "d": 34,
      "e": 35,
      "f": 36,
      "g": 37,
      "h": 38,
      "i": 39,
      "j": 40,
      "k": 41,
      "l": 42,
      "m": 43,
      "n": 44,
      "o": 45,
      "p": 46,
      "q": 47,
      "r": 48,
      "s": 49,
      "t": 50,
      "u": 51,
      "v": 52,
      "w": 53,
      "x": 54,
      "y": 55,
      "z": 56,
      "°": 57,
      "²": 58,
      "º": 59,
      "ß": 60,
      "à": 61,
      "á": 62,
      "â": 63,
      "ã": 64,
      "ä": 65,
      "ç": 66,
      "è": 67,
      "é": 68,
      "ê": 69,
      "ë": 70,
      "í": 71,
      "î": 72,
      "ï": 73,
      "ñ": 74,
      "ó": 75,
      "ô": 76,
      "ö": 77,
      "ø": 78,
      "ú": 79,
      "û": 80,
      "ü": 81,
      "ý": 82,
      "ā": 83,
      "ă": 84,
      "ĉ": 85,
      "č": 86,
      "ď": 87,
      "ē": 88,
      "ĝ": 89,
      "ĥ": 90,
      "ī": 91,
      "ĵ": 92,
      "ĺ": 93,
      "ľ": 94,
      "ł": 95,
      "ń": 96,
      "ņ": 97,
      "ň": 98,
      "ō": 99,
      "ŕ": 100,
      "ŝ": 101,
      "ş": 102,
      "š": 103,
      "ť": 104,
      "ŭ": 105,
      "ž": 106,
      "ș": 107,
      "ə": 108,
      "ʻ": 109,
      "ʼ": 110,
      "β": 111,
      "κ": 112,
      "π": 113,
      "ς": 114,
      "ό": 115,
      "а": 116,
      "з": 117,
      "й": 118,
      "л": 119,
      "о": 120,
      "ַ": 121,
      "ׁ": 122,
      "ׂ": 123,
      "א": 124,
      "ה": 125,
      "ח": 126,
      "ל": 127,
      "מ": 128,
      "ע": 129,
      "פ": 130,
      "ש": 131,
      "؟": 132,
      "ᾰ": 133,
      "₂": 134,
      "€": 135,
      "√": 136,
      "の": 137,
      "ザ": 138,
      "ド": 139,
      "ム": 140,
      "亡": 141,
      "念": 142,
      "g終": 143,
      "t終": 144,
      "y終": 145,
      "e終": 146,
      "n終": 147,
      "d終": 148,
      "s終": 149,
      "u終": 150,
      "a終": 151,
      "l終": 152,
      "k終": 153,
      "r終": 154,
      "i終": 155,
      "5終": 156,
      "c終": 157,
      "f終": 158,
      "h終": 159,
      "1終": 160,
      "w終": 161,
      "o終": 162,
      "j終": 163,
      "m終": 164,
      "€終": 165,
      "4終": 166,
      "é終": 167,
      "6終": 168,
      "3終": 169,
      "p終": 170,
      "v終": 171,
      "x終": 172,
      "q終": 173,
      "b終": 174,
      "ë終": 175,
      "2終": 176,
      "z終": 177,
      "0終": 178,
      "7終": 179,
      "9終": 180,
      "8終": 181,
      "ς終": 182,
      "ň終": 183,
      "ń終": 184,
      "(終": 185,
      "ž終": 186,
      "-終": 187,
      "?終": 188,
      "ö終": 189,
      "ŝ終": 190,
      "à終": 191,
      "á終": 192,
      "ĉ終": 193,
      "š終": 194,
      "ל終": 195,
      "ä終": 196,
      ";終": 197,
      ")終": 198,
      "ô終": 199,
      "°終": 200,
      "=終": 201,
      "√終": 202,
      "º終": 203,
      "ĥ終": 204,
      "ŕ終": 205,
      "_終": 206,
      "ה終": 207,
      "؟終": 208,
      "ß終": 209,
      "#終": 210,
      "ť終": 211,
      "í終": 212,
      "/終": 213,
      "й終": 214,
      "₂終": 215,
      "²終": 216,
      "β終": 217,
      ":終": 218,
      ",終": 219,
      "ō終": 220,
      "ド終": 221,
      "+終": 222,
      "ó終": 223,
      "@終": 224,
      "π終": 225,
      "!終": 226,
      "$終": 227,
      "ú終": 228,
      "ĝ終": 229,
      "%終": 230,
      "а終": 231,
      "č終": 232,
      "ď終": 233,
      "ĵ終": 234,
      "ø終": 235,
      ".終": 236,
      "ĺ終": 237,
      "ý終": 238,
      "ľ終": 239,
      "ŭ終": 240,
      "th": 241,
      "os": 242,
      "in": 243,
      "ap": 244,
      "apos": 245,
      "&apos": 246,
      "&apos;": 247,
      "the終": 248,
      "is終": 249,
      "to": 250,
      "an": 251,
      "yo": 252,
      "er": 253,
      "to終": 254,
      "ar": 255,
      "ed終": 256,
      "er終": 257,
      "you終": 258,
      "ing終": 259,
      "at終": 260,
      "ou": 261,
      "re": 262,
      "tom終": 263,
      "en": 264,
      "on終": 265,
      "he終": 266,
      "on": 267,
      "al": 268,
      "ve終": 269,
      "me終": 270,
      "or": 271,
      "&apos;t終": 272,
      "ha": 273,
      "in終": 274,
      "wh": 275,
      "st": 276,
      "li": 277,
      "an終": 278,
      "wa": 279,
      "no": 280,
      "it終": 281,
      "it": 282,
      "es終": 283,
      "ea": 284,
      "of終": 285,
      "that終": 286,
      "ti": 287,
      "el": 288,
      "en終": 289,
      "&apos;s終": 290,
      "ro": 291,
      "di": 292,
      "il": 293,
      "ere終": 294,
      "ri": 295,
      "oo": 296,
      "was終": 297,
      "st終": 298,
      "and終": 299,
      "la": 300,
      "be": 301,
      "or終": 302,
      "ke終": 303,
      "ld終": 304,
      "my終": 305,
      "this終": 306,
      "ne": 307,
      "ho": 308,
      "are終": 309,
      "le": 310,
      "se終": 311,
      "do終": 312,
      "co": 313,
      "we終": 314,
      "have終": 315,
      "ly終": 316,
      "le終": 317,
      "ch": 318,
      "ma": 319,
      "ver": 320,
      "gh": 321,
      "do": 322,
      "for終": 323,
      "ur": 324,
      "the": 325,
      "she終": 326,
      "un": 327,
      "ce終": 328,
      "ch終": 329,
      "is": 330,
      "lo": 331,
      "don終": 332,
      "not終": 333,
      "what終": 334,
      "ab": 335,
      "mar": 336,
      "can終": 337,
      "sa": 338,
      "ra": 339,
      "ca": 340,
      "be終": 341,
      "si": 342,
      "me": 343,
      "now終": 344,
      "da": 345,
      "se": 346,
      "out終": 347,
      "his終": 348,
      "so": 349,
      "ght終": 350,
      "sp": 351,
      "wit": 352,
      "hi": 353,
      "ur終": 354,
      "all終": 355,
      "ill終": 356,
      "bu": 357,
      "ould終": 358,
      "with終": 359,
      "your終": 360,
      "ent終": 361,
      "ther終": 362,
      "wan": 363,
      "tt": 364,
      "rea": 365,
      "one終": 366,
      "wor": 367,
      "fa": 368,
      "mary終": 369,
      "go": 370,
      "&apos;m終": 371,
      "ts終": 372,
      "et終": 373,
      "ir": 374,
      "like終": 375,
      "thing終": 376,
      "ver終": 377,
      "es": 378,
      "su": 379,
      "sh": 380,
      "ac": 381,
      "ag": 382,
      "know終": 383,
      "her終": 384,
      "thin": 385,
      "very終": 386,
      "there終": 387,
      "day終": 388,
      "ted終": 389,
      "they終": 390,
      "has終": 391,
      "tr": 392,
      "ta": 393,
      "mp": 394,
      "qu": 395,
      "dn終": 396,
      "mor": 397,
      "de": 398,
      "as終": 399,
      "want終": 400,
      "bo": 401,
      "te終": 402,
      "will終": 403,
      "mu": 404,
      "how終": 405,
      "op": 406,
      "re終": 407,
      "him終": 408,
      "ds終": 409,
      "ear": 410,
      "th終": 411,
      "ell終": 412,
      "lea": 413,
      "king終": 414,
      "ex": 415,
      "app": 416,
      "mo": 417,
      "ter終": 418,
      "ll終": 419,
      "oun": 420,
      "did終": 421,
      "think終": 422,
      "con": 423,
      "ic": 424,
      "tion終": 425,
      "ys終": 426,
      "for": 427,
      "any終": 428,
      "&apos;re終": 429,
      "ang": 430,
      "go終": 431,
      "about終": 432,
      "dy終": 433,
      "ood終": 434,
      "as": 435,
      "fu": 436,
      "fro": 437,
      "from終": 438,
      "ers終": 439,
      "id終": 440,
      "&apos;ll終": 441,
      "had終": 442,
      "by終": 443,
      "didn終": 444,
      "pro": 445,
      "ks終": 446,
      "time終": 447,
      "ked終": 448,
      "ff": 449,
      "ee": 450,
      "al終": 451,
      "de終": 452,
      "here終": 453,
      "est": 454,
      "ally終": 455,
      "pe": 456,
      "sta": 457,
      "ci": 458,
      "ju": 459,
      "loo": 460,
      "get終": 461,
      "if終": 462,
      "up終": 463,
      "who終": 464,
      "no終": 465,
      "man終": 466,
      "sto": 467,
      "when終": 468,
      "were終": 469,
      "&apos;ve終": 470,
      "gi": 471,
      "so終": 472,
      "but終": 473,
      "ry終": 474,
      "par": 475,
      "ong終": 476,
      "wi": 477,
      "pla": 478,
      "tur": 479,
      "more終": 480,
      "hel": 481,
      "ter": 482,
      "sed終": 483,
      "come終": 484,
      "fri": 485,
      "some": 486,
      "ni": 487,
      "would終": 488,
      "end終": 489,
      "us終": 490,
      "our終": 491,
      "good終": 492,
      "mon": 493,
      "pre": 494,
      "why終": 495,
      "than終": 496,
      "ind終": 497,
      "happ": 498,
      "wn終": 499,
      "where終": 500,
      "na": 501,
      "ything終": 502,
      "going終": 503,
      "ss終": 504,
      "ru": 505,
      "just終": 506,
      "po": 507,
      "vi": 508,
      "ever": 509,
      "te": 510,
      "per": 511,
      "gu": 512,
      "tter終": 513,
      "mi": 514,
      "ty終": 515,
      "ost終": 516,
      "boo": 517,
      "ear終": 518,
      "does": 519,
      "doesn終": 520,
      "ir終": 521,
      "ree終": 522,
      "pa": 523,
      "jo": 524,
      "ting終": 525,
      "ying終": 526,
      "way終": 527,
      "tal": 528,
      "am終": 529,
      "never終": 530,
      "spea": 531,
      "tw": 532,
      "been終": 533,
      "peop": 534,
      "plea": 535,
      "sel": 536,
      "people終": 537,
      "stu": 538,
      "ck終": 539,
      "need終": 540,
      "fe終": 541,
      "sh終": 542,
      "should終": 543,
      "der": 544,
      "der終": 545,
      "see終": 546,
      "ite終": 547,
      "gs終": 548,
      "ine終": 549,
      "mb": 550,
      "let終": 551,
      "ous終": 552,
      "new終": 553,
      "af": 554,
      "ought終": 555,
      "cu": 556,
      "sur": 557,
      "ga": 558,
      "ves終": 559,
      "got終": 560,
      "wr": 561,
      "work終": 562,
      "hou": 563,
      "many終": 564,
      "ved終": 565,
      "tell終": 566,
      "able終": 567,
      "fi": 568,
      "ded終": 569,
      "some終": 570,
      "help終": 571,
      "too終": 572,
      "gh終": 573,
      "ose終": 574,
      "please終": 575,
      "tru": 576,
      "comp": 577,
      "ey終": 578,
      "lu": 579,
      "ge": 580,
      "ec": 581,
      "ba": 582,
      "ven終": 583,
      "ding終": 584,
      "tra": 585,
      "ound終": 586,
      "of": 587,
      "ge終": 588,
      "ren": 589,
      "age終": 590,
      "much終": 591,
      "son終": 592,
      "com": 593,
      "love終": 594,
      "ful終": 595,
      "could終": 596,
      "said終": 597,
      "use終": 598,
      "pu": 599,
      "ons終": 600,
      "ten終": 601,
      "ence終": 602,
      "only終": 603,
      "ad": 604,
      "ity終": 605,
      "really終": 606,
      "dre": 607,
      "does終": 608,
      "ning終": 609,
      "chil": 610,
      "ion終": 611,
      "take終": 612,
      "gre": 613,
      "ack終": 614,
      "isn終": 615,
      "eng": 616,
      "kes終": 617,
      "make終": 618,
      "other終": 619,
      "ish終": 620,
      "pl": 621,
      "ws終": 622,
      "ms終": 623,
      "led終": 624,
      "ep": 625,
      "book終": 626,
      "ried終": 627,
      "&apos;d終": 628,
      "self終": 629,
      "home終": 630,
      "ne終": 631,
      "ving終": 632,
      "ant終": 633,
      "fir": 634,
      "ways終": 635,
      "mil": 636,
      "roo": 637,
      "ool終": 638,
      "car": 639,
      "them終": 640,
      "house終": 641,
      "ely終": 642,
      "right終": 643,
      "body終": 644,
      "ears終": 645,
      "dr": 646,
      "car終": 647,
      "fren": 648,
      "always終": 649,
      "speak終": 650,
      "ents終": 651,
      "something終": 652,
      "ot": 653,
      "french終": 654,
      "oul": 655,
      "money終": 656,
      "back終": 657,
      "sin": 658,
      "night終": 659,
      "lot終": 660,
      "ble終": 661,
      "lear": 662,
      "ough終": 663,
      "quot": 664,
      "two終": 665,
      "bi": 666,
      "ard終": 667,
      "&quot": 668,
      "&quot;終": 669,
      "ent": 670,
      "last終": 671,
      "told終": 672,
      "say終": 673,
      "ment終": 674,
      "fe": 675,
      "row終": 676,
      "yone終": 677,
      "today終": 678,
      "aga": 679,
      "anything終": 680,
      "still終": 681,
      "sch": 682,
      "give終": 683,
      "tea": 684,
      "bro": 685,
      "room終": 686,
      "lish終": 687,
      "ess終": 688,
      "ans": 689,
      "ouldn終": 690,
      "bea": 691,
      "old終": 692,
      "pp": 693,
      "under": 694,
      "read終": 695,
      "du": 696,
      "father終": 697,
      "must終": 698,
      "most終": 699,
      "well終": 700,
      "try終": 701,
      "imp": 702,
      "three終": 703,
      "their終": 704,
      "came終": 705,
      "ft終": 706,
      "made終": 707,
      "angu": 708,
      "life終": 709,
      "fin": 710,
      "long終": 711,
      "langu": 712,
      "prob": 713,
      "ol": 714,
      "kno": 715,
      "we": 716,
      "pri": 717,
      "lie": 718,
      "ton終": 719,
      "min": 720,
      "went終": 721,
      "ttle終": 722,
      "bos": 723,
      "ali": 724,
      "inter": 725,
      "won終": 726,
      "sho": 727,
      "ary終": 728,
      "better終": 729,
      "fore終": 730,
      "school終": 731,
      "ance終": 732,
      "eat終": 733,
      "sy終": 734,
      "every終": 735,
      "friend終": 736,
      "can": 737,
      "into終": 738,
      "english終": 739,
      "star": 740,
      "belie": 741,
      "ready終": 742,
      "before終": 743,
      "live終": 744,
      "coun": 745,
      "diff": 746,
      "pe終": 747,
      "ever終": 748,
      "red終": 749,
      "mis": 750,
      "see": 751,
      "sure終": 752,
      "stand終": 753,
      "hear": 754,
      "years終": 755,
      "ned終": 756,
      "ends終": 757,
      "dea": 758,
      "ened終": 759,
      "everything終": 760,
      "dis": 761,
      "look終": 762,
      "gir": 763,
      "wal": 764,
      "boston終": 765,
      "str": 766,
      "wer終": 767,
      "talk終": 768,
      "mber終": 769,
      "mother終": 770,
      "sn終": 771,
      "off終": 772,
      "cl": 773,
      "late終": 774,
      "ture終": 775,
      "again終": 776,
      "thought終": 777,
      "mer": 778,
      "ger終": 779,
      "dren終": 780,
      "children終": 781,
      "first終": 782,
      "wo": 783,
      "cause終": 784,
      "ct終": 785,
      "pi": 786,
      "and": 787,
      "vis": 788,
      "pos": 789,
      "gr": 790,
      "tu": 791,
      "little終": 792,
      "after終": 793,
      "hu": 794,
      "morrow終": 795,
      "tomorrow終": 796,
      "ate終": 797,
      "br": 798,
      "dent終": 799,
      "tes終": 800,
      "ans終": 801,
      "left終": 802,
      "ester": 803,
      "nothing終": 804,
      "may終": 805,
      "happy終": 806,
      "wee": 807,
      "mes終": 808,
      "bor": 809,
      "wanted終": 810,
      "ok終": 811,
      "asked終": 812,
      "wat": 813,
      "world終": 814,
      "ph": 815,
      "sle": 816,
      "ce": 817,
      "yester": 818,
      "yesterday終": 819,
      "dog終": 820,
      "ses終": 821,
      "over終": 822,
      "proble": 823,
      "ation終": 824,
      "ul": 825,
      "ice終": 826,
      "jap": 827,
      "beau": 828,
      "because終": 829,
      "with": 830,
      "drin": 831,
      "find終": 832,
      "down終": 833,
      "whi": 834,
      "put終": 835,
      "tor終": 836,
      "understand終": 837,
      "cal": 838,
      "nex": 839,
      "ster終": 840,
      "any": 841,
      "saw終": 842,
      "believe終": 843,
      "teach": 844,
      "oor終": 845,
      "name終": 846,
      "sing終": 847,
      "language終": 848,
      "even終": 849,
      "au": 850,
      "used終": 851,
      "friends終": 852,
      "ep終": 853,
      "ani": 854,
      "ls終": 855,
      "doing終": 856,
      "next終": 857,
      "hea": 858,
      "these終": 859,
      "tel": 860,
      "ited終": 861,
      "leave終": 862,
      "ger": 863,
      "ck": 864,
      "ve": 865,
      "water終": 866,
      "quest": 867,
      "stop終": 868,
      "poli": 869,
      "cor": 870,
      "which終": 871,
      "away終": 872,
      "ten": 873,
      "buy終": 874,
      "gra": 875,
      "low": 876,
      "beauti": 877,
      "les終": 878,
      "chang": 879,
      "tri": 880,
      "ort終": 881,
      "youn": 882,
      "beautiful終": 883,
      "win": 884,
      "att": 885,
      "ling終": 886,
      "without終": 887,
      "dri": 888,
      "ile終": 889,
      "sm": 890,
      "everyone終": 891,
      "med終": 892,
      "wasn終": 893,
      "col": 894,
      "already終": 895,
      "wants終": 896,
      "men終": 897,
      "ser": 898,
      "stay終": 899,
      "things終": 900,
      "call終": 901,
      "best終": 902,
      "eel終": 903,
      "kee": 904,
      "nee": 905,
      "iting終": 906,
      "job終": 907,
      "ese終": 908,
      "shi": 909,
      "ish": 910,
      "its終": 911,
      "fo": 912,
      "lar": 913,
      "year終": 914,
      "off": 915,
      "took終": 916,
      "ect終": 917,
      "pic": 918,
      "ask終": 919,
      "often終": 920,
      "hun": 921,
      "play終": 922,
      "ken終": 923,
      "plan": 924,
      "tive終": 925,
      "found終": 926,
      "learn終": 927,
      "ort": 928,
      "gave終": 929,
      "tion": 930,
      "ced終": 931,
      "ven": 932,
      "ugh": 933,
      "ces終": 934,
      "done終": 935,
      "hard終": 936,
      "sk": 937,
      "days終": 938,
      "side終": 939,
      "la終": 940,
      "vo": 941,
      "yed終": 942,
      "low終": 943,
      "bad終": 944,
      "cat終": 945,
      "he": 946,
      "il終": 947,
      "hope終": 948,
      "cla": 949,
      "problem終": 950,
      "looking終": 951,
      "being終": 952,
      "tions終": 953,
      "cou": 954,
      "yet終": 955,
      "brea": 956,
      "mm": 957,
      "knows終": 958,
      "morning終": 959,
      "feel終": 960,
      "bed終": 961,
      "cap": 962,
      "seen終": 963,
      "ank終": 964,
      "rs終": 965,
      "heard終": 966,
      "ey": 967,
      "enough終": 968,
      "soon終": 969,
      "gar": 970,
      "times終": 971,
      "person終": 972,
      "hur": 973,
      "beg": 974,
      "pres": 975,
      "teacher終": 976,
      "tly終": 977,
      "cal終": 978,
      "cer": 979,
      "big終": 980,
      "gla": 981,
      "lon": 982,
      "bought終": 983,
      "clo": 984,
      "happened終": 985,
      "great終": 986,
      "est終": 987,
      "iti": 988,
      "comm": 989,
      "lost終": 990,
      "truth終": 991,
      "sible終": 992,
      "ner終": 993,
      "stud": 994,
      "pen": 995,
      "bir": 996,
      "both終": 997,
      "same終": 998,
      "cle終": 999,
      "ide": 1000,
      "ins終": 1001,
      "your": 1002,
      "door終": 1003,
      "ig": 1004,
      "pas": 1005,
      "trans": 1006,
      "wrong終": 1007,
      "married終": 1008,
      "died終": 1009,
      "parents終": 1010,
      "couldn終": 1011,
      "tely終": 1012,
      "dic": 1013,
      "around終": 1014,
      "each終": 1015,
      "pr": 1016,
      "ult終": 1017,
      "knew終": 1018,
      "swi": 1019,
      "keep終": 1020,
      "member終": 1021,
      "young終": 1022,
      "arri": 1023,
      "mista": 1024,
      "likes終": 1025,
      "cc": 1026,
      "man": 1027,
      "lives終": 1028,
      "country終": 1029,
      "week終": 1030,
      "nu": 1031,
      "list": 1032,
      "interest": 1033,
      "such終": 1034,
      "own終": 1035,
      "drink終": 1036,
      "fore": 1037,
      "cold終": 1038,
      "true終": 1039,
      "idea終": 1040,
      "amer": 1041,
      "anyone終": 1042,
      "turn終": 1043,
      "sent": 1044,
      "those終": 1045,
      "raid終": 1046,
      "write終": 1047,
      "cre": 1048,
      "ffe": 1049,
      "ic終": 1050,
      "afraid終": 1051,
      "girl終": 1052,
      "while終": 1053,
      "differ": 1054,
      "mi終": 1055,
      "kind終": 1056,
      "books終": 1057,
      "wish終": 1058,
      "boy終": 1059,
      "joh": 1060,
      "fast終": 1061,
      "looks終": 1062,
      "wife終": 1063,
      "wait終": 1064,
      "import": 1065,
      "va": 1066,
      "train終": 1067,
      "coffe": 1068,
      "table終": 1069,
      "another終": 1070,
      "letter終": 1071,
      "tting終": 1072,
      "word終": 1073,
      "hear終": 1074,
      "brother終": 1075,
      "coo": 1076,
      "ined終": 1077,
      "coffee終": 1078,
      "ze終": 1079,
      "drea": 1080,
      "fr": 1081,
      "place終": 1082,
      "less終": 1083,
      "alone終": 1084,
      "city終": 1085,
      "musi": 1086,
      "crea": 1087,
      "har": 1088,
      "wea": 1089,
      "cho": 1090,
      "diffic": 1091,
      "busy終": 1092,
      "din": 1093,
      "sister終": 1094,
      "cra": 1095,
      "gen": 1096,
      "ept終": 1097,
      "ands終": 1098,
      "ctor終": 1099,
      "john終": 1100,
      "rain終": 1101,
      "someone終": 1102,
      "bus終": 1103,
      "study終": 1104,
      "sor": 1105,
      "mily終": 1106,
      "den終": 1107,
      "res終": 1108,
      "remember終": 1109,
      "answer終": 1110,
      "cr": 1111,
      "smo": 1112,
      "food終": 1113,
      "child終": 1114,
      "important終": 1115,
      "once終": 1116,
      "party終": 1117,
      "den": 1118,
      "sion終": 1119,
      "des": 1120,
      "als終": 1121,
      "roa": 1122,
      "called終": 1123,
      "aren終": 1124,
      "cont": 1125,
      "mind終": 1126,
      "sami終": 1127,
      "cannot終": 1128,
      "dly終": 1129,
      "uni": 1130,
      "easy終": 1131,
      "ps終": 1132,
      "my": 1133,
      "buil": 1134,
      "woman終": 1135,
      "few終": 1136,
      "watch終": 1137,
      "tired終": 1138,
      "ital終": 1139,
      "haven終": 1140,
      "met終": 1141,
      "since終": 1142,
      "land終": 1143,
      "war": 1144,
      "hair終": 1145,
      "him": 1146,
      "won": 1147,
      "family終": 1148,
      "ess": 1149,
      "kil": 1150,
      "tried終": 1151,
      "supp": 1152,
      "deci": 1153,
      "question終": 1154,
      "bla": 1155,
      "every": 1156,
      "coming終": 1157,
      "phone終": 1158,
      "cri": 1159,
      "open終": 1160,
      "doctor終": 1161,
      "ages終": 1162,
      "ki": 1163,
      "je": 1164,
      "looked終": 1165,
      "cen": 1166,
      "almost終": 1167,
      "himself終": 1168,
      "writ": 1169,
      "reading終": 1170,
      "who": 1171,
      "nobody終": 1172,
      "might終": 1173,
      "says終": 1174,
      "ished終": 1175,
      "far終": 1176,
      "movi": 1177,
      "care終": 1178,
      "ob": 1179,
      "thers終": 1180,
      "change終": 1181,
      "japan終": 1182,
      "lin": 1183,
      "pped終": 1184,
      "minu": 1185,
      "een終": 1186,
      "music終": 1187,
      "dge終": 1188,
      "usu": 1189,
      "inv": 1190,
      "acc": 1191,
      "hor": 1192,
      "sts終": 1193,
      "tain終": 1194,
      "spo": 1195,
      "talking終": 1196,
      "sleep終": 1197,
      "nor": 1198,
      "ous": 1199,
      "japan": 1200,
      "difficult終": 1201,
      "thir": 1202,
      "esp": 1203,
      "walk終": 1204,
      "japanese終": 1205,
      "sy": 1206,
      "sci": 1207,
      "resp": 1208,
      "plan終": 1209,
      "tty終": 1210,
      "getting終": 1211,
      "stre": 1212,
      "become終": 1213,
      "thr": 1214,
      "ago終": 1215,
      "seems終": 1216,
      "small終": 1217,
      "light終": 1218,
      "sen": 1219,
      "matter終": 1220,
      "vel": 1221,
      "early終": 1222,
      "sou": 1223,
      "sted終": 1224,
      "sil": 1225,
      "ched終": 1226,
      "heal": 1227,
      "sun": 1228,
      "fav": 1229,
      "five終": 1230,
      "eyes終": 1231,
      "ei": 1232,
      "wouldn終": 1233,
      "sick終": 1234,
      "toge": 1235,
      "started終": 1236,
      "ions終": 1237,
      "together終": 1238,
      "hate終": 1239,
      "exc": 1240,
      "fol": 1241,
      "else終": 1242,
      "unti": 1243,
      "sit": 1244,
      "acci": 1245,
      "anymore終": 1246,
      "lay": 1247,
      "turned終": 1248,
      "happen終": 1249,
      "bit終": 1250,
      "chin": 1251,
      "tre": 1252,
      "needs終": 1253,
      "working終": 1254,
      "ssi": 1255,
      "gg": 1256,
      "layla終": 1257,
      "int終": 1258,
      "words終": 1259,
      "help": 1260,
      "until終": 1261,
      "myself終": 1262,
      "having終": 1263,
      "everybody終": 1264,
      "meet終": 1265,
      "nice終": 1266,
      "yourself終": 1267,
      "bra": 1268,
      "living終": 1269,
      "eating終": 1270,
      "daugh": 1271,
      "sig": 1272,
      "osed終": 1273,
      "ered終": 1274,
      "grand": 1275,
      "pretty終": 1276,
      "surpri": 1277,
      "cle": 1278,
      "sol": 1279,
      "aper終": 1280,
      "eting終": 1281,
      "makes終": 1282,
      "lar終": 1283,
      "god終": 1284,
      "guys終": 1285,
      "nei": 1286,
      "dress終": 1287,
      "forget終": 1288,
      "ught終": 1289,
      "consi": 1290,
      "emp": 1291,
      "police終": 1292,
      "ar終": 1293,
      "ious終": 1294,
      "windo": 1295,
      "ber": 1296,
      "then終": 1297,
      "through終": 1298,
      "dang": 1299,
      "town終": 1300,
      "pay終": 1301,
      "loves終": 1302,
      "mmer終": 1303,
      "kis": 1304,
      "row": 1305,
      "compu": 1306,
      "under終": 1307,
      "born終": 1308,
      "show終": 1309,
      "bl": 1310,
      "ball終": 1311,
      "che": 1312,
      "ure終": 1313,
      "ship終": 1314,
      "betw": 1315,
      "ching終": 1316,
      "languages終": 1317,
      "between終": 1318,
      "esper": 1319,
      "am": 1320,
      "ably終": 1321,
      "quite終": 1322,
      "students終": 1323,
      "waiting終": 1324,
      "trying終": 1325,
      "vel終": 1326,
      "esperan": 1327,
      "zed終": 1328,
      "sal": 1329,
      "different終": 1330,
      "expe": 1331,
      "sorry終": 1332,
      "hal": 1333,
      "hand終": 1334,
      "station終": 1335,
      "cy終": 1336,
      "free終": 1337,
      "son": 1338,
      "hours終": 1339,
      "decided終": 1340,
      "accident終": 1341,
      "fish終": 1342,
      "her": 1343,
      "out": 1344,
      "head終": 1345,
      "road終": 1346,
      "ition終": 1347,
      "hot終": 1348,
      "meeting終": 1349,
      "fell終": 1350,
      "ssed終": 1351,
      "od終": 1352,
      "succ": 1353,
      "start終": 1354,
      "enjo": 1355,
      "bar": 1356,
      "rec": 1357,
      "hon": 1358,
      "cation終": 1359,
      "also終": 1360,
      "feel": 1361,
      "face終": 1362,
      "fre": 1363,
      "stan": 1364,
      "shed終": 1365,
      "dar": 1366,
      "tch終": 1367,
      "comes終": 1368,
      "int": 1369,
      "sentence終": 1370,
      "angry終": 1371,
      "possible終": 1372,
      "weather終": 1373,
      "foo": 1374,
      "ings終": 1375,
      "ness終": 1376,
      "arrived終": 1377,
      "daughter終": 1378,
      "zy終": 1379,
      "playing終": 1380,
      "number終": 1381,
      "tou": 1382,
      "rich終": 1383,
      "hurt終": 1384,
      "dead終": 1385,
      "bur": 1386,
      "sent終": 1387,
      "ining終": 1388,
      "usually終": 1389,
      "fel": 1390,
      "comple": 1391,
      "death終": 1392,
      "mine終": 1393,
      "office終": 1394,
      "dinner終": 1395,
      "ns終": 1396,
      "ty": 1397,
      "tv終": 1398,
      "speaks終": 1399,
      "americ": 1400,
      "tonight終": 1401,
      "became終": 1402,
      "swim終": 1403,
      "esperanto終": 1404,
      "ke": 1405,
      "inst終": 1406,
      "war終": 1407,
      "care": 1408,
      "against終": 1409,
      "bel": 1410,
      "pra": 1411,
      "story終": 1412,
      "austr": 1413,
      "lun": 1414,
      "men": 1415,
      "lived終": 1416,
      "tic終": 1417,
      "ici": 1418,
      "minutes終": 1419,
      "white終": 1420,
      "movie終": 1421,
      "australi": 1422,
      "cis": 1423,
      "peri": 1424,
      "bri": 1425,
      "whe": 1426,
      "char": 1427,
      "chri": 1428,
      "qui": 1429,
      "mistake終": 1430,
      "quic": 1431,
      "tea終": 1432,
      "longer終": 1433,
      "up": 1434,
      "ters終": 1435,
      "dil終": 1436,
      "test終": 1437,
      "order終": 1438,
      "bab": 1439,
      "tree終": 1440,
      "works終": 1441,
      "killed終": 1442,
      "fun終": 1443,
      "pt終": 1444,
      "die終": 1445,
      "set終": 1446,
      "fadil終": 1447,
      "nec": 1448,
      "may": 1449,
      "fil": 1450,
      "thy終": 1451,
      "sive終": 1452,
      "dra": 1453,
      "german終": 1454,
      "large終": 1455,
      "hos": 1456,
      "reli": 1457,
      "finished終": 1458,
      "probably終": 1459,
      "oss終": 1460,
      "ange終": 1461,
      "picture終": 1462,
      "fire終": 1463,
      "women終": 1464,
      "ening終": 1465,
      "interesting終": 1466,
      "dream終": 1467,
      "enti": 1468,
      "secre": 1469,
      "game終": 1470,
      "mag": 1471,
      "expla": 1472,
      "run終": 1473,
      "milk終": 1474,
      "sing": 1475,
      "hung": 1476,
      "univer": 1477,
      "ens終": 1478,
      "river終": 1479,
      "tenn": 1480,
      "whole終": 1481,
      "im": 1482,
      "pop": 1483,
      "wro": 1484,
      "dered終": 1485,
      "ently終": 1486,
      "visit終": 1487,
      "cha": 1488,
      "tory終": 1489,
      "rep": 1490,
      "sub": 1491,
      "australia終": 1492,
      "sul": 1493,
      "oud終": 1494,
      "cats終": 1495,
      "wrote終": 1496,
      "eu": 1497,
      "ycle終": 1498,
      "full終": 1499,
      "part終": 1500,
      "class終": 1501,
      "computer終": 1502,
      "tennis終": 1503,
      "ated終": 1504,
      "medi": 1505,
      "whether終": 1506,
      "key終": 1507,
      "ler終": 1508,
      "news終": 1509,
      "company終": 1510,
      "transla": 1511,
      "earing終": 1512,
      "learning終": 1513,
      "dan終": 1514,
      "summer終": 1515,
      "month終": 1516,
      "drive終": 1517,
      "ist終": 1518,
      "our": 1519,
      "rela": 1520,
      "favor": 1521,
      "00終": 1522,
      "tel終": 1523,
      "sleep": 1524,
      "listen終": 1525,
      "christ": 1526,
      "blu": 1527,
      "vice終": 1528,
      "stri": 1529,
      "high終": 1530,
      "mean終": 1531,
      "student終": 1532,
      "questions終": 1533,
      "gone終": 1534,
      "opin": 1535,
      "garden終": 1536,
      "cked終": 1537,
      "near終": 1538,
      "ful": 1539,
      "hungry終": 1540,
      "eg": 1541,
      "wonder終": 1542,
      "mous終": 1543,
      "trust終": 1544,
      "felt終": 1545,
      "sha": 1546,
      "heart終": 1547,
      "smoking終": 1548,
      "street終": 1549,
      "ences終": 1550,
      "noon終": 1551,
      "cted終": 1552,
      "park終": 1553,
      "broke終": 1554,
      "pid終": 1555,
      "laugh": 1556,
      "wine終": 1557,
      "stupid終": 1558,
      "maybe終": 1559,
      "clock終": 1560,
      "hands終": 1561,
      "tic": 1562,
      "band終": 1563,
      "ise終": 1564,
      "case終": 1565,
      "flow": 1566,
      "window終": 1567,
      "lunch終": 1568,
      "ia終": 1569,
      "ker終": 1570,
      "busin": 1571,
      "reason終": 1572,
      "ring終": 1573,
      "win終": 1574,
      "thank終": 1575,
      "expen": 1576,
      "cei": 1577,
      "ian終": 1578,
      "ies終": 1579,
      "goes終": 1580,
      "kly終": 1581,
      "yer終": 1582,
      "hotel終": 1583,
      "cli": 1584,
      "snow終": 1585,
      "known終": 1586,
      "favorite終": 1587,
      "clu": 1588,
      "dou": 1589,
      "wearing終": 1590,
      "ward終": 1591,
      "ches終": 1592,
      "after": 1593,
      "gy終": 1594,
      "tato": 1595,
      "earth終": 1596,
      "arti": 1597,
      "seem終": 1598,
      "loved終": 1599,
      "miss終": 1600,
      "tok": 1601,
      "logi": 1602,
      "began終": 1603,
      "sense終": 1604,
      "ghts終": 1605,
      "needed終": 1606,
      "foreig": 1607,
      "health終": 1608,
      "than": 1609,
      "ism終": 1610,
      "six終": 1611,
      "beach終": 1612,
      "dro": 1613,
      "ject終": 1614,
      "inst": 1615,
      "secon": 1616,
      "euro": 1617,
      "others終": 1618,
      "though終": 1619,
      "inted終": 1620,
      "bic": 1621,
      "sses終": 1622,
      "stood終": 1623,
      "ny終": 1624,
      "&apos;終": 1625,
      "stra": 1626,
      "dol": 1627,
      "shouldn終": 1628,
      "anybody終": 1629,
      "gest終": 1630,
      "ran終": 1631,
      "later終": 1632,
      "mple終": 1633,
      "hosp": 1634,
      "flowers終": 1635,
      "stopped終": 1636,
      "russi": 1637,
      "lie終": 1638,
      "speaking終": 1639,
      "cut終": 1640,
      "four終": 1641,
      "song終": 1642,
      "ther": 1643,
      "lowed終": 1644,
      "atten": 1645,
      "smil": 1646,
      "run": 1647,
      "wel": 1648,
      "cover": 1649,
      "close終": 1650,
      "sometimes終": 1651,
      "making終": 1652,
      "spe": 1653,
      "writing終": 1654,
      "break": 1655,
      "studying終": 1656,
      "ction終": 1657,
      "ately終": 1658,
      "lic終": 1659,
      "box終": 1660,
      "pref": 1661,
      "baby終": 1662,
      "lying終": 1663,
      "unk終": 1664,
      "hus": 1665,
      "bring終": 1666,
      "black終": 1667,
      "air": 1668,
      "kit": 1669,
      "pea": 1670,
      "caught終": 1671,
      "exac": 1672,
      "hand": 1673,
      "interested終": 1674,
      "ber終": 1675,
      "dur": 1676,
      "mas終": 1677,
      "religi": 1678,
      "business終": 1679,
      "poor終": 1680,
      "cur": 1681,
      "hasn終": 1682,
      "sun終": 1683,
      "ack": 1684,
      "older終": 1685,
      "wed終": 1686,
      "beh": 1687,
      "real終": 1688,
      "thinking終": 1689,
      "watching終": 1690,
      "ie": 1691,
      "erous終": 1692,
      "apple終": 1693,
      "colle": 1694,
      "written終": 1695,
      "neigh": 1696,
      "fully終": 1697,
      "over": 1698,
      "thes終": 1699,
      "home": 1700,
      "thinks終": 1701,
      "half終": 1702,
      "behind終": 1703,
      "famous終": 1704,
      "breakfast終": 1705,
      "19": 1706,
      "ican終": 1707,
      "ele": 1708,
      "soci": 1709,
      "store終": 1710,
      "eph": 1711,
      "surprised終": 1712,
      "ste": 1713,
      "mal終": 1714,
      "experi": 1715,
      "tional終": 1716,
      "present終": 1717,
      "glad終": 1718,
      "bicycle終": 1719,
      "moun": 1720,
      "wer": 1721,
      "clothes終": 1722,
      "dark終": 1723,
      "husband終": 1724,
      "art終": 1725,
      "lies終": 1726,
      "worked終": 1727,
      "shoes終": 1728,
      "quickly終": 1729,
      "gree": 1730,
      "during終": 1731,
      "hospital終": 1732,
      "ss": 1733,
      "dogs終": 1734,
      "concer": 1735,
      "tun": 1736,
      "rest終": 1737,
      "trou": 1738,
      "respon": 1739,
      "scar": 1740,
      "blue終": 1741,
      "ths終": 1742,
      "chance終": 1743,
      "pub": 1744,
      "human終": 1745,
      "america終": 1746,
      "necess": 1747,
      "mp終": 1748,
      "ils終": 1749,
      "wing終": 1750,
      "dom終": 1751,
      "saying終": 1752,
      "opinion終": 1753,
      "afternoon終": 1754,
      "ality終": 1755,
      "terri": 1756,
      "cul": 1757,
      "girl": 1758,
      "problems終": 1759,
      "ight終": 1760,
      "popu": 1761,
      "aw": 1762,
      "even": 1763,
      "elec": 1764,
      "ev": 1765,
      "american終": 1766,
      "kill終": 1767,
      "tast": 1768,
      "perf": 1769,
      "compla": 1770,
      "count終": 1771,
      "indi": 1772,
      "beer終": 1773,
      "taking終": 1774,
      "capital終": 1775,
      "outside終": 1776,
      "um終": 1777,
      "girls終": 1778,
      "changed終": 1779,
      "pho": 1780,
      "fun": 1781,
      "infor": 1782,
      "fron": 1783,
      "expensive終": 1784,
      "kept終": 1785,
      "deli": 1786,
      "dd": 1787,
      "exa": 1788,
      "disapp": 1789,
      "anim": 1790,
      "diction": 1791,
      "hour終": 1792,
      "vil": 1793,
      "yo終": 1794,
      "point終": 1795,
      "doub": 1796,
      "ner": 1797,
      "paid終": 1798,
      "cket終": 1799,
      "mming終": 1800,
      "helped終": 1801,
      "evening終": 1802,
      "por": 1803,
      "spa": 1804,
      "forgot終": 1805,
      "vie": 1806,
      "animals終": 1807,
      "oc": 1808,
      "libr": 1809,
      "moment終": 1810,
      "mistakes終": 1811,
      "ets終": 1812,
      "fru": 1813,
      "gets終": 1814,
      "dangerous終": 1815,
      "ang終": 1816,
      "fied終": 1817,
      "tokyo終": 1818,
      "girlfriend終": 1819,
      "wear終": 1820,
      "recei": 1821,
      "ght": 1822,
      "agree終": 1823,
      "val": 1824,
      "ene": 1825,
      "goo": 1826,
      "dist": 1827,
      "irs終": 1828,
      "short終": 1829,
      "building終": 1830,
      "covered終": 1831,
      "ba終": 1832,
      "fal": 1833,
      "iled終": 1834,
      "rather終": 1835,
      "plane終": 1836,
      "leep終": 1837,
      "asleep終": 1838,
      "sky終": 1839,
      "ously終": 1840,
      "exactly終": 1841,
      "hat終": 1842,
      "second終": 1843,
      "temp": 1844,
      "cks終": 1845,
      "rel": 1846,
      "team終": 1847,
      "front終": 1848,
      "lity終": 1849,
      "new": 1850,
      "tal終": 1851,
      "adm": 1852,
      "bread終": 1853,
      "el終": 1854,
      "pur": 1855,
      "swe": 1856,
      "wil": 1857,
      "advice終": 1858,
      "crazy終": 1859,
      "ants終": 1860,
      "tures終": 1861,
      "horse終": 1862,
      "sound終": 1863,
      "umb": 1864,
      "worth終": 1865,
      "monday終": 1866,
      "gue終": 1867,
      "ged終": 1868,
      "paper終": 1869,
      "future終": 1870,
      "chinese終": 1871,
      "clea": 1872,
      "noti": 1873,
      "careful終": 1874,
      "library終": 1875,
      "united終": 1876,
      "resta": 1877,
      "ries終": 1878,
      "clean終": 1879,
      "ors終": 1880,
      "learned終": 1881,
      "birth": 1882,
      "dictionary終": 1883,
      "refu": 1884,
      "clear終": 1885,
      "restaur": 1886,
      "dan": 1887,
      "strong終": 1888,
      "secret終": 1889,
      "mou": 1890,
      "spend終": 1891,
      "tters終": 1892,
      "gar終": 1893,
      "trouble終": 1894,
      "30終": 1895,
      "sat終": 1896,
      "sit終": 1897,
      "solu": 1898,
      "states終": 1899,
      "strange終": 1900,
      "ders終": 1901,
      "len終": 1902,
      "prefer終": 1903,
      "umbrel": 1904,
      "birthday終": 1905,
      "&apos;clock終": 1906,
      "situ": 1907,
      "tment終": 1908,
      "least終": 1909,
      "lars終": 1910,
      "swimming終": 1911,
      "cent終": 1912,
      "fla": 1913,
      "lose終": 1914,
      "medic": 1915,
      "past終": 1916,
      "drunk終": 1917,
      "walked終": 1918,
      "thirty終": 1919,
      "mr終": 1920,
      "sea": 1921,
      "tors終": 1922,
      "prof": 1923,
      "thanks終": 1924,
      "rect終": 1925,
      "pati": 1926,
      "translate終": 1927,
      "cts終": 1928,
      "liked終": 1929,
      "sever": 1930,
      "ounds終": 1931,
      "standing終": 1932,
      "fine終": 1933,
      "pon": 1934,
      "ano終": 1935,
      "presi": 1936,
      "travel": 1937,
      "glass終": 1938,
      "homework終": 1939,
      "20": 1940,
      "vin": 1941,
      "opened終": 1942,
      "sli": 1943,
      "arm終": 1944,
      "luck": 1945,
      "drinking終": 1946,
      "eba終": 1947,
      "hit終": 1948,
      "promis": 1949,
      "selves終": 1950,
      "closed終": 1951,
      "his": 1952,
      "tall終": 1953,
      "cake終": 1954,
      "suff": 1955,
      "decis": 1956,
      "winter終": 1957,
      "ut終": 1958,
      "resul": 1959,
      "guy終": 1960,
      "tatoeba終": 1961,
      "bill終": 1962,
      "whose終": 1963,
      "native終": 1964,
      "germany終": 1965,
      "sentences終": 1966,
      "enjoy終": 1967,
      "christmas終": 1968,
      "air終": 1969,
      "fly終": 1970,
      "flu": 1971,
      "ka": 1972,
      "spent終": 1973,
      "trip終": 1974,
      "yours終": 1975,
      "rt終": 1976,
      "yes終": 1977,
      "mation終": 1978,
      "sud": 1979,
      "act終": 1980,
      "talked終": 1981,
      "finish終": 1982,
      "proud終": 1983,
      "necessary終": 1984,
      "ments終": 1985,
      "cated終": 1986,
      "actu": 1987,
      "played終": 1988,
      "grea": 1989,
      "imag": 1990,
      "tter": 1991,
      "prin": 1992,
      "explain終": 1993,
      "medicine終": 1994,
      "fall終": 1995,
      "wake終": 1996,
      "tical終": 1997,
      "brought終": 1998,
      "sitting終": 1999,
      "success終": 2000,
      "umbrella終": 2001,
      "cup終": 2002,
      "des終": 2003,
      "line終": 2004,
      "reali": 2005,
      "ster": 2006,
      "stru": 2007,
      "tis": 2008,
      "span": 2009,
      "boys終": 2010,
      "guess終": 2011,
      "france終": 2012,
      "speci": 2013,
      "cost終": 2014,
      "flo": 2015,
      "sk終": 2016,
      "rema": 2017,
      "discu": 2018,
      "tele": 2019,
      "tics終": 2020,
      "law終": 2021,
      "agre": 2022,
      "move終": 2023,
      "green終": 2024,
      "pping終": 2025,
      "certain終": 2026,
      "mur": 2027,
      "attention終": 2028,
      "sad終": 2029,
      "spee": 2030,
      "foreign終": 2031,
      "gener": 2032,
      "completely終": 2033,
      "edu": 2034,
      "ming終": 2035,
      "sno": 2036,
      "ine": 2037,
      "meat終": 2038,
      "break終": 2039,
      "dollars終": 2040,
      "eal終": 2041,
      "means終": 2042,
      "impre": 2043,
      "spanish終": 2044,
      "dance終": 2045,
      "ologi": 2046,
      "vy終": 2047,
      "along終": 2048,
      "radi": 2049,
      "camer": 2050,
      "catch終": 2051,
      "driver終": 2052,
      "sunday終": 2053,
      "either終": 2054,
      "restaurant終": 2055,
      "actually終": 2056,
      "sist": 2057,
      "contin": 2058,
      "kers終": 2059,
      "send終": 2060,
      "stayed終": 2061,
      "kin": 2062,
      "lied終": 2063,
      "teen終": 2064,
      "vision終": 2065,
      "fer": 2066,
      "hurry終": 2067,
      "sleeping終": 2068,
      "cry終": 2069,
      "wha": 2070,
      "boy": 2071,
      "correct終": 2072,
      "vir": 2073,
      "wash終": 2074,
      "seven終": 2075,
      "quir": 2076,
      "moon終": 2077,
      "deser": 2078,
      "newsp": 2079,
      "bank終": 2080,
      "near": 2081,
      "acr": 2082,
      "kids終": 2083,
      "situation終": 2084,
      "president終": 2085,
      "t-": 2086,
      "stic終": 2087,
      "tten終": 2088,
      "tax": 2089,
      "coura": 2090,
      "villa": 2091,
      "floo": 2092,
      "sity終": 2093,
      "chur": 2094,
      "mise終": 2095,
      "telling終": 2096,
      "several終": 2097,
      "across終": 2098,
      "adi": 2099,
      "bas": 2100,
      "fortun": 2101,
      "bag終": 2102,
      "tries終": 2103,
      "ket終": 2104,
      "sea終": 2105,
      "worried終": 2106,
      "travel終": 2107,
      "spoke終": 2108,
      "trea": 2109,
      "zz": 2110,
      "eaten終": 2111,
      "shall終": 2112,
      "finally終": 2113,
      "driving終": 2114,
      "serious終": 2115,
      "smoke終": 2116,
      "da終": 2117,
      "lig": 2118,
      "ties終": 2119,
      "frien": 2120,
      "months終": 2121,
      "piano終": 2122,
      "sign終": 2123,
      "public終": 2124,
      "smar": 2125,
      "produ": 2126,
      "crying終": 2127,
      "lucky終": 2128,
      "ma終": 2129,
      "mel": 2130,
      "intel": 2131,
      "lau": 2132,
      "mad終": 2133,
      "date終": 2134,
      "impos": 2135,
      "kiss終": 2136,
      "camera終": 2137,
      "visited終": 2138,
      "ities終": 2139,
      "bird終": 2140,
      "information終": 2141,
      "van": 2142,
      "given終": 2143,
      "younger終": 2144,
      "difference終": 2145,
      "pun": 2146,
      "tex": 2147,
      "ones終": 2148,
      "lion終": 2149,
      "shar": 2150,
      "shes終": 2151,
      "pass終": 2152,
      "prac": 2153,
      "ban": 2154,
      "dish終": 2155,
      "chen終": 2156,
      "gover": 2157,
      "science終": 2158,
      "fur": 2159,
      "thous": 2160,
      "uncle終": 2161,
      "pain": 2162,
      "peace終": 2163,
      "impossible終": 2164,
      "sons終": 2165,
      "ane終": 2166,
      "escap": 2167,
      "susp": 2168,
      "shut終": 2169,
      "takes終": 2170,
      "form終": 2171,
      "teach終": 2172,
      "church終": 2173,
      "ple終": 2174,
      "tever終": 2175,
      "deal終": 2176,
      "manag": 2177,
      "touch終": 2178,
      "whatever終": 2179,
      "jec": 2180,
      "mos": 2181,
      "ue終": 2182,
      "reco": 2183,
      "ily終": 2184,
      "hop": 2185,
      "logy終": 2186,
      "marry終": 2187,
      "grou": 2188,
      "evi": 2189,
      "yel": 2190,
      "sugar終": 2191,
      "fif": 2192,
      "week": 2193,
      "birds終": 2194,
      "trees終": 2195,
      "running終": 2196,
      "bru": 2197,
      "ssa": 2198,
      "solve終": 2199,
      "ja": 2200,
      "ka終": 2201,
      "inside終": 2202,
      "itu": 2203,
      "leaving終": 2204,
      "bal": 2205,
      "walking終": 2206,
      "cook終": 2207,
      "contro": 2208,
      "follow終": 2209,
      "china終": 2210,
      "kitchen終": 2211,
      "terrible終": 2212,
      "decision終": 2213,
      "twi": 2214,
      "inten": 2215,
      "arre": 2216,
      "ended終": 2217,
      "shirt終": 2218,
      "ale終": 2219,
      "coat終": 2220,
      "convin": 2221,
      "poe": 2222,
      "alive終": 2223,
      "stron": 2224,
      "teleph": 2225,
      "cour": 2226,
      "begin": 2227,
      "passed終": 2228,
      "fruit終": 2229,
      "boyfriend終": 2230,
      "floor終": 2231,
      "telephone終": 2232,
      "cru": 2233,
      "port終": 2234,
      "return終": 2235,
      "abo": 2236,
      "fact終": 2237,
      "quit終": 2238,
      "esti": 2239,
      "wall終": 2240,
      "list終": 2241,
      "safe終": 2242,
      "herself終": 2243,
      "feeling終": 2244,
      "religion終": 2245,
      "moved終": 2246,
      "dred終": 2247,
      "seemed終": 2248,
      "glasses終": 2249,
      "grandfather終": 2250,
      "expect終": 2251,
      "ece終": 2252,
      "mer終": 2253,
      "enty終": 2254,
      "waited終": 2255,
      "hold終": 2256,
      "boss終": 2257,
      "hundred終": 2258,
      "voice終": 2259,
      "listening終": 2260,
      "wind終": 2261,
      "aning終": 2262,
      "dies終": 2263,
      "gotten終": 2264,
      "promise終": 2265,
      "broken終": 2266,
      "canadi": 2267,
      "seeing終": 2268,
      "immedi": 2269,
      "television終": 2270,
      "cing終": 2271,
      "sell終": 2272,
      "rew終": 2273,
      "ror終": 2274,
      "sugg": 2275,
      "blood終": 2276,
      "scared終": 2277,
      "suggest": 2278,
      "supposed終": 2279,
      "quiet終": 2280,
      "vic": 2281,
      "itted終": 2282,
      "accept終": 2283,
      "university終": 2284,
      "ff終": 2285,
      "tar": 2286,
      "ton": 2287,
      "sear": 2288,
      "taken終": 2289,
      "prote": 2290,
      "kissed終": 2291,
      "weren終": 2292,
      "speech終": 2293,
      "ners終": 2294,
      "enter": 2295,
      "lik": 2296,
      "law": 2297,
      "raining終": 2298,
      "somebody終": 2299,
      "pain終": 2300,
      "grap": 2301,
      "e-": 2302,
      "ow": 2303,
      "tho": 2304,
      "tici": 2305,
      "satis": 2306,
      "address終": 2307,
      "eight終": 2308,
      "popular終": 2309,
      "promised終": 2310,
      "bit": 2311,
      "allowed終": 2312,
      "noise終": 2313,
      "chess終": 2314,
      "abroad終": 2315,
      "dad終": 2316,
      "hum": 2317,
      "desk終": 2318,
      "perfect終": 2319,
      "dding終": 2320,
      "kni": 2321,
      "eats終": 2322,
      "chee": 2323,
      "traff": 2324,
      "worry終": 2325,
      "paris終": 2326,
      "custo": 2327,
      "ignor": 2328,
      "syste": 2329,
      "europe終": 2330,
      "history終": 2331,
      "d-": 2332,
      "nor終": 2333,
      "mate終": 2334,
      "countries終": 2335,
      "cooki": 2336,
      "hardly終": 2337,
      "traffic終": 2338,
      "top終": 2339,
      "mach": 2340,
      "spring終": 2341,
      "fair終": 2342,
      "leaves終": 2343,
      "excu": 2344,
      "ounded終": 2345,
      "price終": 2346,
      "village終": 2347,
      "intellig": 2348,
      "fl": 2349,
      "oned終": 2350,
      "wast": 2351,
      "tain": 2352,
      "tural終": 2353,
      "slept終": 2354,
      "ddle終": 2355,
      "et": 2356,
      "messa": 2357,
      "add終": 2358,
      "know": 2359,
      "clos": 2360,
      "arrive終": 2361,
      "ing": 2362,
      "net終": 2363,
      "wise終": 2364,
      "fig": 2365,
      "showed終": 2366,
      "spoken終": 2367,
      "russian終": 2368,
      "likely終": 2369,
      "hy": 2370,
      "apar": 2371,
      "socc": 2372,
      "survi": 2373,
      "soccer終": 2374,
      "ko": 2375,
      "zing終": 2376,
      "regre": 2377,
      "org": 2378,
      "mail終": 2379,
      "rules終": 2380,
      "cute終": 2381,
      "understood終": 2382,
      "shot終": 2383,
      "cel": 2384,
      "abi": 2385,
      "appro": 2386,
      "plays終": 2387,
      "prepar": 2388,
      "sily終": 2389,
      "disappo": 2390,
      "doubt終": 2391,
      "govern": 2392,
      "gn": 2393,
      "mb終": 2394,
      "built終": 2395,
      "movies終": 2396,
      "singing終": 2397,
      "radio終": 2398,
      "weekend終": 2399,
      "im終": 2400,
      "rk終": 2401,
      "easily終": 2402,
      "desp": 2403,
      "national終": 2404,
      "big": 2405,
      "shopping終": 2406,
      "piece終": 2407,
      "london終": 2408,
      "denly終": 2409,
      "soup終": 2410,
      "check終": 2411,
      "honest終": 2412,
      "suddenly終": 2413,
      "orig": 2414,
      "wonder": 2415,
      "invited終": 2416,
      "experience終": 2417,
      "knowle": 2418,
      "avo": 2419,
      "non": 2420,
      "tball終": 2421,
      "save終": 2422,
      "memb": 2423,
      "eggs終": 2424,
      "cious終": 2425,
      "auth": 2426,
      "newspaper終": 2427,
      "twice終": 2428,
      "fear終": 2429,
      "vol": 2430,
      "iness終": 2431,
      "tains終": 2432,
      "qua": 2433,
      "exist終": 2434,
      "base": 2435,
      "eye終": 2436,
      "cream終": 2437,
      "healthy終": 2438,
      "neighb": 2439,
      "view終": 2440,
      "machine終": 2441,
      "han": 2442,
      "happens終": 2443,
      "person": 2444,
      "weight終": 2445,
      "neither終": 2446,
      "free": 2447,
      "nerv": 2448,
      "inno": 2449,
      "itali": 2450,
      "lake終": 2451,
      "ured終": 2452,
      "high": 2453,
      "answ": 2454,
      "helping終": 2455,
      "hood終": 2456,
      "tor": 2457,
      "stro": 2458,
      "power終": 2459,
      "york終": 2460,
      "orts終": 2461,
      "stic": 2462,
      "guit": 2463,
      "ishing終": 2464,
      "immediately終": 2465,
      "system終": 2466,
      "apartment終": 2467,
      "don": 2468,
      "novel終": 2469,
      "shop終": 2470,
      "color終": 2471,
      "bridge終": 2472,
      "government終": 2473,
      "fle": 2474,
      "def": 2475,
      "plans終": 2476,
      "prison終": 2477,
      "animal終": 2478,
      "danger終": 2479,
      "eff": 2480,
      "apples終": 2481,
      "missed終": 2482,
      "heavy終": 2483,
      "vege": 2484,
      "knife終": 2485,
      "cking終": 2486,
      "dence終": 2487,
      "vely終": 2488,
      "sport終": 2489,
      "pictures終": 2490,
      "pen終": 2491,
      "report終": 2492,
      "received終": 2493,
      "group終": 2494,
      "course終": 2495,
      "ko終": 2496,
      "nine終": 2497,
      "pose終": 2498,
      "ride終": 2499,
      "letters終": 2500,
      "locked終": 2501,
      "simple終": 2502,
      "suit": 2503,
      "conver": 2504,
      "player終": 2505,
      "cars終": 2506,
      "vacation終": 2507,
      "braz": 2508,
      "empty終": 2509,
      "airport終": 2510,
      "mountain終": 2511,
      "nervous終": 2512,
      "cer終": 2513,
      "anti": 2514,
      "mom終": 2515,
      "woke終": 2516,
      "consider終": 2517,
      "octo": 2518,
      "lawyer終": 2519,
      "lent終": 2520,
      "sight終": 2521,
      "forward終": 2522,
      "gun終": 2523,
      "fight終": 2524,
      "ating終": 2525,
      "chair終": 2526,
      "emb": 2527,
      "slow": 2528,
      "yle終": 2529,
      "all": 2530,
      "ire終": 2531,
      "keys終": 2532,
      "knowledge終": 2533,
      "ature終": 2534,
      "gni": 2535,
      "jack": 2536,
      "tab": 2537,
      "apologi": 2538,
      "shing終": 2539,
      "bottle終": 2540,
      "couple終": 2541,
      "ama": 2542,
      "dru": 2543,
      "memor": 2544,
      "accor": 2545,
      "deta": 2546,
      "extre": 2547,
      "among終": 2548,
      "practi": 2549,
      "cool終": 2550,
      "far": 2551,
      "ann": 2552,
      "stands終": 2553,
      "worse終": 2554,
      "muse": 2555,
      "drank終": 2556,
      "drinks終": 2557,
      "minute終": 2558,
      "laugh終": 2559,
      "by": 2560,
      "f-": 2561,
      "fat終": 2562,
      "using終": 2563,
      "sof": 2564,
      "fault終": 2565,
      "studied終": 2566,
      "warm終": 2567,
      "obvi": 2568,
      "guitar終": 2569,
      "propos": 2570,
      "stor": 2571,
      "offer終": 2572,
      "jeal": 2573,
      "except終": 2574,
      "photo": 2575,
      "message終": 2576,
      "none終": 2577,
      "ering終": 2578,
      "chec": 2579,
      "dow": 2580,
      "but": 2581,
      "eared終": 2582,
      "taller終": 2583,
      "advis": 2584,
      "weeks終": 2585,
      "universe終": 2586,
      "sweet終": 2587,
      "agreed終": 2588,
      "canadian終": 2589,
      "excuse終": 2590,
      "sty終": 2591,
      "sold終": 2592,
      "taught終": 2593,
      "exam終": 2594,
      "cond": 2595,
      "mouth終": 2596,
      "thousand終": 2597,
      "october終": 2598,
      "mn終": 2599,
      "sounds終": 2600,
      "mathe": 2601,
      "unity終": 2602,
      "fuck終": 2603,
      "watched終": 2604,
      "recogni": 2605,
      "slowly終": 2606,
      "mathema": 2607,
      "bear終": 2608,
      "id": 2609,
      "lan": 2610,
      "anci": 2611,
      "liter": 2612,
      "holi": 2613,
      "named終": 2614,
      "joke終": 2615,
      "entu": 2616,
      "certain": 2617,
      "bs終": 2618,
      "idea": 2619,
      "oh終": 2620,
      "liar終": 2621,
      "island終": 2622,
      "stairs終": 2623,
      "natural終": 2624,
      "comfor": 2625,
      "itive終": 2626,
      "choose終": 2627,
      "film終": 2628,
      "greek終": 2629,
      "patient終": 2630,
      "ideas終": 2631,
      "them": 2632,
      "ised終": 2633,
      "stole終": 2634,
      "happiness終": 2635,
      "brothers終": 2636,
      "pizz": 2637,
      "common終": 2638,
      "respect終": 2639,
      "laughed終": 2640,
      "enemy終": 2641,
      "ctive終": 2642,
      "crow": 2643,
      "gly終": 2644,
      "alger": 2645,
      "bet終": 2646,
      "beha": 2647,
      "stolen終": 2648,
      "middle終": 2649,
      "planning終": 2650,
      "class": 2651,
      "single終": 2652,
      "concert終": 2653,
      "space終": 2654,
      "beginning終": 2655,
      "themselves終": 2656,
      "ef": 2657,
      "aps終": 2658,
      "seat終": 2659,
      "failed終": 2660,
      "state終": 2661,
      "guil": 2662,
      "compli": 2663,
      "impro": 2664,
      "ceed終": 2665,
      "choice終": 2666,
      "reci": 2667,
      "market終": 2668,
      "begin終": 2669,
      "accep": 2670,
      "scienti": 2671,
      "soldi": 2672,
      "funny終": 2673,
      "certainly終": 2674,
      "cir": 2675,
      "yen終": 2676,
      "spi": 2677,
      "held終": 2678,
      "internet終": 2679,
      "pick終": 2680,
      "forest終": 2681,
      "expected終": 2682,
      "courage終": 2683,
      "gent": 2684,
      "ot終": 2685,
      "sin終": 2686,
      "ital": 2687,
      "dir": 2688,
      "chea": 2689,
      "board終": 2690,
      "project終": 2691,
      "dressed終": 2692,
      "england終": 2693,
      "smell終": 2694,
      "welcome終": 2695,
      "arrested終": 2696,
      "ble": 2697,
      "ta終": 2698,
      "happening終": 2699,
      "rent終": 2700,
      "grew終": 2701,
      "missing終": 2702,
      "writer終": 2703,
      "neighbor": 2704,
      "control終": 2705,
      "baseball終": 2706,
      "clear": 2707,
      "gol": 2708,
      "suc": 2709,
      "police": 2710,
      "dreams終": 2711,
      "usual終": 2712,
      "smile終": 2713,
      "jealous終": 2714,
      "dirty終": 2715,
      "afri": 2716,
      "ations終": 2717,
      "equ": 2718,
      "beat終": 2719,
      "bul": 2720,
      "ford終": 2721,
      "asking終": 2722,
      "mini": 2723,
      "velop": 2724,
      "000終": 2725,
      "10終": 2726,
      "woo": 2727,
      "inde": 2728,
      "leg": 2729,
      "tation終": 2730,
      "preten": 2731,
      "lowing終": 2732,
      "laughing終": 2733,
      "taxi終": 2734,
      "according終": 2735,
      "sand": 2736,
      "tee": 2737,
      "lier終": 2738,
      "tie終": 2739,
      "lady終": 2740,
      "sibi": 2741,
      "moder": 2742,
      "rule終": 2743,
      "fix終": 2744,
      "pul": 2745,
      "ief終": 2746,
      "satisfied終": 2747,
      "wonderful終": 2748,
      "down": 2749,
      "lo終": 2750,
      "tin終": 2751,
      "tears終": 2752,
      "repa": 2753,
      "hates終": 2754,
      "unt終": 2755,
      "deep終": 2756,
      "gic終": 2757,
      "somewhere終": 2758,
      "fiel": 2759,
      "stars終": 2760,
      "mission終": 2761,
      "audi": 2762,
      "blame終": 2763,
      "grandmother終": 2764,
      "yellow終": 2765,
      "above終": 2766,
      "bby終": 2767,
      "mely終": 2768,
      "absolu": 2769,
      "contra": 2770,
      "brit": 2771,
      "choco": 2772,
      "denti": 2773,
      "club終": 2774,
      "aware終": 2775,
      "succeed終": 2776,
      "at": 2777,
      "cting終": 2778,
      "grow": 2779,
      "zen終": 2780,
      "viol": 2781,
      "ckets終": 2782,
      "advised終": 2783,
      "fic": 2784,
      "oner終": 2785,
      "ected終": 2786,
      "carry終": 2787,
      "ground終": 2788,
      "communi": 2789,
      "russia終": 2790,
      "use": 2791,
      "var": 2792,
      "rely終": 2793,
      "anger終": 2794,
      "whom終": 2795,
      "upon終": 2796,
      "pizza終": 2797,
      "post終": 2798,
      "xed終": 2799,
      "direc": 2800,
      "fac": 2801,
      "mic終": 2802,
      "luck終": 2803,
      "due終": 2804,
      "decide終": 2805,
      "college終": 2806,
      "origin": 2807,
      "inj": 2808,
      "returned終": 2809,
      "lation終": 2810,
      "singer終": 2811,
      "anywhere終": 2812,
      "crime終": 2813,
      "foot終": 2814,
      "sisters終": 2815,
      "ges終": 2816,
      "kyo": 2817,
      "ease終": 2818,
      "earlier終": 2819,
      "wedding終": 2820,
      "intro": 2821,
      "waste終": 2822,
      "regret終": 2823,
      "teeth終": 2824,
      "ad終": 2825,
      "los": 2826,
      "argu": 2827,
      "bed": 2828,
      "progra": 2829,
      "believed終": 2830,
      "surprise終": 2831,
      "delicious終": 2832,
      "refused終": 2833,
      "extremely終": 2834,
      "cried終": 2835,
      "pan": 2836,
      "rap": 2837,
      "ory終": 2838,
      "chi": 2839,
      "boat終": 2840,
      "exi": 2841,
      "weal": 2842,
      "planet終": 2843,
      "feelings終": 2844,
      "good": 2845,
      "smart終": 2846,
      "innocent終": 2847,
      "chocolate終": 2848,
      "bil": 2849,
      "econ": 2850,
      "jane終": 2851,
      "pal": 2852,
      "ysi": 2853,
      "fail": 2854,
      "super": 2855,
      "gift終": 2856,
      "mination終": 2857,
      "subject終": 2858,
      "kyoto終": 2859,
      "econo": 2860,
      "pil": 2861,
      "ead終": 2862,
      "lazy終": 2863,
      "gold終": 2864,
      "special終": 2865,
      "entered終": 2866,
      "figure終": 2867,
      "storm終": 2868,
      "introdu": 2869,
      "ca終": 2870,
      "mic": 2871,
      "sna": 2872,
      "ests終": 2873,
      "staying終": 2874,
      "join終": 2875,
      "advan": 2876,
      "jews終": 2877,
      "explained終": 2878,
      "cos": 2879,
      "gro": 2880,
      "grow終": 2881,
      "kid終": 2882,
      "rose終": 2883,
      "squ": 2884,
      "y-": 2885,
      "ill": 2886,
      "press終": 2887,
      "twenty終": 2888,
      "forever終": 2889,
      "icial終": 2890,
      "result終": 2891,
      "flower終": 2892,
      "che終": 2893,
      "idi": 2894,
      "tin": 2895,
      "uses終": 2896,
      "rob": 2897,
      "simil": 2898,
      "shoo": 2899,
      "assu": 2900,
      "star終": 2901,
      "gaz": 2902,
      "bye終": 2903,
      "ros": 2904,
      "osa": 2905,
      "allow終": 2906,
      "sting終": 2907,
      "lights終": 2908,
      "ticket終": 2909,
      "meaning終": 2910,
      "reach終": 2911,
      "dep": 2912,
      "defin": 2913,
      "confu": 2914,
      "harder終": 2915,
      "tongue終": 2916,
      "italian終": 2917,
      "aunt終": 2918,
      "slow終": 2919,
      "ssion終": 2920,
      "wood終": 2921,
      "leg終": 2922,
      "mari": 2923,
      "dest終": 2924,
      "bob終": 2925,
      "bike終": 2926,
      "pass": 2927,
      "wards終": 2928,
      "translated終": 2929,
      "noticed終": 2930,
      "imagine終": 2931,
      "ability終": 2932,
      "useful終": 2933,
      "bly終": 2934,
      "lend終": 2935,
      "sla": 2936,
      "meters終": 2937,
      "cil終": 2938,
      "judge終": 2939,
      "borrow終": 2940,
      "attend終": 2941,
      "windows終": 2942,
      "ach": 2943,
      "gas終": 2944,
      "cate終": 2945,
      "spir": 2946,
      "shower終": 2947,
      "descri": 2948,
      "excel": 2949,
      "friendly終": 2950,
      "organi": 2951,
      "disappointed終": 2952,
      "na終": 2953,
      "psy": 2954,
      "thea": 2955,
      "too": 2956,
      "maj": 2957,
      "lots終": 2958,
      "wore終": 2959,
      "stone終": 2960,
      "nature終": 2961,
      "weir": 2962,
      "believes終": 2963,
      "post": 2964,
      "beauty終": 2965,
      "ania終": 2966,
      "enjoyed終": 2967,
      "painting終": 2968,
      "brazil終": 2969,
      "effor": 2970,
      "policeman終": 2971,
      "haun": 2972,
      "till終": 2973,
      "dishes終": 2974,
      "absent終": 2975,
      "sex終": 2976,
      "forgive終": 2977,
      "jump": 2978,
      "truck終": 2979,
      "physi": 2980,
      "vented終": 2981,
      "followed終": 2982,
      "americans終": 2983,
      "willing終": 2984,
      "fishing終": 2985,
      "ener": 2986,
      "stin": 2987,
      "riage終": 2988,
      "vers終": 2989,
      "size終": 2990,
      "pregn": 2991,
      "figh": 2992,
      "difficul": 2993,
      "linda終": 2994,
      "europe": 2995,
      "electri": 2996,
      "museum終": 2997,
      "mathematics終": 2998,
      "italy終": 2999,
      "wears終": 3000,
      "rome終": 3001,
      "rice終": 3002,
      "rain": 3003,
      "account終": 3004,
      "oper": 3005,
      "oppos": 3006,
      "afford終": 3007,
      "priv": 3008,
      "cles終": 3009,
      "cooking終": 3010,
      "sibility終": 3011,
      "obe": 3012,
      "wis": 3013,
      "gay終": 3014,
      "bath": 3015,
      "feet終": 3016,
      "huge終": 3017,
      "pron": 3018,
      "support終": 3019,
      "feels終": 3020,
      "football終": 3021,
      "behavi": 3022,
      "oce": 3023,
      "sc": 3024,
      "tary終": 3025,
      "hadn終": 3026,
      "cop": 3027,
      "map終": 3028,
      "simp": 3029,
      "faster終": 3030,
      "acked終": 3031,
      "talks終": 3032,
      "gradu": 3033,
      "build終": 3034,
      "suppose終": 3035,
      "north終": 3036,
      "silent終": 3037,
      "considered終": 3038,
      "members終": 3039,
      "algeria終": 3040,
      "guilty終": 3041,
      "sandwi": 3042,
      "injured終": 3043,
      "brain終": 3044,
      "iously終": 3045,
      "enter終": 3046,
      "lay終": 3047,
      "satur": 3048,
      "shoul": 3049,
      "expres": 3050,
      "hello終": 3051,
      "pleasure終": 3052,
      "brown終": 3053,
      "boring終": 3054,
      "instead終": 3055,
      "fool終": 3056,
      "ority終": 3057,
      "step": 3058,
      "chic": 3059,
      "accu": 3060,
      "conf": 3061,
      "gress終": 3062,
      "fired終": 3063,
      "purpose終": 3064,
      "search終": 3065,
      "proposal終": 3066,
      "absolutely終": 3067,
      "val終": 3068,
      "itself終": 3069,
      "meant終": 3070,
      "buying終": 3071,
      "workers終": 3072,
      "sue終": 3073,
      "tee終": 3074,
      "translation終": 3075,
      "notice終": 3076,
      "fortunately終": 3077,
      "protect終": 3078,
      "excellent終": 3079,
      "haps終": 3080,
      "per終": 3081,
      "zo": 3082,
      "div": 3083,
      "sion": 3084,
      "friday終": 3085,
      "perhaps終": 3086,
      "gui": 3087,
      "speaker終": 3088,
      "rooms終": 3089,
      "weap": 3090,
      "clou": 3091,
      "within終": 3092,
      "attra": 3093,
      "south終": 3094,
      "recently終": 3095,
      "belon": 3096,
      "eventu": 3097,
      "cheese終": 3098,
      "weird終": 3099,
      "dying終": 3100,
      "fit終": 3101,
      "ping終": 3102,
      "provi": 3103,
      "names終": 3104,
      "teaching終": 3105,
      "cros": 3106,
      "blind終": 3107,
      "success": 3108,
      "charac": 3109,
      "text終": 3110,
      "suggested終": 3111,
      "practice終": 3112,
      "similar終": 3113,
      "eventually終": 3114,
      "ath": 3115,
      "ado": 3116,
      "ett": 3117,
      "occ": 3118,
      "enced終": 3119,
      "lim": 3120,
      "ith終": 3121,
      "illu": 3122,
      "rious終": 3123,
      "magaz": 3124,
      "goal終": 3125,
      "ski": 3126,
      "carefully終": 3127,
      "socie": 3128,
      "portu": 3129,
      "evil終": 3130,
      "bigger終": 3131,
      "cheap終": 3132,
      "audience終": 3133,
      "ement終": 3134,
      "hell終": 3135,
      "ines終": 3136,
      "increa": 3137,
      "ordered終": 3138,
      "legs終": 3139,
      "loy": 3140,
      "pois": 3141,
      "compar": 3142,
      "carried終": 3143,
      "bored終": 3144,
      "amoun": 3145,
      "prepared終": 3146,
      "hill終": 3147,
      "tro": 3148,
      "recor": 3149,
      "disa": 3150,
      "hol": 3151,
      "docu": 3152,
      "lock終": 3153,
      "sex": 3154,
      "shel": 3155,
      "share終": 3156,
      "destro": 3157,
      "giving終": 3158,
      "parti": 3159,
      "pol": 3160,
      "painted終": 3161,
      "pleased終": 3162,
      "ada終": 3163,
      "international終": 3164,
      "wallet終": 3165,
      "calm終": 3166,
      "keeps終": 3167,
      "gender終": 3168,
      "tastes終": 3169,
      "impressed終": 3170,
      "continu": 3171,
      "pregnant終": 3172,
      "ben": 3173,
      "gers終": 3174,
      "mea": 3175,
      "nur": 3176,
      "scen": 3177,
      "wet終": 3178,
      "thief終": 3179,
      "army終": 3180,
      "easi": 3181,
      "sation終": 3182,
      "sooner終": 3183,
      "sports終": 3184,
      "develop": 3185,
      "exer": 3186,
      "gives終": 3187,
      "mid": 3188,
      "fic終": 3189,
      "card終": 3190,
      "type終": 3191,
      "modern終": 3192,
      "dry終": 3193,
      "recomm": 3194,
      "cover終": 3195,
      "marriage終": 3196,
      "tury終": 3197,
      "canada終": 3198,
      "pencil終": 3199,
      "century終": 3200,
      "sour": 3201,
      "responsible終": 3202,
      "temper": 3203,
      "humans終": 3204,
      "intelligent終": 3205,
      "neighbor終": 3206,
      "citi": 3207,
      "cele": 3208,
      "fy終": 3209,
      "fan": 3210,
      "arab": 3211,
      "licen": 3212,
      "rains終": 3213,
      "que終": 3214,
      "decl": 3215,
      "appreci": 3216,
      "consci": 3217,
      "self-": 3218,
      "alice終": 3219,
      "writes終": 3220,
      "charge終": 3221,
      "article終": 3222,
      "social終": 3223,
      "solution終": 3224,
      "education終": 3225,
      "cookies終": 3226,
      "avoid終": 3227,
      "society終": 3228,
      "ea終": 3229,
      "port": 3230,
      "thou": 3231,
      "main終": 3232,
      "hide終": 3233,
      "vide": 3234,
      "eces終": 3235,
      "bath終": 3236,
      "interest終": 3237,
      "visi": 3238,
      "heada": 3239,
      "smel": 3240,
      "garian終": 3241,
      "fran": 3242,
      "objec": 3243,
      "salt終": 3244,
      "ty-": 3245,
      "smiled終": 3246,
      "realized終": 3247,
      "tables終": 3248,
      "holiday終": 3249,
      "comfortable終": 3250,
      "soldiers終": 3251,
      ",000終": 3252,
      "male終": 3253,
      "oil終": 3254,
      "tan": 3255,
      "saved終": 3256,
      "shy終": 3257,
      "earth": 3258,
      "teri": 3259,
      "greatest終": 3260,
      "discuss終": 3261,
      "convinced終": 3262,
      "field終": 3263,
      "haunted終": 3264,
      "kab": 3265,
      "page終": 3266,
      "zation終": 3267,
      "inclu": 3268,
      "suit終": 3269,
      "appo": 3270,
      "ects終": 3271,
      "seriously終": 3272,
      "murder終": 3273,
      "africa終": 3274,
      "jun": 3275,
      "jour": 3276,
      "sis終": 3277,
      "site終": 3278,
      "apers終": 3279,
      "ery終": 3280,
      "hau": 3281,
      "forgotten終": 3282,
      "proper": 3283,
      "phil": 3284,
      "cross終": 3285,
      "crimin": 3286,
      "soul終": 3287,
      "signed終": 3288,
      "intment終": 3289,
      "climb": 3290,
      "results終": 3291,
      "failure終": 3292,
      "file終": 3293,
      "arms終": 3294,
      "alco": 3295,
      "eleph": 3296,
      "shor": 3297,
      "shit終": 3298,
      "geor": 3299,
      "discovered終": 3300,
      "pieces終": 3301,
      "teachers終": 3302,
      "listened終": 3303,
      "horses終": 3304,
      "dancing終": 3305,
      "nearly終": 3306,
      "behavior終": 3307,
      "headache終": 3308,
      "ava": 3309,
      "ahead終": 3310,
      "del": 3311,
      "nar": 3312,
      "nit": 3313,
      "xi": 3314,
      "throw終": 3315,
      "threw終": 3316,
      "ours終": 3317,
      "ented終": 3318,
      "orange終": 3319,
      "itation終": 3320,
      "match終": 3321,
      "opport": 3322,
      "exhau": 3323,
      "fire": 3324,
      "kilo": 3325,
      "berber終": 3326,
      "apologize終": 3327,
      "goodbye終": 3328,
      "easier終": 3329,
      "cs終": 3330,
      "mers終": 3331,
      "rying終": 3332,
      "step終": 3333,
      "washing終": 3334,
      "itely終": 3335,
      "roof終": 3336,
      "latin終": 3337,
      "explan": 3338,
      "invol": 3339,
      "thirsty終": 3340,
      "consider": 3341,
      "artist終": 3342,
      "taste終": 3343,
      "escape終": 3344,
      "ancient終": 3345,
      "mma": 3346,
      "sant終": 3347,
      "area終": 3348,
      "regu": 3349,
      "iling終": 3350,
      "cot": 3351,
      "lows終": 3352,
      "six": 3353,
      "sions終": 3354,
      "sua": 3355,
      "seldom終": 3356,
      "compet": 3357,
      "cancer終": 3358,
      "position終": 3359,
      "political終": 3360,
      "attemp": 3361,
      "cousin終": 3362,
      "obser": 3363,
      "gged終": 3364,
      "fresh終": 3365,
      "icide終": 3366,
      "upset終": 3367,
      "filled終": 3368,
      "drop終": 3369,
      "european終": 3370,
      "ocean終": 3371,
      "license終": 3372,
      "cro": 3373,
      "hey終": 3374,
      "owe終": 3375,
      "mage終": 3376,
      "hiding終": 3377,
      "demo": 3378,
      "persua": 3379,
      "million終": 3380,
      "mined終": 3381,
      "skin終": 3382,
      "third終": 3383,
      "complaining終": 3384,
      "distance終": 3385,
      "201": 3386,
      "conversation終": 3387,
      "accepted終": 3388,
      "gentle": 3389,
      "illness終": 3390,
      "energy終": 3391,
      "back": 3392,
      "flying終": 3393,
      "lap": 3394,
      "rab": 3395,
      "ugly終": 3396,
      "sti": 3397,
      "disp": 3398,
      "risk終": 3399,
      "les": 3400,
      "caused終": 3401,
      "worst終": 3402,
      "fail終": 3403,
      "queen終": 3404,
      "stoma": 3405,
      "mike終": 3406,
      "west終": 3407,
      "heb": 3408,
      "silence終": 3409,
      "dropped終": 3410,
      "escaped終": 3411,
      "manager終": 3412,
      "original終": 3413,
      "idiot終": 3414,
      "divor": 3415,
      "aff": 3416,
      "lou": 3417,
      "wol": 3418,
      "water": 3419,
      "apped終": 3420,
      "guese終": 3421,
      "games終": 3422,
      "autu": 3423,
      "corner終": 3424,
      "volu": 3425,
      "myster": 3426,
      "complete終": 3427,
      "mountains終": 3428,
      "examination終": 3429,
      "friend": 3430,
      "saturday終": 3431,
      "successful終": 3432,
      "portuguese終": 3433,
      "mal": 3434,
      "nose終": 3435,
      "tend終": 3436,
      "although終": 3437,
      "hamed終": 3438,
      "hobby終": 3439,
      "chan": 3440,
      "master終": 3441,
      "union終": 3442,
      "unless終": 3443,
      "exp": 3444,
      "forced終": 3445,
      "eeded終": 3446,
      "jud": 3447,
      "gate終": 3448,
      "grass終": 3449,
      "largest終": 3450,
      "plants終": 3451,
      "weak終": 3452,
      "normal終": 3453,
      "following終": 3454,
      "perfec": 3455,
      "button終": 3456,
      "pretended終": 3457,
      "temperature終": 3458,
      "hebrew終": 3459,
      "18": 3460,
      "cy": 3461,
      "flight終": 3462,
      "jim終": 3463,
      "ssing終": 3464,
      "ending終": 3465,
      "iter終": 3466,
      "theory終": 3467,
      "ashamed終": 3468,
      "stuff終": 3469,
      "trump終": 3470,
      "feed終": 3471,
      "alist終": 3472,
      "attack終": 3473,
      "created終": 3474,
      "jewish終": 3475,
      "center終": 3476,
      "songs終": 3477,
      "example終": 3478,
      "classroom終": 3479,
      "alcoho": 3480,
      "autumn終": 3481,
      "20終": 3482,
      "amb": 3483,
      "mir": 3484,
      "mani": 3485,
      "pool終": 3486,
      "inci": 3487,
      "indu": 3488,
      "arch": 3489,
      "regi": 3490,
      "when": 3491,
      "coa": 3492,
      "cow終": 3493,
      "unfortunately終": 3494,
      "cast": 3495,
      "suicide終": 3496,
      "teen": 3497,
      "houses終": 3498,
      "duty終": 3499
    },
    "merges": [
      "t h",
      "o s",
      "i n",
      "a p",
      "ap os",
      "& apos",
      "&apos ;",
      "th e終",
      "i s終",
      "t o",
      "a n",
      "y o",
      "e r",
      "t o終",
      "a r",
      "e d終",
      "e r終",
      "yo u終",
      "in g終",
      "a t終",
      "o u",
      "r e",
      "to m終",
      "e n",
      "o n終",
      "h e終",
      "o n",
      "a l",
      "v e終",
      "m e終",
      "o r",
      "&apos; t終",
      "h a",
      "i n終",
      "w h",
      "s t",
      "l i",
      "a n終",
      "w a",
      "n o",
      "i t終",
      "i t",
      "e s終",
      "e a",
      "o f終",
      "th at終",
      "t i",
      "e l",
      "e n終",
      "&apos; s終",
      "r o",
      "d i",
      "i l",
      "er e終",
      "r i",
      "o o",
      "wa s終",
      "s t終",
      "an d終",
      "l a",
      "b e",
      "o r終",
      "k e終",
      "l d終",
      "m y終",
      "th is終",
      "n e",
      "h o",
      "ar e終",
      "l e",
      "s e終",
      "d o終",
      "c o",
      "w e終",
      "ha ve終",
      "l y終",
      "l e終",
      "c h",
      "m a",
      "v er",
      "g h",
      "d o",
      "f or終",
      "u r",
      "th e",
      "s he終",
      "u n",
      "c e終",
      "c h終",
      "i s",
      "l o",
      "d on終",
      "no t終",
      "wh at終",
      "a b",
      "m ar",
      "c an終",
      "s a",
      "r a",
      "c a",
      "b e終",
      "s i",
      "m e",
      "no w終",
      "d a",
      "s e",
      "ou t終",
      "h is終",
      "s o",
      "gh t終",
      "s p",
      "w it",
      "h i",
      "u r終",
      "al l終",
      "il l終",
      "b u",
      "ou ld終",
      "wit h終",
      "yo ur終",
      "en t終",
      "th er終",
      "w an",
      "t t",
      "re a",
      "on e終",
      "w or",
      "f a",
      "mar y終",
      "g o",
      "&apos; m終",
      "t s終",
      "e t終",
      "i r",
      "li ke終",
      "th ing終",
      "v er終",
      "e s",
      "s u",
      "s h",
      "a c",
      "a g",
      "k now終",
      "h er終",
      "th in",
      "ver y終",
      "th ere終",
      "da y終",
      "t ed終",
      "the y終",
      "ha s終",
      "t r",
      "t a",
      "m p",
      "q u",
      "d n終",
      "m or",
      "d e",
      "a s終",
      "wan t終",
      "b o",
      "t e終",
      "w ill終",
      "m u",
      "ho w終",
      "o p",
      "r e終",
      "hi m終",
      "d s終",
      "e ar",
      "t h終",
      "el l終",
      "l ea",
      "k ing終",
      "e x",
      "ap p",
      "m o",
      "t er終",
      "l l終",
      "ou n",
      "di d終",
      "thin k終",
      "c on",
      "i c",
      "ti on終",
      "y s終",
      "f or",
      "an y終",
      "&apos; re終",
      "an g",
      "g o終",
      "ab out終",
      "d y終",
      "oo d終",
      "a s",
      "f u",
      "f ro",
      "fro m終",
      "er s終",
      "i d終",
      "&apos; ll終",
      "ha d終",
      "b y終",
      "di dn終",
      "p ro",
      "k s終",
      "ti me終",
      "k ed終",
      "f f",
      "e e",
      "a l終",
      "d e終",
      "h ere終",
      "e st",
      "al ly終",
      "p e",
      "st a",
      "c i",
      "j u",
      "l oo",
      "g et終",
      "i f終",
      "u p終",
      "wh o終",
      "n o終",
      "m an終",
      "s to",
      "wh en終",
      "w ere終",
      "&apos; ve終",
      "g i",
      "s o終",
      "bu t終",
      "r y終",
      "p ar",
      "on g終",
      "w i",
      "p la",
      "t ur",
      "mor e終",
      "h el",
      "t er",
      "s ed終",
      "co me終",
      "f ri",
      "so me",
      "n i",
      "w ould終",
      "en d終",
      "u s終",
      "ou r終",
      "g ood終",
      "m on",
      "p re",
      "wh y終",
      "th an終",
      "in d終",
      "h app",
      "w n終",
      "wh ere終",
      "n a",
      "y thing終",
      "go ing終",
      "s s終",
      "r u",
      "ju st終",
      "p o",
      "v i",
      "e ver",
      "t e",
      "p er",
      "g u",
      "tt er終",
      "m i",
      "t y終",
      "os t終",
      "b oo",
      "ea r終",
      "do es",
      "does n終",
      "i r終",
      "re e終",
      "p a",
      "j o",
      "t ing終",
      "y ing終",
      "wa y終",
      "t al",
      "a m終",
      "ne ver終",
      "sp ea",
      "t w",
      "be en終",
      "pe op",
      "p lea",
      "s el",
      "peop le終",
      "st u",
      "c k終",
      "ne ed終",
      "f e終",
      "s h終",
      "sh ould終",
      "d er",
      "d er終",
      "se e終",
      "it e終",
      "g s終",
      "in e終",
      "m b",
      "le t終",
      "ou s終",
      "ne w終",
      "a f",
      "ou ght終",
      "c u",
      "s ur",
      "g a",
      "v es終",
      "go t終",
      "w r",
      "wor k終",
      "h ou",
      "m any終",
      "v ed終",
      "t ell終",
      "ab le終",
      "f i",
      "d ed終",
      "so me終",
      "hel p終",
      "to o終",
      "g h終",
      "os e終",
      "plea se終",
      "tr u",
      "co mp",
      "e y終",
      "l u",
      "g e",
      "e c",
      "b a",
      "v en終",
      "d ing終",
      "t ra",
      "oun d終",
      "o f",
      "g e終",
      "re n",
      "ag e終",
      "mu ch終",
      "s on終",
      "co m",
      "lo ve終",
      "fu l終",
      "c ould終",
      "sa id終",
      "u se終",
      "p u",
      "on s終",
      "t en終",
      "en ce終",
      "on ly終",
      "a d",
      "it y終",
      "re ally終",
      "d re",
      "do es終",
      "n ing終",
      "ch il",
      "i on終",
      "ta ke終",
      "g re",
      "ac k終",
      "is n終",
      "en g",
      "k es終",
      "ma ke終",
      "o ther終",
      "is h終",
      "p l",
      "w s終",
      "m s終",
      "l ed終",
      "e p",
      "boo k終",
      "ri ed終",
      "&apos; d終",
      "sel f終",
      "ho me終",
      "n e終",
      "v ing終",
      "an t終",
      "f ir",
      "wa ys終",
      "m il",
      "ro o",
      "oo l終",
      "c ar",
      "the m終",
      "hou se終",
      "el y終",
      "ri ght終",
      "bo dy終",
      "ear s終",
      "d r",
      "ca r終",
      "f ren",
      "al ways終",
      "spea k終",
      "en ts終",
      "some thing終",
      "o t",
      "fren ch終",
      "ou l",
      "mon ey終",
      "b ack終",
      "s in",
      "ni ght終",
      "lo t終",
      "b le終",
      "le ar",
      "ou gh終",
      "qu ot",
      "tw o終",
      "b i",
      "ar d終",
      "& quot",
      "&quot ;終",
      "en t",
      "la st終",
      "to ld終",
      "sa y終",
      "m ent終",
      "f e",
      "ro w終",
      "yo ne終",
      "to day終",
      "ag a",
      "an ything終",
      "st ill終",
      "s ch",
      "gi ve終",
      "t ea",
      "b ro",
      "roo m終",
      "li sh終",
      "es s終",
      "an s",
      "oul dn終",
      "b ea",
      "o ld終",
      "p p",
      "un der",
      "rea d終",
      "d u",
      "fa ther終",
      "mu st終",
      "m ost終",
      "w ell終",
      "tr y終",
      "i mp",
      "th ree終",
      "the ir終",
      "ca me終",
      "f t終",
      "ma de終",
      "ang u",
      "li fe終",
      "f in",
      "l ong終",
      "l angu",
      "pro b",
      "o l",
      "k no",
      "w e",
      "p ri",
      "li e",
      "to n終",
      "m in",
      "w ent終",
      "tt le終",
      "b os",
      "al i",
      "in ter",
      "w on終",
      "s ho",
      "ar y終",
      "be tter終",
      "for e終",
      "sch ool終",
      "an ce終",
      "e at終",
      "s y終",
      "e very終",
      "fri end終",
      "c an",
      "in to終",
      "eng lish終",
      "st ar",
      "be lie",
      "rea dy終",
      "be fore終",
      "li ve終",
      "c oun",
      "di ff",
      "p e終",
      "e ver終",
      "r ed終",
      "m is",
      "se e",
      "sur e終",
      "st and終",
      "h ear",
      "y ears終",
      "n ed終",
      "en ds終",
      "d ea",
      "en ed終",
      "ever ything終",
      "di s",
      "loo k終",
      "g ir",
      "w al",
      "bos ton終",
      "st r",
      "w er終",
      "tal k終",
      "mb er終",
      "mo ther終",
      "s n終",
      "of f終",
      "c l",
      "la te終",
      "tur e終",
      "aga in終",
      "th ought終",
      "m er",
      "g er終",
      "dre n終",
      "chil dren終",
      "fir st終",
      "w o",
      "ca use終",
      "c t終",
      "p i",
      "an d",
      "v is",
      "p os",
      "g r",
      "t u",
      "li ttle終",
      "af ter終",
      "h u",
      "mor row終",
      "to morrow終",
      "a te終",
      "b r",
      "d ent終",
      "t es終",
      "an s終",
      "le ft終",
      "est er",
      "no thing終",
      "ma y終",
      "happ y終",
      "w ee",
      "m es終",
      "b or",
      "wan ted終",
      "o k終",
      "as ked終",
      "wa t",
      "wor ld終",
      "p h",
      "s le",
      "c e",
      "y ester",
      "yester day終",
      "do g終",
      "s es終",
      "o ver終",
      "prob le",
      "a tion終",
      "u l",
      "i ce終",
      "j ap",
      "bea u",
      "be cause終",
      "wi th",
      "dr in",
      "f ind終",
      "do wn終",
      "wh i",
      "pu t終",
      "to r終",
      "under stand終",
      "c al",
      "ne x",
      "st er終",
      "an y",
      "sa w終",
      "belie ve終",
      "tea ch",
      "oo r終",
      "na me終",
      "s ing終",
      "langu age終",
      "e ven終",
      "a u",
      "u sed終",
      "fri ends終",
      "e p終",
      "an i",
      "l s終",
      "do ing終",
      "nex t終",
      "h ea",
      "the se終",
      "t el",
      "it ed終",
      "lea ve終",
      "g er",
      "c k",
      "v e",
      "wa ter終",
      "qu est",
      "sto p終",
      "po li",
      "c or",
      "whi ch終",
      "a way終",
      "t en",
      "bu y終",
      "g ra",
      "lo w",
      "beau ti",
      "l es終",
      "ch ang",
      "t ri",
      "or t終",
      "yo un",
      "beauti ful終",
      "w in",
      "a tt",
      "l ing終",
      "with out終",
      "d ri",
      "il e終",
      "s m",
      "ever yone終",
      "m ed終",
      "wa sn終",
      "co l",
      "al ready終",
      "wan ts終",
      "m en終",
      "s er",
      "sta y終",
      "thin gs終",
      "c all終",
      "be st終",
      "ee l終",
      "k ee",
      "ne e",
      "it ing終",
      "jo b終",
      "e se終",
      "s hi",
      "is h",
      "it s終",
      "f o",
      "l ar",
      "y ear終",
      "o ff",
      "to ok終",
      "ec t終",
      "p ic",
      "as k終",
      "of ten終",
      "h un",
      "pla y終",
      "k en終",
      "pl an",
      "ti ve終",
      "f ound終",
      "lear n終",
      "or t",
      "ga ve終",
      "ti on",
      "c ed終",
      "v en",
      "u gh",
      "c es終",
      "d one終",
      "h ard終",
      "s k",
      "da ys終",
      "si de終",
      "l a終",
      "v o",
      "y ed終",
      "lo w終",
      "ba d終",
      "c at終",
      "h e",
      "i l終",
      "ho pe終",
      "c la",
      "proble m終",
      "loo king終",
      "be ing終",
      "ti ons終",
      "c ou",
      "y et終",
      "b rea",
      "m m",
      "kno ws終",
      "mor ning終",
      "f eel終",
      "b ed終",
      "c ap",
      "se en終",
      "an k終",
      "r s終",
      "hear d終",
      "e y",
      "en ough終",
      "so on終",
      "g ar",
      "ti mes終",
      "per son終",
      "h ur",
      "be g",
      "pre s",
      "teach er終",
      "t ly終",
      "ca l終",
      "c er",
      "bi g終",
      "g la",
      "l on",
      "b ought終",
      "c lo",
      "happ ened終",
      "gre at終",
      "e st終",
      "it i",
      "com m",
      "l ost終",
      "tru th終",
      "si ble終",
      "n er終",
      "stu d",
      "p en",
      "b ir",
      "bo th終",
      "sa me終",
      "c le終",
      "i de",
      "in s終",
      "yo ur",
      "d oor終",
      "i g",
      "p as",
      "tr ans",
      "wr ong終",
      "mar ried終",
      "di ed終",
      "par ents終",
      "c ouldn終",
      "t ely終",
      "di c",
      "ar ound終",
      "ea ch終",
      "p r",
      "ul t終",
      "k new終",
      "s wi",
      "kee p終",
      "me mber終",
      "youn g終",
      "ar ri",
      "mi sta",
      "li kes終",
      "c c",
      "m an",
      "li ves終",
      "coun try終",
      "wee k終",
      "n u",
      "li st",
      "inter est",
      "su ch終",
      "o wn終",
      "drin k終",
      "fo re",
      "co ld終",
      "tru e終",
      "ide a終",
      "a mer",
      "an yone終",
      "tur n終",
      "s ent",
      "th ose終",
      "ra id終",
      "wr ite終",
      "c re",
      "ff e",
      "i c終",
      "af raid終",
      "gir l終",
      "wh ile終",
      "diff er",
      "m i終",
      "k ind終",
      "boo ks終",
      "w ish終",
      "bo y終",
      "jo h",
      "fa st終",
      "loo ks終",
      "wi fe終",
      "wa it終",
      "imp ort",
      "v a",
      "tra in終",
      "co ffe",
      "t able終",
      "an other終",
      "le tter終",
      "tt ing終",
      "wor d終",
      "h ear終",
      "bro ther終",
      "c oo",
      "in ed終",
      "coffe e終",
      "z e終",
      "d rea",
      "f r",
      "pla ce終",
      "le ss終",
      "al one終",
      "c ity終",
      "mu si",
      "c rea",
      "h ar",
      "w ea",
      "c ho",
      "diff ic",
      "bu sy終",
      "d in",
      "si ster終",
      "c ra",
      "g en",
      "ep t終",
      "an ds終",
      "c tor終",
      "joh n終",
      "ra in終",
      "some one終",
      "bu s終",
      "stu dy終",
      "s or",
      "mil y終",
      "d en終",
      "re s終",
      "re member終",
      "ans wer終",
      "c r",
      "s mo",
      "f ood終",
      "chil d終",
      "import ant終",
      "on ce終",
      "par ty終",
      "d en",
      "si on終",
      "d es",
      "al s終",
      "ro a",
      "cal led終",
      "ar en終",
      "con t",
      "m ind終",
      "sa mi終",
      "can not終",
      "d ly終",
      "un i",
      "ea sy終",
      "p s終",
      "m y",
      "bu il",
      "wo man終",
      "fe w終",
      "wat ch終",
      "ti red終",
      "it al終",
      "ha ven終",
      "me t終",
      "sin ce終",
      "l and終",
      "w ar",
      "ha ir終",
      "hi m",
      "w on",
      "fa mily終",
      "es s",
      "k il",
      "t ried終",
      "su pp",
      "de ci",
      "quest ion終",
      "b la",
      "ever y",
      "com ing終",
      "ph one終",
      "c ri",
      "op en終",
      "do ctor終",
      "ag es終",
      "k i",
      "j e",
      "loo ked終",
      "c en",
      "al most終",
      "him self終",
      "wr it",
      "rea ding終",
      "wh o",
      "no body終",
      "mi ght終",
      "sa ys終",
      "ish ed終",
      "fa r終",
      "mo vi",
      "c are終",
      "o b",
      "th ers終",
      "chang e終",
      "jap an終",
      "l in",
      "pp ed終",
      "min u",
      "e en終",
      "musi c終",
      "d ge終",
      "u su",
      "in v",
      "ac c",
      "h or",
      "st s終",
      "ta in終",
      "sp o",
      "tal king終",
      "sle ep終",
      "n or",
      "ou s",
      "jap an",
      "diffic ult終",
      "th ir",
      "e sp",
      "wal k終",
      "japan ese終",
      "s y",
      "s ci",
      "re sp",
      "pl an終",
      "tt y終",
      "ge tting終",
      "st re",
      "be come終",
      "th r",
      "ag o終",
      "see ms終",
      "sm all終",
      "li ght終",
      "s en",
      "ma tter終",
      "v el",
      "ear ly終",
      "s ou",
      "st ed終",
      "s il",
      "ch ed終",
      "he al",
      "s un",
      "fa v",
      "fi ve終",
      "ey es終",
      "e i",
      "w ouldn終",
      "si ck終",
      "to ge",
      "star ted終",
      "i ons終",
      "toge ther終",
      "ha te終",
      "ex c",
      "f ol",
      "el se終",
      "un ti",
      "s it",
      "ac ci",
      "any more終",
      "la y",
      "tur ned終",
      "happ en終",
      "b it終",
      "ch in",
      "t re",
      "nee ds終",
      "wor king終",
      "s si",
      "g g",
      "lay la終",
      "in t終",
      "wor ds終",
      "hel p",
      "unti l終",
      "my self終",
      "ha ving終",
      "every body終",
      "me et終",
      "ni ce終",
      "your self終",
      "b ra",
      "li ving終",
      "ea ting終",
      "da ugh",
      "si g",
      "os ed終",
      "er ed終",
      "gr and",
      "pre tty終",
      "sur pri",
      "c le",
      "so l",
      "ap er終",
      "e ting終",
      "ma kes終",
      "la r終",
      "go d終",
      "gu ys終",
      "ne i",
      "dre ss終",
      "for get終",
      "u ght終",
      "con si",
      "e mp",
      "poli ce終",
      "a r終",
      "i ous終",
      "win do",
      "b er",
      "th en終",
      "thr ough終",
      "d ang",
      "to wn終",
      "pa y終",
      "lo ves終",
      "mm er終",
      "k is",
      "ro w",
      "comp u",
      "un der終",
      "bor n終",
      "s how終",
      "b l",
      "b all終",
      "ch e",
      "ur e終",
      "shi p終",
      "be tw",
      "ch ing終",
      "langu ages終",
      "betw een終",
      "esp er",
      "a m",
      "ab ly終",
      "qu ite終",
      "stud ents終",
      "wa iting終",
      "tr ying終",
      "ve l終",
      "esper an",
      "z ed終",
      "s al",
      "differ ent終",
      "ex pe",
      "sor ry終",
      "h al",
      "h and終",
      "sta tion終",
      "c y終",
      "f ree終",
      "s on",
      "hou rs終",
      "deci ded終",
      "acci dent終",
      "f ish終",
      "h er",
      "ou t",
      "hea d終",
      "roa d終",
      "it ion終",
      "ho t終",
      "me eting終",
      "f ell終",
      "s sed終",
      "o d終",
      "su cc",
      "star t終",
      "en jo",
      "b ar",
      "re c",
      "h on",
      "ca tion終",
      "al so終",
      "fe el",
      "fa ce終",
      "f re",
      "st an",
      "sh ed終",
      "d ar",
      "t ch終",
      "com es終",
      "in t",
      "sent ence終",
      "ang ry終",
      "pos sible終",
      "wea ther終",
      "f oo",
      "in gs終",
      "ne ss終",
      "arri ved終",
      "daugh ter終",
      "z y終",
      "pla ying終",
      "nu mber終",
      "to u",
      "ri ch終",
      "hur t終",
      "dea d終",
      "b ur",
      "s ent終",
      "in ing終",
      "usu ally終",
      "f el",
      "comp le",
      "dea th終",
      "m ine終",
      "off ice終",
      "din ner終",
      "n s終",
      "t y",
      "t v終",
      "spea ks終",
      "amer ic",
      "to night終",
      "be came終",
      "swi m終",
      "esperan to終",
      "k e",
      "in st終",
      "wa r終",
      "car e",
      "aga inst終",
      "b el",
      "p ra",
      "sto ry終",
      "au str",
      "l un",
      "m en",
      "li ved終",
      "ti c終",
      "ic i",
      "minu tes終",
      "wh ite終",
      "movi e終",
      "austr ali",
      "c is",
      "per i",
      "b ri",
      "wh e",
      "ch ar",
      "ch ri",
      "qu i",
      "mista ke終",
      "qu ic",
      "te a終",
      "lon ger終",
      "u p",
      "t ers終",
      "di l終",
      "te st終",
      "or der終",
      "b ab",
      "t ree終",
      "wor ks終",
      "kil led終",
      "fu n終",
      "p t終",
      "di e終",
      "se t終",
      "fa dil終",
      "ne c",
      "ma y",
      "f il",
      "th y終",
      "si ve終",
      "d ra",
      "ger man終",
      "lar ge終",
      "h os",
      "re li",
      "fin ished終",
      "prob ably終",
      "os s終",
      "ang e終",
      "pic ture終",
      "fir e終",
      "wo men終",
      "en ing終",
      "interest ing終",
      "drea m終",
      "en ti",
      "se cre",
      "ga me終",
      "ma g",
      "ex pla",
      "ru n終",
      "mil k終",
      "sin g",
      "hun g",
      "uni ver",
      "en s終",
      "ri ver終",
      "ten n",
      "who le終",
      "i m",
      "p op",
      "w ro",
      "der ed終",
      "ent ly終",
      "vis it終",
      "c ha",
      "to ry終",
      "re p",
      "su b",
      "australi a終",
      "su l",
      "ou d終",
      "ca ts終",
      "wro te終",
      "e u",
      "y cle終",
      "fu ll終",
      "par t終",
      "cla ss終",
      "compu ter終",
      "tenn is終",
      "a ted終",
      "me di",
      "whe ther終",
      "k ey終",
      "l er終",
      "ne ws終",
      "comp any終",
      "trans la",
      "ear ing終",
      "lear ning終",
      "d an終",
      "su mmer終",
      "mon th終",
      "dri ve終",
      "i st終",
      "ou r",
      "re la",
      "fav or",
      "0 0終",
      "te l終",
      "sle ep",
      "list en終",
      "chri st",
      "b lu",
      "vi ce終",
      "st ri",
      "hi gh終",
      "me an終",
      "stu dent終",
      "quest ions終",
      "g one終",
      "op in",
      "gar den終",
      "c ked終",
      "n ear終",
      "fu l",
      "hung ry終",
      "e g",
      "won der終",
      "m ous終",
      "tru st終",
      "fel t終",
      "s ha",
      "hear t終",
      "smo king終",
      "stre et終",
      "en ces終",
      "no on終",
      "c ted終",
      "par k終",
      "bro ke終",
      "p id終",
      "la ugh",
      "w ine終",
      "stu pid終",
      "may be終",
      "clo ck終",
      "h ands終",
      "ti c",
      "b and終",
      "i se終",
      "ca se終",
      "f low",
      "windo w終",
      "lun ch終",
      "i a終",
      "k er終",
      "bu sin",
      "rea son終",
      "r ing終",
      "w in終",
      "th ank終",
      "ex pen",
      "ce i",
      "i an終",
      "i es終",
      "go es終",
      "k ly終",
      "y er終",
      "ho tel終",
      "c li",
      "s now終",
      "kno wn終",
      "favor ite終",
      "c lu",
      "d ou",
      "w earing終",
      "w ard終",
      "ch es終",
      "af ter",
      "g y終",
      "ta to",
      "ear th終",
      "ar ti",
      "see m終",
      "lo ved終",
      "mis s終",
      "to k",
      "lo gi",
      "beg an終",
      "sen se終",
      "gh ts終",
      "nee ded終",
      "fore ig",
      "heal th終",
      "th an",
      "is m終",
      "si x終",
      "bea ch終",
      "d ro",
      "j ect終",
      "in st",
      "se con",
      "eu ro",
      "o thers終",
      "th ough終",
      "in ted終",
      "b ic",
      "s ses終",
      "sto od終",
      "n y終",
      "&apos ;終",
      "st ra",
      "do l",
      "sh ouldn終",
      "any body終",
      "ge st終",
      "r an終",
      "la ter終",
      "mp le終",
      "hos p",
      "flow ers終",
      "sto pped終",
      "ru ssi",
      "li e終",
      "spea king終",
      "cu t終",
      "f our終",
      "s ong終",
      "th er",
      "low ed終",
      "att en",
      "s mil",
      "r un",
      "w el",
      "co ver",
      "cl ose終",
      "some times終",
      "ma king終",
      "sp e",
      "wr iting終",
      "brea k",
      "stud ying終",
      "c tion終",
      "a tely終",
      "li c終",
      "bo x終",
      "pre f",
      "bab y終",
      "l ying終",
      "un k終",
      "hu s",
      "br ing終",
      "bla ck終",
      "a ir",
      "k it",
      "p ea",
      "ca ught終",
      "ex ac",
      "h and",
      "interest ed終",
      "b er終",
      "d ur",
      "ma s終",
      "reli gi",
      "busin ess終",
      "p oor終",
      "c ur",
      "ha sn終",
      "su n終",
      "ac k",
      "ol der終",
      "w ed終",
      "be h",
      "rea l終",
      "thin king終",
      "wat ching終",
      "i e",
      "er ous終",
      "app le終",
      "col le",
      "writ ten終",
      "nei gh",
      "ful ly終",
      "o ver",
      "th es終",
      "ho me",
      "thin ks終",
      "hal f終",
      "beh ind終",
      "fa mous終",
      "break fast終",
      "1 9",
      "i can終",
      "el e",
      "so ci",
      "sto re終",
      "ep h",
      "surpri sed終",
      "st e",
      "ma l終",
      "ex peri",
      "tion al終",
      "pres ent終",
      "gla d終",
      "bic ycle終",
      "m oun",
      "w er",
      "clo thes終",
      "dar k終",
      "hus band終",
      "ar t終",
      "li es終",
      "wor ked終",
      "sho es終",
      "quic kly終",
      "gre e",
      "dur ing終",
      "hosp ital終",
      "s s",
      "do gs終",
      "con cer",
      "t un",
      "re st終",
      "tr ou",
      "resp on",
      "s car",
      "blu e終",
      "th s終",
      "ch ance終",
      "pu b",
      "hu man終",
      "americ a終",
      "nec ess",
      "m p終",
      "il s終",
      "w ing終",
      "do m終",
      "sa ying終",
      "opin ion終",
      "after noon終",
      "al ity終",
      "ter ri",
      "cu l",
      "gir l",
      "proble ms終",
      "i ght終",
      "pop u",
      "a w",
      "e ven",
      "el ec",
      "e v",
      "amer ican終",
      "k ill終",
      "ta st",
      "per f",
      "comp la",
      "coun t終",
      "in di",
      "be er終",
      "ta king終",
      "cap ital終",
      "out side終",
      "u m終",
      "gir ls終",
      "chang ed終",
      "p ho",
      "f un",
      "in for",
      "fr on",
      "expen sive終",
      "k ept終",
      "de li",
      "d d",
      "ex a",
      "dis app",
      "ani m",
      "dic tion",
      "h our終",
      "v il",
      "y o終",
      "po int終",
      "dou b",
      "n er",
      "pa id終",
      "ck et終",
      "mm ing終",
      "help ed終",
      "even ing終",
      "p or",
      "sp a",
      "for got終",
      "vi e",
      "anim als終",
      "o c",
      "li br",
      "mo ment終",
      "mista kes終",
      "e ts終",
      "f ru",
      "ge ts終",
      "dang erous終",
      "an g終",
      "fi ed終",
      "tok yo終",
      "girl friend終",
      "w ear終",
      "re cei",
      "gh t",
      "ag ree終",
      "v al",
      "en e",
      "g oo",
      "di st",
      "ir s終",
      "sh ort終",
      "buil ding終",
      "cover ed終",
      "b a終",
      "f al",
      "il ed終",
      "ra ther終",
      "plan e終",
      "le ep終",
      "as leep終",
      "sk y終",
      "ous ly終",
      "exac tly終",
      "h at終",
      "secon d終",
      "te mp",
      "c ks終",
      "re l",
      "tea m終",
      "fron t終",
      "li ty終",
      "ne w",
      "ta l終",
      "ad m",
      "b read終",
      "e l終",
      "p ur",
      "s we",
      "w il",
      "ad vice終",
      "cra zy終",
      "an ts終",
      "tu res終",
      "hor se終",
      "s ound終",
      "u mb",
      "wor th終",
      "mon day終",
      "gu e終",
      "g ed終",
      "p aper終",
      "fu ture終",
      "chin ese終",
      "c lea",
      "no ti",
      "care ful終",
      "libr ary終",
      "un ited終",
      "re sta",
      "ri es終",
      "cle an終",
      "or s終",
      "lear ned終",
      "bir th",
      "diction ary終",
      "re fu",
      "clea r終",
      "resta ur",
      "d an",
      "str ong終",
      "secre t終",
      "m ou",
      "sp end終",
      "tt ers終",
      "ga r終",
      "trou ble終",
      "3 0終",
      "s at終",
      "s it終",
      "so lu",
      "sta tes終",
      "str ange終",
      "d ers終",
      "l en終",
      "pref er終",
      "umb rel",
      "birth day終",
      "&apos; clock終",
      "sit u",
      "t ment終",
      "lea st終",
      "lar s終",
      "swi mming終",
      "c ent終",
      "f la",
      "l ose終",
      "me dic",
      "pa st終",
      "dr unk終",
      "wal ked終",
      "thir ty終",
      "m r終",
      "s ea",
      "to rs終",
      "pro f",
      "than ks終",
      "re ct終",
      "pa ti",
      "trans late終",
      "c ts終",
      "li ked終",
      "se ver",
      "oun ds終",
      "stan ding終",
      "f ine終",
      "p on",
      "an o終",
      "pre si",
      "tra vel",
      "gla ss終",
      "home work終",
      "2 0",
      "v in",
      "op ened終",
      "s li",
      "ar m終",
      "lu ck",
      "drin king終",
      "e ba終",
      "h it終",
      "pro mis",
      "sel ves終",
      "cl osed終",
      "h is",
      "t all終",
      "ca ke終",
      "su ff",
      "de cis",
      "win ter終",
      "u t終",
      "re sul",
      "gu y終",
      "tato eba終",
      "b ill終",
      "wh ose終",
      "na tive終",
      "ger many終",
      "sent ences終",
      "enjo y終",
      "christ mas終",
      "a ir終",
      "f ly終",
      "f lu",
      "k a",
      "sp ent終",
      "tri p終",
      "your s終",
      "r t終",
      "y es終",
      "ma tion終",
      "su d",
      "ac t終",
      "tal ked終",
      "fin ish終",
      "pr oud終",
      "necess ary終",
      "m ents終",
      "ca ted終",
      "ac tu",
      "pla yed終",
      "g rea",
      "i mag",
      "tt er",
      "pr in",
      "expla in終",
      "medic ine終",
      "f all終",
      "wa ke終",
      "ti cal終",
      "br ought終",
      "sit ting終",
      "succ ess終",
      "umbrel la終",
      "c up終",
      "d es終",
      "l ine終",
      "re ali",
      "st er",
      "st ru",
      "ti s",
      "sp an",
      "bo ys終",
      "gu ess終",
      "fr ance終",
      "spe ci",
      "c ost終",
      "f lo",
      "s k終",
      "re ma",
      "dis cu",
      "tel e",
      "tic s終",
      "la w終",
      "ag re",
      "mo ve終",
      "gre en終",
      "pp ing終",
      "cer tain終",
      "m ur",
      "atten tion終",
      "sa d終",
      "sp ee",
      "foreig n終",
      "gen er",
      "comple tely終",
      "e du",
      "m ing終",
      "s no",
      "in e",
      "me at終",
      "brea k終",
      "dol lars終",
      "ea l終",
      "me ans終",
      "imp re",
      "span ish終",
      "d ance終",
      "o logi",
      "v y終",
      "al ong終",
      "ra di",
      "ca mer",
      "ca tch終",
      "dri ver終",
      "sun day終",
      "ei ther終",
      "restaur ant終",
      "actu ally終",
      "si st",
      "cont in",
      "k ers終",
      "s end終",
      "sta yed終",
      "k in",
      "li ed終",
      "te en終",
      "vis ion終",
      "f er",
      "hur ry終",
      "sleep ing終",
      "c ry終",
      "w ha",
      "bo y",
      "cor rect終",
      "v ir",
      "wa sh終",
      "se ven終",
      "qu ir",
      "mo on終",
      "des er",
      "new sp",
      "b ank終",
      "ne ar",
      "ac r",
      "ki ds終",
      "situ ation終",
      "presi dent終",
      "t -",
      "st ic終",
      "tt en終",
      "ta x",
      "cou ra",
      "vil la",
      "f loo",
      "s ity終",
      "ch ur",
      "mi se終",
      "tel ling終",
      "sever al終",
      "acr oss終",
      "a di",
      "b as",
      "for tun",
      "ba g終",
      "tri es終",
      "k et終",
      "se a終",
      "wor ried終",
      "tra vel終",
      "spo ke終",
      "t rea",
      "z z",
      "ea ten終",
      "sh all終",
      "fin ally終",
      "dri ving終",
      "ser ious終",
      "smo ke終",
      "d a終",
      "li g",
      "ti es終",
      "fri en",
      "mon ths終",
      "pi ano終",
      "sig n終",
      "pub lic終",
      "s mar",
      "pro du",
      "cr ying終",
      "luck y終",
      "m a終",
      "m el",
      "in tel",
      "la u",
      "ma d終",
      "da te終",
      "imp os",
      "kis s終",
      "camer a終",
      "vis ited終",
      "iti es終",
      "bir d終",
      "infor mation終",
      "v an",
      "gi ven終",
      "youn ger終",
      "differ ence終",
      "p un",
      "t ex",
      "on es終",
      "li on終",
      "sh ar",
      "sh es終",
      "pas s終",
      "pra c",
      "b an",
      "di sh終",
      "ch en終",
      "go ver",
      "sci ence終",
      "f ur",
      "th ous",
      "un cle終",
      "pa in",
      "pea ce終",
      "impos sible終",
      "s ons終",
      "an e終",
      "es cap",
      "su sp",
      "sh ut終",
      "ta kes終",
      "for m終",
      "tea ch終",
      "chur ch終",
      "p le終",
      "te ver終",
      "dea l終",
      "man ag",
      "tou ch終",
      "wha tever終",
      "j ec",
      "m os",
      "u e終",
      "re co",
      "il y終",
      "ho p",
      "lo gy終",
      "mar ry終",
      "gr ou",
      "e vi",
      "y el",
      "su gar終",
      "fi f",
      "wee k",
      "bir ds終",
      "tre es終",
      "run ning終",
      "b ru",
      "s sa",
      "sol ve終",
      "j a",
      "k a終",
      "in side終",
      "it u",
      "lea ving終",
      "b al",
      "wal king終",
      "coo k終",
      "cont ro",
      "fol low終",
      "chin a終",
      "kit chen終",
      "terri ble終",
      "decis ion終",
      "t wi",
      "in ten",
      "ar re",
      "en ded終",
      "shi rt終",
      "al e終",
      "co at終",
      "con vin",
      "po e",
      "ali ve終",
      "str on",
      "tel eph",
      "cou r",
      "beg in",
      "pas sed終",
      "fru it終",
      "boy friend終",
      "floo r終",
      "teleph one終",
      "c ru",
      "p ort終",
      "re turn終",
      "ab o",
      "fa ct終",
      "qu it終",
      "est i",
      "w all終",
      "li st終",
      "sa fe終",
      "her self終",
      "feel ing終",
      "religi on終",
      "mo ved終",
      "dr ed終",
      "see med終",
      "gla sses終",
      "grand father終",
      "expe ct終",
      "e ce終",
      "m er終",
      "en ty終",
      "wa ited終",
      "ho ld終",
      "bos s終",
      "hun dred終",
      "vo ice終",
      "list ening終",
      "w ind終",
      "an ing終",
      "di es終",
      "go tten終",
      "pro mise終",
      "bro ken終",
      "can adi",
      "see ing終",
      "im medi",
      "tele vision終",
      "c ing終",
      "s ell終",
      "re w終",
      "ro r終",
      "su gg",
      "bl ood終",
      "scar ed終",
      "sugg est",
      "supp osed終",
      "qui et終",
      "v ic",
      "it ted終",
      "acc ept終",
      "univer sity終",
      "f f終",
      "t ar",
      "to n",
      "se ar",
      "ta ken終",
      "pro te",
      "kis sed終",
      "wer en終",
      "spee ch終",
      "n ers終",
      "en ter",
      "li k",
      "la w",
      "ra ining終",
      "some body終",
      "pa in終",
      "gr ap",
      "e -",
      "o w",
      "th o",
      "ti ci",
      "sa tis",
      "ad dress終",
      "ei ght終",
      "popu lar終",
      "promis ed終",
      "b it",
      "al lowed終",
      "no ise終",
      "ch ess終",
      "ab road終",
      "da d終",
      "hu m",
      "des k終",
      "perf ect終",
      "d ding終",
      "k ni",
      "ea ts終",
      "ch ee",
      "tra ff",
      "wor ry終",
      "par is終",
      "cu sto",
      "ig nor",
      "sy ste",
      "euro pe終",
      "his tory終",
      "d -",
      "no r終",
      "ma te終",
      "coun tries終",
      "coo ki",
      "har dly終",
      "traff ic終",
      "to p終",
      "ma ch",
      "sp ring終",
      "fa ir終",
      "lea ves終",
      "ex cu",
      "oun ded終",
      "pri ce終",
      "villa ge終",
      "intel lig",
      "f l",
      "on ed終",
      "wa st",
      "ta in",
      "tur al終",
      "sle pt終",
      "dd le終",
      "e t",
      "me ssa",
      "ad d終",
      "kno w",
      "cl os",
      "arri ve終",
      "in g",
      "ne t終",
      "wi se終",
      "fi g",
      "sho wed終",
      "spo ken終",
      "russi an終",
      "lik ely終",
      "h y",
      "ap ar",
      "so cc",
      "sur vi",
      "socc er終",
      "k o",
      "z ing終",
      "re gre",
      "or g",
      "ma il終",
      "ru les終",
      "cu te終",
      "under stood終",
      "sho t終",
      "c el",
      "ab i",
      "app ro",
      "pla ys終",
      "pre par",
      "sil y終",
      "disapp o",
      "doub t終",
      "gover n",
      "g n",
      "m b終",
      "buil t終",
      "movi es終",
      "sing ing終",
      "radi o終",
      "week end終",
      "i m終",
      "r k終",
      "ea sily終",
      "de sp",
      "na tional終",
      "bi g",
      "sho pping終",
      "pi ece終",
      "lon don終",
      "den ly終",
      "sou p終",
      "che ck終",
      "hon est終",
      "sud denly終",
      "or ig",
      "won der",
      "inv ited終",
      "experi ence終",
      "know le",
      "a vo",
      "n on",
      "t ball終",
      "sa ve終",
      "me mb",
      "eg gs終",
      "ci ous終",
      "au th",
      "newsp aper終",
      "twi ce終",
      "f ear終",
      "v ol",
      "in ess終",
      "ta ins終",
      "qu a",
      "ex ist終",
      "ba se",
      "ey e終",
      "crea m終",
      "heal thy終",
      "neigh b",
      "vie w終",
      "mach ine終",
      "h an",
      "happ ens終",
      "per son",
      "we ight終",
      "nei ther終",
      "fre e",
      "ner v",
      "in no",
      "it ali",
      "la ke終",
      "ur ed終",
      "hi gh",
      "ans w",
      "help ing終",
      "h ood終",
      "to r",
      "st ro",
      "po wer終",
      "yo rk終",
      "or ts終",
      "st ic",
      "gu it",
      "ish ing終",
      "immedi ately終",
      "syste m終",
      "apar tment終",
      "d on",
      "no vel終",
      "sho p終",
      "col or終",
      "bri dge終",
      "govern ment終",
      "f le",
      "de f",
      "pl ans終",
      "pri son終",
      "ani mal終",
      "dang er終",
      "e ff",
      "app les終",
      "mis sed終",
      "hea vy終",
      "ve ge",
      "kni fe終",
      "c king終",
      "d ence終",
      "v ely終",
      "sp ort終",
      "pic tures終",
      "p en終",
      "rep ort終",
      "recei ved終",
      "grou p終",
      "cour se終",
      "k o終",
      "n ine終",
      "p ose終",
      "ri de終",
      "le tters終",
      "lo cked終",
      "si mple終",
      "su it",
      "con ver",
      "pla yer終",
      "car s終",
      "va cation終",
      "bra z",
      "emp ty終",
      "air port終",
      "moun tain終",
      "nerv ous終",
      "c er終",
      "an ti",
      "mo m終",
      "wo ke終",
      "consi der終",
      "oc to",
      "law yer終",
      "l ent終",
      "si ght終",
      "for ward終",
      "gu n終",
      "fi ght終",
      "a ting終",
      "c hair終",
      "e mb",
      "s low",
      "y le終",
      "al l",
      "ir e終",
      "ke ys終",
      "knowle dge終",
      "a ture終",
      "g ni",
      "j ack",
      "t ab",
      "ap ologi",
      "sh ing終",
      "bo ttle終",
      "cou ple終",
      "a ma",
      "d ru",
      "me mor",
      "ac cor",
      "de ta",
      "ex tre",
      "am ong終",
      "prac ti",
      "c ool終",
      "f ar",
      "an n",
      "st ands終",
      "wor se終",
      "mu se",
      "dr ank終",
      "drin ks終",
      "minu te終",
      "lau gh終",
      "b y",
      "f -",
      "f at終",
      "u sing終",
      "so f",
      "fa ult終",
      "stu died終",
      "war m終",
      "ob vi",
      "guit ar終",
      "pro pos",
      "sto r",
      "off er終",
      "je al",
      "exc ept終",
      "pho to",
      "messa ge終",
      "n one終",
      "er ing終",
      "ch ec",
      "do w",
      "bu t",
      "ear ed終",
      "tal ler終",
      "ad vis",
      "wee ks終",
      "univer se終",
      "swe et終",
      "agre ed終",
      "canadi an終",
      "excu se終",
      "st y終",
      "so ld終",
      "ta ught終",
      "ex am終",
      "con d",
      "mou th終",
      "thous and終",
      "octo ber終",
      "m n終",
      "s ounds終",
      "ma the",
      "un ity終",
      "fu ck終",
      "wat ched終",
      "reco gni",
      "slow ly終",
      "mathe ma",
      "b ear終",
      "i d",
      "l an",
      "an ci",
      "li ter",
      "ho li",
      "na med終",
      "jo ke終",
      "ent u",
      "cer tain",
      "b s終",
      "i dea",
      "o h終",
      "li ar終",
      "is land終",
      "sta irs終",
      "na tural終",
      "com for",
      "iti ve終",
      "cho ose終",
      "fil m終",
      "gree k終",
      "pati ent終",
      "idea s終",
      "the m",
      "is ed終",
      "sto le終",
      "happ iness終",
      "bro thers終",
      "pi zz",
      "comm on終",
      "resp ect終",
      "laugh ed終",
      "ene my終",
      "c tive終",
      "c row",
      "g ly終",
      "al ger",
      "be t終",
      "be ha",
      "sto len終",
      "mi ddle終",
      "plan ning終",
      "cla ss",
      "sing le終",
      "concer t終",
      "spa ce終",
      "begin ning終",
      "them selves終",
      "e f",
      "ap s終",
      "se at終",
      "fa iled終",
      "sta te終",
      "gu il",
      "comp li",
      "imp ro",
      "ce ed終",
      "cho ice終",
      "re ci",
      "mar ket終",
      "beg in終",
      "acc ep",
      "sci enti",
      "sol di",
      "fun ny終",
      "certain ly終",
      "c ir",
      "y en終",
      "sp i",
      "hel d終",
      "inter net終",
      "pic k終",
      "fore st終",
      "expe cted終",
      "coura ge終",
      "g ent",
      "o t終",
      "s in終",
      "it al",
      "di r",
      "ch ea",
      "bo ard終",
      "pro ject終",
      "dre ssed終",
      "eng land終",
      "sm ell終",
      "wel come終",
      "arre sted終",
      "b le",
      "t a終",
      "happ ening終",
      "ren t終",
      "gre w終",
      "mis sing終",
      "writ er終",
      "neigh bor",
      "contro l終",
      "base ball終",
      "c lear",
      "go l",
      "su c",
      "poli ce",
      "drea ms終",
      "usu al終",
      "smil e終",
      "jeal ous終",
      "dir ty終",
      "a fri",
      "a tions終",
      "e qu",
      "be at終",
      "bu l",
      "for d終",
      "as king終",
      "min i",
      "vel op",
      "0 00終",
      "1 0終",
      "w oo",
      "in de",
      "le g",
      "ta tion終",
      "pre ten",
      "low ing終",
      "laugh ing終",
      "tax i終",
      "accor ding終",
      "s and",
      "t ee",
      "li er終",
      "ti e終",
      "la dy終",
      "si bi",
      "mo der",
      "ru le終",
      "fi x終",
      "pu l",
      "ie f終",
      "satis fied終",
      "wonder ful終",
      "dow n",
      "l o終",
      "t in終",
      "t ears終",
      "re pa",
      "ha tes終",
      "un t終",
      "de ep終",
      "gi c終",
      "some where終",
      "fi el",
      "star s終",
      "mis sion終",
      "au di",
      "bla me終",
      "grand mother終",
      "yel low終",
      "abo ve終",
      "b by終",
      "m ely終",
      "ab solu",
      "con tra",
      "br it",
      "cho co",
      "den ti",
      "clu b終",
      "aw are終",
      "suc ceed終",
      "a t",
      "c ting終",
      "g row",
      "z en終",
      "vi ol",
      "ck ets終",
      "advis ed終",
      "f ic",
      "on er終",
      "ec ted終",
      "car ry終",
      "gr ound終",
      "comm uni",
      "russi a終",
      "u se",
      "v ar",
      "re ly終",
      "ang er終",
      "who m終",
      "up on終",
      "pizz a終",
      "p ost終",
      "x ed終",
      "di rec",
      "fa c",
      "mi c終",
      "lu ck終",
      "du e終",
      "deci de終",
      "colle ge終",
      "orig in",
      "in j",
      "re turned終",
      "la tion終",
      "sin ger終",
      "any where終",
      "cri me終",
      "foo t終",
      "sist ers終",
      "g es終",
      "k yo",
      "ea se終",
      "ear lier終",
      "we dding終",
      "int ro",
      "wast e終",
      "regre t終",
      "tee th終",
      "a d終",
      "l os",
      "ar gu",
      "be d",
      "pro gra",
      "belie ved終",
      "surpri se終",
      "deli cious終",
      "refu sed終",
      "extre mely終",
      "c ried終",
      "p an",
      "r ap",
      "or y終",
      "ch i",
      "bo at終",
      "ex i",
      "we al",
      "plan et終",
      "feel ings終",
      "goo d",
      "smar t終",
      "inno cent終",
      "choco late終",
      "b il",
      "e con",
      "j ane終",
      "p al",
      "y si",
      "fa il",
      "su per",
      "gi ft終",
      "min ation終",
      "sub ject終",
      "kyo to終",
      "econ o",
      "p il",
      "ea d終",
      "la zy終",
      "go ld終",
      "speci al終",
      "enter ed終",
      "fig ure終",
      "stor m終",
      "intro du",
      "c a終",
      "m ic",
      "s na",
      "est s終",
      "sta ying終",
      "jo in終",
      "ad van",
      "je ws終",
      "expla ined終",
      "c os",
      "g ro",
      "g row終",
      "k id終",
      "r ose終",
      "s qu",
      "y -",
      "il l",
      "pre ss終",
      "tw enty終",
      "fore ver終",
      "ici al終",
      "resul t終",
      "flo wer終",
      "c he終",
      "i di",
      "t in",
      "u ses終",
      "ro b",
      "si mil",
      "sh oo",
      "as su",
      "sta r終",
      "ga z",
      "by e終",
      "r os",
      "os a",
      "al low終",
      "st ing終",
      "li ghts終",
      "ti cket終",
      "me aning終",
      "rea ch終",
      "de p",
      "de fin",
      "con fu",
      "har der終",
      "ton gue終",
      "itali an終",
      "a unt終",
      "s low終",
      "s sion終",
      "w ood終",
      "le g終",
      "mar i",
      "de st終",
      "bo b終",
      "bi ke終",
      "pas s",
      "war ds終",
      "transla ted終",
      "noti ced終",
      "imag ine終",
      "abi lity終",
      "use ful終",
      "b ly終",
      "l end終",
      "s la",
      "me ters終",
      "ci l終",
      "ju dge終",
      "bor row終",
      "att end終",
      "windo ws終",
      "a ch",
      "g as終",
      "ca te終",
      "sp ir",
      "sho wer終",
      "des cri",
      "exc el",
      "frien dly終",
      "org ani",
      "disappo inted終",
      "n a終",
      "p sy",
      "th ea",
      "to o",
      "ma j",
      "lo ts終",
      "wor e終",
      "sto ne終",
      "na ture終",
      "we ir",
      "belie ves終",
      "pos t",
      "beau ty終",
      "ani a終",
      "enjo yed終",
      "pain ting終",
      "braz il終",
      "ef for",
      "police man終",
      "ha un",
      "ti ll終",
      "di shes終",
      "ab sent終",
      "se x終",
      "for give終",
      "ju mp",
      "tru ck終",
      "ph ysi",
      "ven ted終",
      "fol lowed終",
      "americ ans終",
      "wil ling終",
      "f ishing終",
      "en er",
      "st in",
      "ri age終",
      "ver s終",
      "si ze終",
      "pre gn",
      "fi gh",
      "diffic ul",
      "lin da終",
      "euro pe",
      "elec tri",
      "muse um終",
      "mathema tics終",
      "ital y終",
      "w ears終",
      "ro me終",
      "ri ce終",
      "ra in",
      "ac count終",
      "op er",
      "op pos",
      "af ford終",
      "pri v",
      "cl es終",
      "coo king終",
      "sibi lity終",
      "o be",
      "w is",
      "ga y終",
      "ba th",
      "fe et終",
      "hu ge終",
      "pr on",
      "supp ort終",
      "feel s終",
      "foo tball終",
      "beha vi",
      "o ce",
      "s c",
      "t ary終",
      "ha dn終",
      "co p",
      "ma p終",
      "si mp",
      "fa ster終",
      "ac ked終",
      "tal ks終",
      "gra du",
      "buil d終",
      "supp ose終",
      "nor th終",
      "sil ent終",
      "consi dered終",
      "memb ers終",
      "alger ia終",
      "guil ty終",
      "sand wi",
      "inj ured終",
      "b rain終",
      "i ously終",
      "en ter終",
      "la y終",
      "sa tur",
      "sh oul",
      "ex pres",
      "hel lo終",
      "plea sure終",
      "bro wn終",
      "bor ing終",
      "inst ead終",
      "f ool終",
      "or ity終",
      "st ep",
      "ch ic",
      "ac cu",
      "con f",
      "gre ss終",
      "fir ed終",
      "pur pose終",
      "sear ch終",
      "propos al終",
      "absolu tely終",
      "v al終",
      "it self終",
      "me ant終",
      "bu ying終",
      "wor kers終",
      "su e終",
      "te e終",
      "transla tion終",
      "noti ce終",
      "fortun ately終",
      "prote ct終",
      "excel lent終",
      "h aps終",
      "p er終",
      "z o",
      "di v",
      "si on",
      "fri day終",
      "per haps終",
      "gu i",
      "spea ker終",
      "roo ms終",
      "we ap",
      "cl ou",
      "with in終",
      "att ra",
      "sou th終",
      "rec ently終",
      "bel on",
      "ev entu",
      "chee se終",
      "weir d終",
      "d ying終",
      "f it終",
      "p ing終",
      "pro vi",
      "na mes終",
      "teach ing終",
      "cr os",
      "bl ind終",
      "succ ess",
      "char ac",
      "tex t終",
      "suggest ed終",
      "practi ce終",
      "simil ar終",
      "eventu ally終",
      "a th",
      "a do",
      "e tt",
      "o cc",
      "en ced終",
      "li m",
      "it h終",
      "il lu",
      "ri ous終",
      "ma gaz",
      "go al終",
      "sk i",
      "care fully終",
      "soci e",
      "por tu",
      "evi l終",
      "big ger終",
      "chea p終",
      "audi ence終",
      "e ment終",
      "h ell終",
      "in es終",
      "in crea",
      "or dered終",
      "le gs終",
      "lo y",
      "po is",
      "comp ar",
      "car ried終",
      "bor ed終",
      "am oun",
      "prepar ed終",
      "h ill終",
      "t ro",
      "re cor",
      "di sa",
      "ho l",
      "do cu",
      "lo ck終",
      "se x",
      "sh el",
      "sh are終",
      "de stro",
      "gi ving終",
      "par ti",
      "po l",
      "pa inted終",
      "plea sed終",
      "ad a終",
      "inter national終",
      "wal let終",
      "cal m終",
      "kee ps終",
      "gen der終",
      "tast es終",
      "impre ssed終",
      "contin u",
      "pregn ant終",
      "b en",
      "g ers終",
      "m ea",
      "n ur",
      "s cen",
      "w et終",
      "th ief終",
      "ar my終",
      "ea si",
      "sa tion終",
      "so oner終",
      "sp orts終",
      "de velop",
      "ex er",
      "gi ves終",
      "mi d",
      "fi c終",
      "car d終",
      "ty pe終",
      "moder n終",
      "d ry終",
      "re comm",
      "co ver終",
      "mar riage終",
      "tur y終",
      "can ada終",
      "pen cil終",
      "cen tury終",
      "sou r",
      "respon sible終",
      "temp er",
      "hum ans終",
      "intellig ent終",
      "neighb or終",
      "c iti",
      "c ele",
      "f y終",
      "f an",
      "ar ab",
      "li cen",
      "ra ins終",
      "qu e終",
      "de cl",
      "app reci",
      "con sci",
      "sel f-",
      "ali ce終",
      "writ es終",
      "char ge終",
      "arti cle終",
      "soci al終",
      "solu tion終",
      "edu cation終",
      "cooki es終",
      "avo id終",
      "socie ty終",
      "e a終",
      "p ort",
      "th ou",
      "ma in終",
      "hi de終",
      "vi de",
      "ec es終",
      "ba th終",
      "inter est終",
      "vis i",
      "hea da",
      "sm el",
      "gar ian終",
      "fr an",
      "ob jec",
      "sal t終",
      "ty -",
      "smil ed終",
      "reali zed終",
      "tab les終",
      "holi day終",
      "comfor table終",
      "soldi ers終",
      ", 000終",
      "m ale終",
      "o il終",
      "t an",
      "sa ved終",
      "sh y終",
      "ear th",
      "ter i",
      "grea test終",
      "discu ss終",
      "convin ced終",
      "fiel d終",
      "haun ted終",
      "k ab",
      "p age終",
      "z ation終",
      "in clu",
      "su it終",
      "app o",
      "ec ts終",
      "ser iously終",
      "mur der終",
      "afri ca終",
      "j un",
      "j our",
      "s is終",
      "s ite終",
      "ap ers終",
      "er y終",
      "ha u",
      "for gotten終",
      "pro per",
      "ph il",
      "cr oss終",
      "cri min",
      "sou l終",
      "sig ned終",
      "int ment終",
      "cli mb",
      "resul ts終",
      "fail ure終",
      "f ile終",
      "ar ms終",
      "al co",
      "el eph",
      "sh or",
      "sh it終",
      "ge or",
      "dis covered終",
      "pi eces終",
      "teach ers終",
      "list ened終",
      "hor ses終",
      "dan cing終",
      "near ly終",
      "behavi or終",
      "heada che終",
      "a va",
      "a head終",
      "d el",
      "n ar",
      "n it",
      "x i",
      "th row終",
      "th rew終",
      "ou rs終",
      "en ted終",
      "or ange終",
      "it ation終",
      "ma tch終",
      "op port",
      "ex hau",
      "fi re",
      "kil o",
      "ber ber終",
      "apologi ze終",
      "good bye終",
      "easi er終",
      "c s終",
      "m ers終",
      "r ying終",
      "st ep終",
      "wa shing終",
      "it ely終",
      "ro of終",
      "la tin終",
      "ex plan",
      "inv ol",
      "thir sty終",
      "consi der",
      "arti st終",
      "tast e終",
      "escap e終",
      "anci ent終",
      "m ma",
      "s ant終",
      "ar ea終",
      "re gu",
      "il ing終",
      "co t",
      "lo ws終",
      "si x",
      "si ons終",
      "su a",
      "sel dom終",
      "comp et",
      "can cer終",
      "pos ition終",
      "poli tical終",
      "att emp",
      "cou sin終",
      "ob ser",
      "gg ed終",
      "fre sh終",
      "ici de終",
      "up set終",
      "fil led終",
      "dro p終",
      "europe an終",
      "oce an終",
      "licen se終",
      "c ro",
      "h ey終",
      "o we終",
      "ma ge終",
      "hi ding終",
      "de mo",
      "per sua",
      "mil lion終",
      "min ed終",
      "sk in終",
      "thir d終",
      "compla ining終",
      "dist ance終",
      "20 1",
      "conver sation終",
      "accep ted終",
      "gent le",
      "ill ness終",
      "ener gy終",
      "b ack",
      "f lying終",
      "l ap",
      "r ab",
      "u gly終",
      "st i",
      "di sp",
      "ri sk終",
      "le s",
      "ca used終",
      "wor st終",
      "fa il終",
      "qu een終",
      "sto ma",
      "mi ke終",
      "we st終",
      "he b",
      "sil ence終",
      "dro pped終",
      "escap ed終",
      "manag er終",
      "origin al終",
      "idi ot終",
      "div or",
      "a ff",
      "l ou",
      "w ol",
      "wa ter",
      "app ed終",
      "gu ese終",
      "ga mes終",
      "au tu",
      "cor ner終",
      "vo lu",
      "my ster",
      "comple te終",
      "moun tains終",
      "exa mination終",
      "frien d",
      "satur day終",
      "success ful終",
      "portu guese終",
      "m al",
      "n ose終",
      "t end終",
      "al though終",
      "ha med終",
      "ho bby終",
      "ch an",
      "ma ster終",
      "un ion終",
      "un less終",
      "ex p",
      "for ced終",
      "ee ded終",
      "ju d",
      "ga te終",
      "gra ss終",
      "lar gest終",
      "plan ts終",
      "wea k終",
      "nor mal終",
      "fol lowing終",
      "perf ec",
      "but ton終",
      "preten ded終",
      "temper ature終",
      "heb rew終",
      "1 8",
      "c y",
      "f light終",
      "j im終",
      "s sing終",
      "en ding終",
      "it er終",
      "the ory終",
      "as hamed終",
      "stu ff終",
      "tru mp終",
      "fe ed終",
      "ali st終",
      "att ack終",
      "crea ted終",
      "je wish終",
      "cen ter終",
      "son gs終",
      "exa mple終",
      "class room終",
      "alco ho",
      "autu mn終",
      "2 0終",
      "a mb",
      "m ir",
      "m ani",
      "p ool終",
      "in ci",
      "in du",
      "ar ch",
      "re gi",
      "wh en",
      "co a",
      "co w終",
      "un fortunately終",
      "ca st",
      "su icide終",
      "te en",
      "hou ses終",
      "du ty終"
    ]
  }
}