{
  "version": "1.0",
  "truncation": null,
  "padding": null,
  "added_tokens": [
    {
      "id": 0,
      "content": "<unk>",
      "single_word": false,
      "lstrip": false,
      "rstrip": false,
      "normalized": false,
      "special": true
    },
    {
      "id": 1,
      "content": "<s>",
      "single_word": false,
      "lstrip": false,
      "rstrip": false,
      "normalized": false,
      "special": true
    },
    {
      "id": 2,
      "content": "</s>",
      "single_word": false,
      "lstrip": false,
      "rstrip": false,
      "normalized": false,
      "special": true
    }
  ],
  "normalizer": null,
  "pre_tokenizer": {
    "type": "WhitespaceSplit"
  },
  "post_processor": null,
  "decoder": {
    "type": "BPEDecoder",
    "suffix": "終"
  },
  "model": {
    "type": "BPE",
    "dropout": null,
    "unk_token": "<unk>",
    "continuing_subword_prefix": "",
    "end_of_word_suffix": "終",
    "fuse_unk": false,
    "byte_fallback": false,
    "vocab": {
      "<unk>": 0,
      "<s>": 1,
      "</s>": 2,
      "!": 3,
      "#": 4,
      "$": 5,
      "%": 6,
      "&": 7,
      "(": 8,
      ")": 9,
      "+": 10,
      ",": 11,
      "-": 12,
      ".": 13,
      "/": 14,
      "0": 15,
      "1": 16,
      "2": 17,
      "3": 18,
      "4": 19,
      "5": 20,
      "6": 21,
      "7": 22,
      "8": 23,
      "9": 24,
      ":": 25,
      ";": 26,
      "=": 27,
      "?": 28,
      "@": 29,
      "_": 30,
      "a": 31,
      "b": 32,
      "c": 33,
      "d": 34,
      "e": 35,
      "f": 36,
      "g": 37,
      "h": 38,
      "i": 39,
      "j": 40,
      "k": 41,
      "l": 42,
      "m": 43,
      "n": 44,
      "o": 45,
      "p": 46,
      "q": 47,
      "r": 48,
      "s": 49,
      "t": 50,
      "u": 51,
      "v": 52,
      "w": 53,
      "x": 54,
      "y": 55,
      "z": 56,
      "°": 57,
      "²": 58,
      "ß": 59,
      "á": 60,
      "â": 61,
      "ã": 62,
      "ä": 63,
      "ç": 64,
      "è": 65,
      "é": 66,
      "ê": 67,
      "ë": 68,
      "í": 69,
      "î": 70,
      "ï": 71,
      "ñ": 72,
      "ó": 73,
      "ô": 74,
      "ö": 75,
      "ø": 76,
      "ú": 77,
      "û": 78,
      "ü": 79,
      "ý": 80,
      "ā": 81,
      "č": 82,
      "ď": 83,
      "ē": 84,
      "ğ": 85,
      "ī": 86,
      "ĺ": 87,
      "ľ": 88,
      "ł": 89,
      "ņ": 90,
      "ň": 91,
      "ō": 92,
      "ŕ": 93,
      "š": 94,
      "ť": 95,
      "ũ": 96,
      "ū": 97,
      "ź": 98,
      "ž": 99,
      "ǔ": 100,
      "ș": 101,
      "κ": 102,
      "ο": 103,
      "π": 104,
      "ς": 105,
      "ό": 106,
      "б": 107,
      "и": 108,
      "о": 109,
      "р": 110,
      "с": 111,
      "щ": 112,
      "ַ": 113,
      "א": 114,
      "ה": 115,
      "ח": 116,
      "ל": 117,
      "מ": 118,
      "ע": 119,
      "פ": 120,
      "ש": 121,
      "؟": 122,
      "ᾰ": 123,
      "₂": 124,
      "€": 125,
      "√": 126,
      "の": 127,
      "ザ": 128,
      "ド": 129,
      "ム": 130,
      "亡": 131,
      "念": 132,
      "𝑘": 133,
      "a終": 134,
      "n終": 135,
      "s終": 136,
      "o終": 137,
      "u終": 138,
      "j終": 139,
      "i終": 140,
      "e終": 141,
      "4終": 142,
      "r終": 143,
      "3終": 144,
      "m終": 145,
      "9終": 146,
      "k終": 147,
      "2終": 148,
      "g終": 149,
      "t終": 150,
      "d終": 151,
      "-終": 152,
      "x終": 153,
      ";終": 154,
      "l終": 155,
      "₂終": 156,
      "5終": 157,
      "y終": 158,
      "ǔ終": 159,
      "v終": 160,
      "b終": 161,
      "h終": 162,
      "0終": 163,
      "ל終": 164,
      "ź終": 165,
      "ō終": 166,
      "1終": 167,
      "7終": 168,
      "6終": 169,
      "²終": 170,
      "ó終": 171,
      "z終": 172,
      "/終": 173,
      "c終": 174,
      "w終": 175,
      "ß終": 176,
      "8終": 177,
      "í終": 178,
      "ý終": 179,
      "p終": 180,
      "ド終": 181,
      "?終": 182,
      "€終": 183,
      "f終": 184,
      "é終": 185,
      "!終": 186,
      "ø終": 187,
      "ä終": 188,
      "𝑘終": 189,
      "ô終": 190,
      "(終": 191,
      "ď終": 192,
      "щ終": 193,
      "π終": 194,
      "+終": 195,
      ".終": 196,
      "ê終": 197,
      "°終": 198,
      "û終": 199,
      "ĺ終": 200,
      ",終": 201,
      "ť終": 202,
      "ā終": 203,
      "_終": 204,
      "ς終": 205,
      "ŕ終": 206,
      "ö終": 207,
      "č終": 208,
      "š終": 209,
      "√終": 210,
      "á終": 211,
      "ë終": 212,
      "#終": 213,
      "ň終": 214,
      "ž終": 215,
      "$終": 216,
      "ũ終": 217,
      "@終": 218,
      "ú終": 219,
      "؟終": 220,
      "ľ終": 221,
      ")終": 222,
      ":終": 223,
      "=終": 224,
      "и終": 225,
      "q終": 226,
      "ה終": 227,
      "%終": 228,
      "as終": 229,
      "st": 230,
      "is終": 231,
      "la終": 232,
      "on終": 233,
      "est": 234,
      "mi終": 235,
      "en": 236,
      "an": 237,
      "cx": 238,
      "ti": 239,
      "on": 240,
      "er": 241,
      "estas終": 242,
      "to": 243,
      "ar": 244,
      "gx": 245,
      "ki": 246,
      "ne終": 247,
      "vi終": 248,
      "al": 249,
      "or": 250,
      "li終": 251,
      "in": 252,
      "sx": 253,
      "pr": 254,
      "vi": 255,
      "po": 256,
      "mi": 257,
      "aj終": 258,
      "au": 259,
      "jn終": 260,
      "mo終": 261,
      "tr": 262,
      "an終": 263,
      "al終": 264,
      "li": 265,
      "oj終": 266,
      "en終": 267,
      "vas終": 268,
      "de終": 269,
      "ir": 270,
      "tomo終": 271,
      "at": 272,
      "ci": 273,
      "ke終": 274,
      "mal": 275,
      "ol": 276,
      "si": 277,
      "de": 278,
      "ku": 279,
      "cxu終": 280,
      "aux終": 281,
      "ek": 282,
      "el": 283,
      "ni終": 284,
      "om": 285,
      "ojn終": 286,
      "re": 287,
      "os終": 288,
      "man": 289,
      "ri": 290,
      "un": 291,
      "ta終": 292,
      "pl": 293,
      "ul": 294,
      "am終": 295,
      "aj": 296,
      "kon": 297,
      "cxi": 298,
      "kaj終": 299,
      "ha": 300,
      "estis終": 301,
      "su": 302,
      "aux": 303,
      "et": 304,
      "sxi終": 305,
      "es": 306,
      "di": 307,
      "el終": 308,
      "la": 309,
      "far": 310,
      "ra": 311,
      "bon": 312,
      "to終": 313,
      "te終": 314,
      "vol": 315,
      "em": 316,
      "tom終": 317,
      "pa": 318,
      "por終": 319,
      "ka": 320,
      "par": 321,
      "tio終": 322,
      "do終": 323,
      "am": 324,
      "jo終": 325,
      "ven": 326,
      "sci": 327,
      "cxi終": 328,
      "un終": 329,
      "dir": 330,
      "povas終": 331,
      "dis終": 332,
      "per": 333,
      "da終": 334,
      "havas終": 335,
      "bl": 336,
      "eni": 337,
      "gxis終": 338,
      "ajn終": 339,
      "mia終": 340,
      "tion終": 341,
      "us終": 342,
      "pro": 343,
      "fi": 344,
      "tiu終": 345,
      "pri終": 346,
      "gxi終": 347,
      "ver": 348,
      "ta": 349,
      "du": 350,
      "neni": 351,
      "ru": 352,
      "for": 353,
      "pli終": 354,
      "vis終": 355,
      "tu": 356,
      "tas終": 357,
      "ez": 358,
      "ank": 359,
      "das終": 360,
      "eg": 361,
      "in終": 362,
      "volas終": 363,
      "min終": 364,
      "sp": 365,
      "ig": 366,
      "ili終": 367,
      "ton終": 368,
      "ak": 369,
      "ran": 370,
      "tis終": 371,
      "kiel終": 372,
      "br": 373,
      "sxat": 374,
      "kion終": 375,
      "mul": 376,
      "kun終": 377,
      "pen": 378,
      "kom": 379,
      "ur": 380,
      "int": 381,
      "se": 382,
      "ia終": 383,
      "ino終": 384,
      "di終": 385,
      "mon": 386,
      "gxas終": 387,
      "lu": 388,
      "ne": 389,
      "sen": 390,
      "no": 391,
      "zi": 392,
      "fer": 393,
      "uj終": 394,
      "ajx": 395,
      "vin終": 396,
      "pi": 397,
      "ant": 398,
      "om終": 399,
      "kiu終": 400,
      "ko終": 401,
      "mar": 402,
      "tre終": 403,
      "lo": 404,
      "toj終": 405,
      "scias終": 406,
      "na": 407,
      "je終": 408,
      "don": 409,
      "tom": 410,
      "fa": 411,
      "nu": 412,
      "bor": 413,
      "mor": 414,
      "lin終": 415,
      "sk": 416,
      "kiam終": 417,
      "don終": 418,
      "labor": 419,
      "tie終": 420,
      "ol終": 421,
      "ler": 422,
      "pens": 423,
      "via終": 424,
      "vo終": 425,
      "io終": 426,
      "ec": 427,
      "sxatas終": 428,
      "sto終": 429,
      "so終": 430,
      "ed": 431,
      "aten": 432,
      "kre": 433,
      "diris終": 434,
      "ej": 435,
      "oni終": 436,
      "pren": 437,
      "er終": 438,
      "fari終": 439,
      "tro終": 440,
      "vo": 441,
      "tag": 442,
      "parol": 443,
      "ti終": 444,
      "manjo終": 445,
      "po終": 446,
      "den": 447,
      "ami": 448,
      "se終": 449,
      "ono終": 450,
      "tem": 451,
      "taj終": 452,
      "gxo終": 453,
      "lo終": 454,
      "ajn": 455,
      "gxin終": 456,
      "du終": 457,
      "bi": 458,
      "esti終": 459,
      "fo": 460,
      "hel": 461,
      "ho": 462,
      "ple": 463,
      "tel": 464,
      "devas終": 465,
      "acx": 466,
      "ebl": 467,
      "eli": 468,
      "sed終": 469,
      "tiun終": 470,
      "plej終": 471,
      "kio終": 472,
      "sian終": 473,
      "ato終": 474,
      "nur終": 475,
      "ing": 476,
      "jar": 477,
      "ano終": 478,
      "enc": 479,
      "ion終": 480,
      "gis終": 481,
      "ali": 482,
      "kial終": 483,
      "esper": 484,
      "so": 485,
      "gran": 486,
      "tro": 487,
      "gi終": 488,
      "sur終": 489,
      "bo": 490,
      "mian終": 491,
      "bo終": 492,
      "iri終": 493,
      "neniam終": 494,
      "bez": 495,
      "ro終": 496,
      "unu終": 497,
      "tojn終": 498,
      "bezon": 499,
      "bone終": 500,
      "lia終": 501,
      "nov": 502,
      "libr": 503,
      "kul": 504,
      "kaz": 505,
      "por": 506,
      "per終": 507,
      "dum終": 508,
      "ero終": 509,
      "pre": 510,
      "hom": 511,
      "cxiuj終": 512,
      "bona終": 513,
      "sia終": 514,
      "okaz": 515,
      "lon終": 516,
      "help": 517,
      "ini": 518,
      "ko": 519,
      "nun終": 520,
      "uz": 521,
      "pensas終": 522,
      "ata終": 523,
      "gra": 524,
      "cer": 525,
      "ce": 526,
      "inf": 527,
      "ankor": 528,
      "cxe終": 529,
      "men": 530,
      "hi": 531,
      "etis終": 532,
      "tin": 533,
      "ankoraux終": 534,
      "iras終": 535,
      "stru": 536,
      "vian終": 537,
      "me終": 538,
      "ang": 539,
      "ulo終": 540,
      "hej": 541,
      "spek": 542,
      "iris終": 543,
      "ap": 544,
      "ot": 545,
      "pro終": 546,
      "las": 547,
      "var": 548,
      "kie終": 549,
      "ces": 550,
      "faris終": 551,
      "ef": 552,
      "patr": 553,
      "dor": 554,
      "tiel終": 555,
      "leg": 556,
      "vus終": 557,
      "ni": 558,
      "pri": 559,
      "dan": 560,
      "ser": 561,
      "ren": 562,
      "antaux終": 563,
      "ling": 564,
      "do": 565,
      "inter": 566,
      "me": 567,
      "agx": 568,
      "lan": 569,
      "bezonas終": 570,
      "gi": 571,
      "fran": 572,
      "kol": 573,
      "kiom終": 574,
      "deman": 575,
      "faci": 576,
      "multe終": 577,
      "gar": 578,
      "kon終": 579,
      "vidis終": 580,
      "op": 581,
      "fra": 582,
      "tan終": 583,
      "estos終": 584,
      "venis終": 585,
      "gas終": 586,
      "ma": 587,
      "skri": 588,
      "vere終": 589,
      "cxiam終": 590,
      "lon": 591,
      "mals": 592,
      "fru": 593,
      "ten": 594,
      "bu": 595,
      "aso終": 596,
      "te": 597,
      "jam終": 598,
      "kan": 599,
      "qu": 600,
      "jun": 601,
      "hodi": 602,
      "&qu": 603,
      "ot;終": 604,
      "&quot;終": 605,
      "vos終": 606,
      "franc": 607,
      "tomon終": 608,
      "jon終": 609,
      "mas終": 610,
      "kiun終": 611,
      "stu": 612,
      "sur": 613,
      "paro": 614,
      "ink": 615,
      "sek": 616,
      "bonvol": 617,
      "hor": 618,
      "kompren": 619,
      "hodiaux終": 620,
      "pu": 621,
      "kna": 622,
      "ge": 623,
      "son": 624,
      "kv": 625,
      "aro終": 626,
      "von終": 627,
      "paroli終": 628,
      "tra": 629,
      "ro": 630,
      "ajxo終": 631,
      "sxin終": 632,
      "eble終": 633,
      "pos": 634,
      "havis終": 635,
      "long": 636,
      "parolas終": 637,
      "tomaso終": 638,
      "anoj終": 639,
      "plen": 640,
      "co終": 641,
      "vor": 642,
      "tri終": 643,
      "unu": 644,
      "kor": 645,
      "jx": 646,
      "ter": 647,
      "neniu終": 648,
      "homoj終": 649,
      "post": 650,
      "mo": 651,
      "dek終": 652,
      "suk": 653,
      "ust": 654,
      "ado終": 655,
      "eb": 656,
      "ujn終": 657,
      "sxan": 658,
      "zo終": 659,
      "vir": 660,
      "hun": 661,
      "bonvolu終": 662,
      "str": 663,
      "cxam": 664,
      "skrib": 665,
      "kel": 666,
      "rapi": 667,
      "mu": 668,
      "cxa": 669,
      "igxis終": 670,
      "mem": 671,
      "eco終": 672,
      "kontr": 673,
      "instru": 674,
      "mis終": 675,
      "mangx": 676,
      "vet": 677,
      "kredas終": 678,
      "of": 679,
      "amas終": 680,
      "dez": 681,
      "plu": 682,
      "fin": 683,
      "diri終": 684,
      "cxambr": 685,
      "son終": 686,
      "facil": 687,
      "lerne": 688,
      "rigar": 689,
      "tu終": 690,
      "post終": 691,
      "feli": 692,
      "tempo終": 693,
      "mary終": 694,
      "plu終": 695,
      "mon終": 696,
      "kur": 697,
      "granda終": 698,
      "cio終": 699,
      "volis終": 700,
      "eron終": 701,
      "be": 702,
      "sukces": 703,
      "afer": 704,
      "iu終": 705,
      "mili": 706,
      "maria終": 707,
      "ma終": 708,
      "ekst": 709,
      "nia終": 710,
      "diras終": 711,
      "tran": 712,
      "kl": 713,
      "tute終": 714,
      "ksi": 715,
      "pet": 716,
      "spon": 717,
      "pon終": 718,
      "sam": 719,
      "fil": 720,
      "sciis終": 721,
      "pli": 722,
      "tos終": 723,
      "auxr": 724,
      "cxiu終": 725,
      "doj終": 726,
      "kaux終": 727,
      "sin終": 728,
      "antaux": 729,
      "probl": 730,
      "igis終": 731,
      "multaj終": 732,
      "evi": 733,
      "ajxon終": 734,
      "domo終": 735,
      "sxajn": 736,
      "hier": 737,
      "bel": 738,
      "patro終": 739,
      "aspek": 740,
      "opini": 741,
      "kri": 742,
      "venos終": 743,
      "ejo終": 744,
      "ber": 745,
      "bost": 746,
      "sem": 747,
      "gxos終": 748,
      "edz": 749,
      "koj終": 750,
      "raj": 751,
      "hieraux終": 752,
      "sxi": 753,
      "ka終": 754,
      "pas": 755,
      "vesper": 756,
      "foje終": 757,
      "telef": 758,
      "fu": 759,
      "faras終": 760,
      "felicx": 761,
      "dan終": 762,
      "cxe": 763,
      "ve終": 764,
      "sa": 765,
      "knab": 766,
      "mult": 767,
      "nom": 768,
      "miaj終": 769,
      "ofte終": 770,
      "ante終": 771,
      "cxar終": 772,
      "morg": 773,
      "anta終": 774,
      "respon": 775,
      "iom終": 776,
      "tiom終": 777,
      "vidi終": 778,
      "ankaux終": 779,
      "cen": 780,
      "con終": 781,
      "kis終": 782,
      "rom": 783,
      "morgaux終": 784,
      "stas終": 785,
      "ita終": 786,
      "kun": 787,
      "ba": 788,
      "dol": 789,
      "isto終": 790,
      "helpi終": 791,
      "esis終": 792,
      "renkon": 793,
      "estu終": 794,
      "kura": 795,
      "sola終": 796,
      "povis終": 797,
      "kuti": 798,
      "tiuj終": 799,
      "bal": 800,
      "maten": 801,
      "vizi": 802,
      "nok": 803,
      "sufi": 804,
      "lern": 805,
      "trink": 806,
      "inon終": 807,
      "jap": 808,
      "konsi": 809,
      "onon終": 810,
      "ilin終": 811,
      "va終": 812,
      "kap": 813,
      "iam終": 814,
      "ecx終": 815,
      "eto終": 816,
      "igi終": 817,
      "vivo終": 818,
      "bostono終": 819,
      "go終": 820,
      "gxust": 821,
      "last": 822,
      "libron終": 823,
      "deziras終": 824,
      "povus終": 825,
      "nin終": 826,
      "hejm": 827,
      "le": 828,
      "sol": 829,
      "jen終": 830,
      "cxio終": 831,
      "konas終": 832,
      "kapa": 833,
      "logxas終": 834,
      "pres": 835,
      "proksi": 836,
      "fr": 837,
      "inta終": 838,
      "flu": 839,
      "cxion終": 840,
      "laux終": 841,
      "iru終": 842,
      "nenion終": 843,
      "sen終": 844,
      "tri": 845,
      "donis終": 846,
      "poli": 847,
      "memor": 848,
      "alo終": 849,
      "estus終": 850,
      "acxet": 851,
      "kas終": 852,
      "japan": 853,
      "cxiu": 854,
      "stoj終": 855,
      "aton終": 856,
      "omen": 857,
      "ajne終": 858,
      "fun": 859,
      "kiuj終": 860,
      "sxia終": 861,
      "frue終": 862,
      "sim": 863,
      "aron終": 864,
      "lernejo終": 865,
      "agxo終": 866,
      "bonan終": 867,
      "patrino終": 868,
      "dojn終": 869,
      "ajxojn終": 870,
      "voj": 871,
      "ski": 872,
      "tien終": 873,
      "let": 874,
      "facile終": 875,
      "kapabl": 876,
      "deci": 877,
      "uloj終": 878,
      "anon終": 879,
      "komenc": 880,
      "okazis終": 881,
      "opinias終": 882,
      "gen": 883,
      "vu終": 884,
      "rapide終": 885,
      "forg": 886,
      "monon終": 887,
      "elo終": 888,
      "cxi-": 889,
      "francan終": 890,
      "star": 891,
      "prez": 892,
      "fl": 893,
      "jaroj終": 894,
      "ju": 895,
      "zor": 896,
      "bela終": 897,
      "devus終": 898,
      "oku": 899,
      "anto終": 900,
      "auxdis終": 901,
      "infanoj終": 902,
      "dom": 903,
      "urbo終": 904,
      "igas終": 905,
      "acxetis終": 906,
      "siajn終": 907,
      "inoj終": 908,
      "faru終": 909,
      "jo": 910,
      "gxon終": 911,
      "alia終": 912,
      "ekzi": 913,
      "tago終": 914,
      "juna終": 915,
      "dek": 916,
      "ajxoj終": 917,
      "sal": 918,
      "sxajnas終": 919,
      "ad": 920,
      "elek": 921,
      "min": 922,
      "angl": 923,
      "amiko終": 924,
      "ekz": 925,
      "diru終": 926,
      "ga": 927,
      "sentas終": 928,
      "malsan": 929,
      "iros終": 930,
      "klar": 931,
      "rice": 932,
      "ki終": 933,
      "sub": 934,
      "ekster": 935,
      "trovis終": 936,
      "mono終": 937,
      "malfer": 938,
      "sxatus終": 939,
      "pe終": 940,
      "preskaux終": 941,
      "gu終": 942,
      "cxambro終": 943,
      "liber": 944,
      "zon終": 945,
      "ricx": 946,
      "suficxe終": 947,
      "aspektas終": 948,
      "longe終": 949,
      "mes": 950,
      "nova終": 951,
      "gxo": 952,
      "gxu終": 953,
      "problem": 954,
      "emo終": 955,
      "laux": 956,
      "esto終": 957,
      "siaj終": 958,
      "dos終": 959,
      "tuj終": 960,
      "kar": 961,
      "met": 962,
      "gxen": 963,
      "mem終": 964,
      "cxir": 965,
      "va": 966,
      "viro終": 967,
      "lando終": 968,
      "ide": 969,
      "semajn": 970,
      "prefer": 971,
      "lingvo終": 972,
      "kato終": 973,
      "oro終": 974,
      "skul": 975,
      "rajtas終": 976,
      "mondo終": 977,
      "malvar": 978,
      "cep": 979,
      "fratin": 980,
      "auxto終": 981,
      "mangxas終": 982,
      "morti": 983,
      "libro終": 984,
      "pra": 985,
      "mani": 986,
      "donu終": 987,
      "mez": 988,
      "kaux": 989,
      "da": 990,
      "ga終": 991,
      "petis終": 992,
      "laboro終": 993,
      "auxton終": 994,
      "gepatr": 995,
      "neces": 996,
      "komprenas終": 997,
      "tur": 998,
      "laboras終": 999,
      "hejme終": 1000,
      "mangxi終": 1001,
      "dis": 1002,
      "multajn終": 1003,
      "trans": 1004,
      "laboron終": 1005,
      "novan終": 1006,
      "kci": 1007,
      "rek": 1008,
      "alian終": 1009,
      "amb": 1010,
      "eblas終": 1011,
      "kajn終": 1012,
      "kontraux終": 1013,
      "veni終": 1014,
      "bla終": 1015,
      "sono終": 1016,
      "viaj終": 1017,
      "uni": 1018,
      "sxt": 1019,
      "tempon終": 1020,
      "es終": 1021,
      "lian終": 1022,
      "amikoj終": 1023,
      "rakon": 1024,
      "plor": 1025,
      "poz": 1026,
      "jxus終": 1027,
      "okul": 1028,
      "har": 1029,
      "kin": 1030,
      "bli": 1031,
      "auxskul": 1032,
      "bald": 1033,
      "elon終": 1034,
      "fak": 1035,
      "sxajne終": 1036,
      "dento終": 1037,
      "kaf": 1038,
      "eri": 1039,
      "esperas終": 1040,
      "venas終": 1041,
      "mil": 1042,
      "muzi": 1043,
      "im": 1044,
      "bed": 1045,
      "hundo終": 1046,
      "ujo終": 1047,
      "hejmen終": 1048,
      "intenc": 1049,
      "pensis終": 1050,
      "baldaux終": 1051,
      "telefon": 1052,
      "fal": 1053,
      "mangxis終": 1054,
      "parolis終": 1055,
      "der": 1056,
      "antoj終": 1057,
      "daj終": 1058,
      "ris終": 1059,
      "lerni終": 1060,
      "bedauxr": 1061,
      "val": 1062,
      "acio終": 1063,
      "menso": 1064,
      "sig": 1065,
      "horo終": 1066,
      "simpl": 1067,
      "placx": 1068,
      "apar": 1069,
      "bon終": 1070,
      "ja終": 1071,
      "ove終": 1072,
      "ger": 1073,
      "homo終": 1074,
      "denove終": 1075,
      "dank": 1076,
      "inter終": 1077,
      "cxes": 1078,
      "miajn終": 1079,
      "edzi": 1080,
      "pan": 1081,
      "joh": 1082,
      "hal": 1083,
      "faros終": 1084,
      "anglan終": 1085,
      "iun終": 1086,
      "kondu": 1087,
      "mortis終": 1088,
      "vespere終": 1089,
      "naski": 1090,
      "viajn終": 1091,
      "ekzistas終": 1092,
      "manjon終": 1093,
      "kuraci": 1094,
      "tabl": 1095,
      "petas終": 1096,
      "is": 1097,
      "bra": 1098,
      "acxeti終": 1099,
      "vivas終": 1100,
      "vidas終": 1101,
      "bat": 1102,
      "kojn終": 1103,
      "bar": 1104,
      "ca終": 1105,
      "trajn": 1106,
      "veron終": 1107,
      "econ終": 1108,
      "unua終": 1109,
      "german": 1110,
      "dio終": 1111,
      "konstru": 1112,
      "fen": 1113,
      "timas終": 1114,
      "bil": 1115,
      "sercx": 1116,
      "tigxis終": 1117,
      "tuta終": 1118,
      "bri": 1119,
      "scipovas終": 1120,
      "famili": 1121,
      "doni終": 1122,
      "si終": 1123,
      "scii終": 1124,
      "akvo終": 1125,
      "liaj終": 1126,
      "rez": 1127,
      "uno終": 1128,
      "sin": 1129,
      "kia終": 1130,
      "atin": 1131,
      "kva": 1132,
      "egas終": 1133,
      "felicxa終": 1134,
      "infan": 1135,
      "amen": 1136,
      "interes": 1137,
      "san": 1138,
      "atem": 1139,
      "stul": 1140,
      "provis終": 1141,
      "instruisto終": 1142,
      "erar": 1143,
      "matene終": 1144,
      "lasis終": 1145,
      "pon": 1146,
      "havi終": 1147,
      "stran": 1148,
      "uro終": 1149,
      "devis終": 1150,
      "tradu": 1151,
      "ambaux終": 1152,
      "lasu終": 1153,
      "plan": 1154,
      "tutan終": 1155,
      "kelkajn終": 1156,
      "tal": 1157,
      "amo終": 1158,
      "alvenis終": 1159,
      "tage終": 1160,
      "trank": 1161,
      "trankvi": 1162,
      "televi": 1163,
      "ab": 1164,
      "din": 1165,
      "cxef": 1166,
      "simple終": 1167,
      "gepatroj終": 1168,
      "igxas終": 1169,
      "ega終": 1170,
      "akcep": 1171,
      "vest": 1172,
      "ston終": 1173,
      "agxa終": 1174,
      "gos終": 1175,
      "agxon終": 1176,
      "dauxr": 1177,
      "voj終": 1178,
      "pret": 1179,
      "igxi終": 1180,
      "moj終": 1181,
      "trovi終": 1182,
      "supoz": 1183,
      "edzino終": 1184,
      "dev": 1185,
      "lingvon終": 1186,
      "ege終": 1187,
      "intus終": 1188,
      "legi終": 1189,
      "aci": 1190,
      "ura終": 1191,
      "pis終": 1192,
      "ron終": 1193,
      "fine終": 1194,
      "certe終": 1195,
      "domon終": 1196,
      "permes": 1197,
      "ri終": 1198,
      "kapablas終": 1199,
      "cxiujn終": 1200,
      "tita終": 1201,
      "mojn終": 1202,
      "malfru": 1203,
      "antauxe終": 1204,
      "ataj終": 1205,
      "infano終": 1206,
      "gita終": 1207,
      "fek": 1208,
      "nenio終": 1209,
      "tru": 1210,
      "vin": 1211,
      "sxis終": 1212,
      "ete終": 1213,
      "hon": 1214,
      "kelkaj終": 1215,
      "frato終": 1216,
      "perdis終": 1217,
      "tek": 1218,
      "vera終": 1219,
      "cxambron終": 1220,
      "puti": 1221,
      "venon": 1222,
      "knabo終": 1223,
      "prom": 1224,
      "cas終": 1225,
      "gxoj": 1226,
      "sxlo": 1227,
      "koler": 1228,
      "afero終": 1229,
      "ati": 1230,
      "rest": 1231,
      "forges": 1232,
      "ob": 1233,
      "fratino終": 1234,
      "ux": 1235,
      "vero終": 1236,
      "kvin終": 1237,
      "malbon": 1238,
      "bici": 1239,
      "komputi": 1240,
      "ban": 1241,
      "demandis終": 1242,
      "minu": 1243,
      "fren": 1244,
      "ofi": 1245,
      "gxer": 1246,
      "sil": 1247,
      "frenez": 1248,
      "resti終": 1249,
      "kiujn終": 1250,
      "angla終": 1251,
      "ate終": 1252,
      "prenis終": 1253,
      "jarojn終": 1254,
      "fisx": 1255,
      "ebla終": 1256,
      "vun": 1257,
      "posx": 1258,
      "propr": 1259,
      "vojn終": 1260,
      "adi": 1261,
      "sukcesis終": 1262,
      "fre": 1263,
      "tia終": 1264,
      "knabino終": 1265,
      "sa終": 1266,
      "malfacile終": 1267,
      "pasi": 1268,
      "bru": 1269,
      "nor": 1270,
      "vetur": 1271,
      "problemo終": 1272,
      "decidis終": 1273,
      "kov": 1274,
      "reg": 1275,
      "facila終": 1276,
      "akci": 1277,
      "rigardis終": 1278,
      "renkontis終": 1279,
      "leteron終": 1280,
      "ble終": 1281,
      "tagon終": 1282,
      "gr": 1283,
      "uzas終": 1284,
      "venu終": 1285,
      "kra": 1286,
      "kutime終": 1287,
      "ge終": 1288,
      "iom": 1289,
      "sis終": 1290,
      "aliaj終": 1291,
      "dolor": 1292,
      "tor": 1293,
      "ema終": 1294,
      "montr": 1295,
      "dr": 1296,
      "versxajne終": 1297,
      "sentis終": 1298,
      "situ": 1299,
      "cxirkaux終": 1300,
      "ve": 1301,
      "jaro終": 1302,
      "mu終": 1303,
      "gxar": 1304,
      "tra終": 1305,
      "gravas終": 1306,
      "kr": 1307,
      "sper": 1308,
      "grandan終": 1309,
      "cxiutage終": 1310,
      "ekde終": 1311,
      "ludas終": 1312,
      "gajn": 1313,
      "kto終": 1314,
      "virino終": 1315,
      "aper": 1316,
      "nif": 1317,
      "flor": 1318,
      "best": 1319,
      "pil": 1320,
      "legis終": 1321,
      "funkci": 1322,
      "person": 1323,
      "surpri": 1324,
      "gla": 1325,
      "mur": 1326,
      "alta終": 1327,
      "malbona終": 1328,
      "veno終": 1329,
      "nomo終": 1330,
      "labori終": 1331,
      "ludi終": 1332,
      "preni終": 1333,
      "telo終": 1334,
      "ok": 1335,
      "povos終": 1336,
      "eton終": 1337,
      "ricevis終": 1338,
      "adon終": 1339,
      "mangxo終": 1340,
      "amikin": 1341,
      "uti": 1342,
      "iomete終": 1343,
      "gxa終": 1344,
      "gxarden": 1345,
      "logx": 1346,
      "skribis終": 1347,
      "sxo": 1348,
      "ricxa終": 1349,
      "malpli終": 1350,
      "kulp": 1351,
      "longa終": 1352,
      "kontraux": 1353,
      "metis終": 1354,
      "loko終": 1355,
      "faj": 1356,
      "kredis終": 1357,
      "nian終": 1358,
      "sta終": 1359,
      "igu終": 1360,
      "fenest": 1361,
      "za終": 1362,
      "ze終": 1363,
      "cxin": 1364,
      "placxas終": 1365,
      "certas終": 1366,
      "dun": 1367,
      "filo終": 1368,
      "apu": 1369,
      "franca終": 1370,
      "bro終": 1371,
      "konsider": 1372,
      "signif": 1373,
      "uri": 1374,
      "kuracisto終": 1375,
      "af": 1376,
      "univer": 1377,
      "pasint": 1378,
      "familio終": 1379,
      "kla": 1380,
      "enco終": 1381,
      "klo終": 1382,
      "plena終": 1383,
      "vivi終": 1384,
      "memoras終": 1385,
      "momen": 1386,
      "tiam終": 1387,
      "tigi終": 1388,
      "migxis終": 1389,
      "tenas終": 1390,
      "dita終": 1391,
      "kru": 1392,
      "tablo終": 1393,
      "lig": 1394,
      "kune終": 1395,
      "avi": 1396,
      "mita終": 1397,
      "nomon終": 1398,
      "anko終": 1399,
      "atendi終": 1400,
      "ac": 1401,
      "ag": 1402,
      "tagoj終": 1403,
      "kien終": 1404,
      "uzi終": 1405,
      "kal": 1406,
      "tero終": 1407,
      "infor": 1408,
      "nek終": 1409,
      "okazas終": 1410,
      "atas終": 1411,
      "bir": 1412,
      "malsx": 1413,
      "problemon終": 1414,
      "nagxi終": 1415,
      "necesas終": 1416,
      "pe": 1417,
      "stor": 1418,
      "skribi終": 1419,
      "forgesis終": 1420,
      "migxas終": 1421,
      "uson": 1422,
      "sxu": 1423,
      "auxstr": 1424,
      "loj終": 1425,
      "tiujn終": 1426,
      "ku終": 1427,
      "ani": 1428,
      "liti": 1429,
      "viz": 1430,
      "neniun終": 1431,
      "atendis終": 1432,
      "krist": 1433,
      "sko終": 1434,
      "okup": 1435,
      "aki": 1436,
      "enci": 1437,
      "pordon終": 1438,
      "poste終": 1439,
      "librojn終": 1440,
      "hundon終": 1441,
      "super": 1442,
      "prun": 1443,
      "infanojn終": 1444,
      "teni": 1445,
      "sub終": 1446,
      "trajno終": 1447,
      "boj終": 1448,
      "poj終": 1449,
      "sak": 1450,
      "foriri終": 1451,
      "pita終": 1452,
      "antaj終": 1453,
      "histor": 1454,
      "pravas終": 1455,
      "fan": 1456,
      "her": 1457,
      "lun": 1458,
      "vivon終": 1459,
      "opin": 1460,
      "cxo終": 1461,
      "traf": 1462,
      "vino終": 1463,
      "bedauxras終": 1464,
      "pun": 1465,
      "ere終": 1466,
      "vetero終": 1467,
      "eux": 1468,
      "trak": 1469,
      "fini": 1470,
      "alvo": 1471,
      "som": 1472,
      "sekre": 1473,
      "cel": 1474,
      "tisto終": 1475,
      "fartas終": 1476,
      "maljun": 1477,
      "afa": 1478,
      "eno終": 1479,
      "fadi": 1480,
      "atendas終": 1481,
      "kuir": 1482,
      "okazos終": 1483,
      "gu": 1484,
      "konten": 1485,
      "nokte終": 1486,
      "konf": 1487,
      "dankon終": 1488,
      "helpon終": 1489,
      "ekzamen": 1490,
      "zis終": 1491,
      "kvin": 1492,
      "lojn終": 1493,
      "igxos終": 1494,
      "proksime終": 1495,
      "auxstral": 1496,
      "gon終": 1497,
      "spor": 1498,
      "eks": 1499,
      "paci": 1500,
      "kam": 1501,
      "pie": 1502,
      "iuj終": 1503,
      "uzis終": 1504,
      "tempe終": 1505,
      "krom終": 1506,
      "pez": 1507,
      "stat": 1508,
      "forta終": 1509,
      "stre": 1510,
      "mir": 1511,
      "komencis終": 1512,
      "stino終": 1513,
      "fest": 1514,
      "tagmez": 1515,
      "ama終": 1516,
      "maltrankvi": 1517,
      "promen": 1518,
      "pardon": 1519,
      "ejon終": 1520,
      "medi": 1521,
      "preferas終": 1522,
      "restis終": 1523,
      "sxangx": 1524,
      "invi": 1525,
      "aferoj終": 1526,
      "studen": 1527,
      "revenos終": 1528,
      "volus終": 1529,
      "kresk": 1530,
      "dangxer": 1531,
      "ride": 1532,
      "cxiun終": 1533,
      "eo終": 1534,
      "pied": 1535,
      "voja": 1536,
      "jek": 1537,
      "malamas終": 1538,
      "malgranda終": 1539,
      "task": 1540,
      "foriris終": 1541,
      "pul": 1542,
      "stri": 1543,
      "persono終": 1544,
      "plenu": 1545,
      "parolu終": 1546,
      "eko": 1547,
      "for終": 1548,
      "preci": 1549,
      "grava終": 1550,
      "malsana終": 1551,
      "kvar": 1552,
      "anti": 1553,
      "malfacil": 1554,
      "sinj": 1555,
      "kompreni終": 1556,
      "puri": 1557,
      "gaz": 1558,
      "cxesu終": 1559,
      "inda終": 1560,
      "malfrue終": 1561,
      "sxategas終": 1562,
      "helpis終": 1563,
      "silen": 1564,
      "danto終": 1565,
      "cent終": 1566,
      "lernas終": 1567,
      "intencas終": 1568,
      "io": 1569,
      "tajn終": 1570,
      "ulojn終": 1571,
      "lernis終": 1572,
      "valor": 1573,
      "koncer": 1574,
      "fadil終": 1575,
      "festo終": 1576,
      "gxu": 1577,
      "iro終": 1578,
      "auxdi終": 1579,
      "certa終": 1580,
      "usono終": 1581,
      "simil": 1582,
      "mankas終": 1583,
      "teni終": 1584,
      "pasis終": 1585,
      "kant": 1586,
      "sxatis終": 1587,
      "ideo終": 1588,
      "apud終": 1589,
      "rimar": 1590,
      "auxto": 1591,
      "kredi終": 1592,
      "pordo終": 1593,
      "legas終": 1594,
      "multeko": 1595,
      "trinkas終": 1596,
      "kisto終": 1597,
      "sxtel": 1598,
      "johano終": 1599,
      "auxstralio終": 1600,
      "regi": 1601,
      "viv": 1602,
      "dormis終": 1603,
      "ner": 1604,
      "alpor": 1605,
      "laboris終": 1606,
      "prepar": 1607,
      "nig": 1608,
      "sti": 1609,
      "atempe終": 1610,
      "varm": 1611,
      "niaj終": 1612,
      "lasta終": 1613,
      "viziti終": 1614,
      "dam": 1615,
      "lar": 1616,
      "no終": 1617,
      "cxon終": 1618,
      "kvaz": 1619,
      "supozas終": 1620,
      "gust": 1621,
      "ril": 1622,
      "dua終": 1623,
      "horlo": 1624,
      "hisp": 1625,
      "supr": 1626,
      "homojn終": 1627,
      "cejo終": 1628,
      "kvazaux終": 1629,
      "sxas終": 1630,
      "bibli": 1631,
      "jare終": 1632,
      "cxirkaux": 1633,
      "trovi": 1634,
      "sercxas終": 1635,
      "ilia終": 1636,
      "mis": 1637,
      "tak": 1638,
      "prezen": 1639,
      "naskigxis終": 1640,
      "tiko終": 1641,
      "finfine終": 1642,
      "sxian終": 1643,
      "naj": 1644,
      "vort": 1645,
      "tridek終": 1646,
      "kafon終": 1647,
      "hx": 1648,
      "naux": 1649,
      "sxul": 1650,
      "fir": 1651,
      "studi終": 1652,
      "kos終": 1653,
      "depen": 1654,
      "nokto終": 1655,
      "kita終": 1656,
      "mil終": 1657,
      "sxer": 1658,
      "maljuna終": 1659,
      "sita終": 1660,
      "digxis終": 1661,
      "polico終": 1662,
      "kan終": 1663,
      "dormas終": 1664,
      "rigardu終": 1665,
      "hispan": 1666,
      "ripar": 1667,
      "ara終": 1668,
      "bonaj終": 1669,
      "gxardeno終": 1670,
      "cxjo終": 1671,
      "gxuste終": 1672,
      "tato終": 1673,
      "kigxis終": 1674,
      "pos終": 1675,
      "dub": 1676,
      "veturi": 1677,
      "dekstr": 1678,
      "akcidento終": 1679,
      "ses": 1680,
      "onoj終": 1681,
      "ebri": 1682,
      "kvar終": 1683,
      "aviadi": 1684,
      "hu": 1685,
      "ima": 1686,
      "tian終": 1687,
      "amuz": 1688,
      "ankam終": 1689,
      "kvankam終": 1690,
      "frem": 1691,
      "ian終": 1692,
      "edzo終": 1693,
      "dano終": 1694,
      "vojo終": 1695,
      "lasi終": 1696,
      "danc": 1697,
      "sas終": 1698,
      "bezonis終": 1699,
      "buso終": 1700,
      "milito終": 1701,
      "og": 1702,
      "vivis終": 1703,
      "diros終": 1704,
      "pensi終": 1705,
      "teco終": 1706,
      "provas終": 1707,
      "filino終": 1708,
      "metu終": 1709,
      "strato終": 1710,
      "aferojn終": 1711,
      "japanio終": 1712,
      "ori": 1713,
      "provu終": 1714,
      "muzikon終": 1715,
      "ala終": 1716,
      "sami": 1717,
      "blu": 1718,
      "akvon終": 1719,
      "geedzi": 1720,
      "sidis終": 1721,
      "ombr": 1722,
      "vizitis終": 1723,
      "kafo終": 1724,
      "semajno終": 1725,
      "fino終": 1726,
      "alon終": 1727,
      "gre": 1728,
      "ulon終": 1729,
      "vortoj終": 1730,
      "dolar": 1731,
      "taux": 1732,
      "cxap": 1733,
      "revenis終": 1734,
      "demando終": 1735,
      "devintus終": 1736,
      "baro終": 1737,
      "pa終": 1738,
      "multon終": 1739,
      "amikon終": 1740,
      "libroj終": 1741,
      "kton終": 1742,
      "las終": 1743,
      "oni": 1744,
      "indi": 1745,
      "plez": 1746,
      "sufer": 1747,
      "virinoj終": 1748,
      "nek": 1749,
      "zoj終": 1750,
      "ale終": 1751,
      "cia終": 1752,
      "kato": 1753,
      "same終": 1754,
      "fe": 1755,
      "laca終": 1756,
      "komprenis終": 1757,
      "amikino終": 1758,
      "inteli": 1759,
      "zita終": 1760,
      "edzini": 1761,
      "peti終": 1762,
      "samio終": 1763,
      "inteligen": 1764,
      "sun": 1765,
      "cxar": 1766,
      "havos終": 1767,
      "diman": 1768,
      "blank": 1769,
      "nutr": 1770,
      "gru": 1771,
      "rif": 1772,
      "fla": 1773,
      "devos終": 1774,
      "eko終": 1775,
      "kuris終": 1776,
      "gxusta終": 1777,
      "disku": 1778,
      "dajn終": 1779,
      "restas終": 1780,
      "rezul": 1781,
      "itaj終": 1782,
      "sist": 1783,
      "farus終": 1784,
      "grandaj終": 1785,
      "prezi": 1786,
      "timi": 1787,
      "dormi終": 1788,
      "posttagmez": 1789,
      "mortigis終": 1790,
      "studentoj終": 1791,
      "ton": 1792,
      "rivero終": 1793,
      "gri": 1794,
      "jes終": 1795,
      "suno終": 1796,
      "rugx": 1797,
      "komenci": 1798,
      "amikojn終": 1799,
      "funkcias終": 1800,
      "fri": 1801,
      "helpos終": 1802,
      "drink": 1803,
      "inde終": 1804,
      "pose": 1805,
      "duon": 1806,
      "num": 1807,
      "viroj終": 1808,
      "suficx": 1809,
      "eksterlan": 1810,
      "signifas終": 1811,
      "vid": 1812,
      "dist": 1813,
      "morto終": 1814,
      "serio": 1815,
      "instrui": 1816,
      "nigr": 1817,
      "pru": 1818,
      "fier": 1819,
      "spe": 1820,
      "publi": 1821,
      "mangxon終": 1822,
      "filmo終": 1823,
      "nat": 1824,
      "demandon終": 1825,
      "fakte終": 1826,
      "&a": 1827,
      "ulino終": 1828,
      "gxojas終": 1829,
      "&apos": 1830,
      "lik": 1831,
      "prenu終": 1832,
      "ento終": 1833,
      "difer": 1834,
      "perfek": 1835,
      "spi": 1836,
      "maniero終": 1837,
      "grav": 1838,
      "mento終": 1839,
      "klon終": 1840,
      "eston": 1841,
      "profun": 1842,
      "tato": 1843,
      "telon終": 1844,
      "eviden": 1845,
      "agra": 1846,
      "jara終": 1847,
      "okulojn終": 1848,
      "mat": 1849,
      "anstat": 1850,
      "eloj終": 1851,
      "multan終": 1852,
      "studas終": 1853,
      "finis終": 1854,
      "respondi終": 1855,
      "antan終": 1856,
      "lin": 1857,
      "restu終": 1858,
      "vorto終": 1859,
      "trinki終": 1860,
      "malfacila終": 1861,
      "frazo終": 1862,
      "gxinta終": 1863,
      "subi": 1864,
      "flug": 1865,
      "ben": 1866,
      "cxesis終": 1867,
      "trojn終": 1868,
      "enami": 1869,
      "dona": 1870,
      "promes": 1871,
      "aperis終": 1872,
      "ins": 1873,
      "ego終": 1874,
      "hotelo終": 1875,
      "salu": 1876,
      "restor": 1877,
      "zas終": 1878,
      "dio": 1879,
      "faren": 1880,
      "spez": 1881,
      "helpo終": 1882,
      "preta終": 1883,
      "okupata終": 1884,
      "arbo終": 1885,
      "ludis終": 1886,
      "donas終": 1887,
      "plibon": 1888,
      "20": 1889,
      "kli": 1890,
      "smo終": 1891,
      "ludo終": 1892,
      "kolor": 1893,
      "nokton終": 1894,
      "kristna": 1895,
      "estro終": 1896,
      "cxi-vespere終": 1897,
      "anton終": 1898,
      "tokio終": 1899,
      "vende": 1900,
      "duk": 1901,
      "skribas終": 1902,
      "ce終": 1903,
      "jan": 1904,
      "tre": 1905,
      "falis終": 1906,
      "bibliot": 1907,
      "klo": 1908,
      "parko終": 1909,
      "kostas終": 1910,
      "horoj終": 1911,
      "oficejo終": 1912,
      "universi": 1913,
      "lanjo終": 1914,
      "vorton終": 1915,
      "sama終": 1916,
      "semajne終": 1917,
      "ideon終": 1918,
      "maj終": 1919,
      "trom": 1920,
      "cxielo終": 1921,
      "tam": 1922,
      "man終": 1923,
      "neg": 1924,
      "erojn終": 1925,
      "spektas終": 1926,
      "gaj": 1927,
      "ho終": 1928,
      "paper": 1929,
      "amis終": 1930,
      "sekur": 1931,
      "mume終": 1932,
      "sxteli": 1933,
      "daux": 1934,
      "tado終": 1935,
      "kiom": 1936,
      "vian": 1937,
      "sendis終": 1938,
      "nomigxas終": 1939,
      "feri": 1940,
      "john終": 1941,
      "rezig": 1942,
      "na終": 1943,
      "skato": 1944,
      "katoj終": 1945,
      "prop": 1946,
      "vojon終": 1947,
      "filmon終": 1948,
      "sang": 1949,
      "vide": 1950,
      "emas終": 1951,
      "sxancon終": 1952,
      "kelk": 1953,
      "nun": 1954,
      "demandojn終": 1955,
      "telefono終": 1956,
      "ekstere終": 1957,
      "interesa終": 1958,
      "zar": 1959,
      "malkov": 1960,
      "venon終": 1961,
      "dante終": 1962,
      "intere": 1963,
      "nu終": 1964,
      "kies終": 1965,
      "mortin": 1966,
      "foj": 1967,
      "lingvojn終": 1968,
      "fumi終": 1969,
      "stulta終": 1970,
      "sxlosi": 1971,
      "19": 1972,
      "van": 1973,
      "toro終": 1974,
      "trovos終": 1975,
      "rigardas終": 1976,
      "cxefurbo終": 1977,
      "aran": 1978,
      "malsxatas終": 1979,
      "fik": 1980,
      "soj終": 1981,
      "progra": 1982,
      "batal": 1983,
      "forgesu終": 1984,
      "forlasis終": 1985,
      "okuloj終": 1986,
      "matem": 1987,
      "zojn終": 1988,
      "propon": 1989,
      "fojon終": 1990,
      "lingvoj終": 1991,
      "unue終": 1992,
      "muziko終": 1993,
      "tatoeb": 1994,
      "matemati": 1995,
      "le終": 1996,
      "renkonti終": 1997,
      "naskigx": 1998,
      "sxofor": 1999,
      "lis終": 2000,
      "eniris終": 2001,
      "vidos終": 2002,
      "hav": 2003,
      "auxtom": 2004,
      "enon終": 2005,
      "lito終": 2006,
      "donos終": 2007,
      "kaptis終": 2008,
      "problemojn終": 2009,
      "dauxre終": 2010,
      "minutoj終": 2011,
      "nis終": 2012,
      "sano終": 2013,
      "mona": 2014,
      "cion終": 2015,
      "helpas終": 2016,
      "kanti終": 2017,
      "akti": 2018,
      "pluvo終": 2019,
      "atingi終": 2020,
      "precize終": 2021,
      "speci": 2022,
      "subite終": 2023,
      "vali": 2024,
      "inte終": 2025,
      "lio終": 2026,
      "devi": 2027,
      "parto終": 2028,
      "saman終": 2029,
      "lastan終": 2030,
      "honest": 2031,
      "sxtelis終": 2032,
      "eta終": 2033,
      "alvenos終": 2034,
      "ses終": 2035,
      "france終": 2036,
      "sxajnis終": 2037,
      "gajnis終": 2038,
      "klas": 2039,
      "relig": 2040,
      "konsentas終": 2041,
      "politi": 2042,
      "propran終": 2043,
      "trafis終": 2044,
      "eki": 2045,
      "multo終": 2046,
      "luzi": 2047,
      "obser": 2048,
      "agxas終": 2049,
      "kat": 2050,
      "staci": 2051,
      "eliri終": 2052,
      "plian終": 2053,
      "knabinoj終": 2054,
      "trovigxas終": 2055,
      "odor": 2056,
      "farita終": 2057,
      "spir": 2058,
      "masx": 2059,
      "cxemi": 2060,
      "belan終": 2061,
      "aspektis終": 2062,
      "sxiaj終": 2063,
      "apen": 2064,
      "vila": 2065,
      "atendu終": 2066,
      "apartenas終": 2067,
      "ason終": 2068,
      "gxoj終": 2069,
      "sami終": 2070,
      "similas終": 2071,
      "klopo": 2072,
      "fama終": 2073,
      "stacio終": 2074,
      "esperanto終": 2075,
      "studento終": 2076,
      "surhavas終": 2077,
      "malfermis終": 2078,
      "inojn終": 2079,
      "uron終": 2080,
      "multekosta終": 2081,
      "as": 2082,
      "mini": 2083,
      "eroj終": 2084,
      "igita終": 2085,
      "elir": 2086,
      "encon終": 2087,
      "rompis終": 2088,
      "plano終": 2089,
      "konsen": 2090,
      "pagi終": 2091,
      "sxatata終": 2092,
      "tejo終": 2093,
      "malsxal": 2094,
      "apenaux終": 2095,
      "aku": 2096,
      "ina終": 2097,
      "kioma終": 2098,
      "kelkfoje終": 2099,
      "kvi": 2100,
      "parto": 2101,
      "gxenti": 2102,
      "tus終": 2103,
      "anc": 2104,
      "espri": 2105,
      "paro終": 2106,
      "sonas終": 2107,
      "sxipo終": 2108,
      "biblioteko終": 2109,
      "tigis終": 2110,
      "sio終": 2111,
      "pluvos終": 2112,
      "interesi": 2113,
      "valo終": 2114,
      "enliti": 2115,
      "paf": 2116,
      "igos終": 2117,
      "ako終": 2118,
      "postul": 2119,
      "aferon終": 2120,
      "dauxri": 2121,
      "just": 2122,
      "pi終": 2123,
      "popo": 2124,
      "provi終": 2125,
      "uraj終": 2126,
      "okupita終": 2127,
      "pasigis終": 2128,
      "opinion終": 2129,
      "tatoeba終": 2130,
      "ke": 2131,
      "malantaux終": 2132,
      "ret": 2133,
      "helpu終": 2134,
      "jxur": 2135,
      "pluv": 2136,
      "cxeval": 2137,
      "trinkis終": 2138,
      "adis終": 2139,
      "emon終": 2140,
      "kado終": 2141,
      "sxangxi終": 2142,
      "meti終": 2143,
      "maniere終": 2144,
      "bestoj終": 2145,
      "avo終": 2146,
      "kolek": 2147,
      "eraron終": 2148,
      "teon終": 2149,
      "promesis終": 2150,
      "sor": 2151,
      "malnova終": 2152,
      "lumo終": 2153,
      "portis終": 2154,
      "hejmtask": 2155,
      "leci": 2156,
      "situacio終": 2157,
      "ekzameno終": 2158,
      "sinjoro終": 2159,
      "ligis終": 2160,
      "konsci": 2161,
      "dia": 2162,
      "scivolas終": 2163,
      "egis終": 2164,
      "sercxis終": 2165,
      "efi": 2166,
      "fon": 2167,
      "kisis終": 2168,
      "plo": 2169,
      "direk": 2170,
      "knaboj終": 2171,
      "baz": 2172,
      "&apos;終": 2173,
      "tamen終": 2174,
      "pojn終": 2175,
      "pardonu終": 2176,
      "responde": 2177,
      "malliber": 2178,
      "konis終": 2179,
      "nepr": 2180,
      "logxis終": 2181,
      "fojo終": 2182,
      "respondo終": 2183,
      "gan終": 2184,
      "cxis終": 2185,
      "eksci": 2186,
      "turo終": 2187,
      "portas終": 2188,
      "ital": 2189,
      "san終": 2190,
      "lakto終": 2191,
      "skribi": 2192,
      "teamo終": 2193,
      "sukceso終": 2194,
      "ploris終": 2195,
      "pretas終": 2196,
      "stis終": 2197,
      "sxa": 2198,
      "des終": 2199,
      "ameri": 2200,
      "dudek終": 2201,
      "vojagxo終": 2202,
      "restos終": 2203,
      "vek": 2204,
      "gxero終": 2205,
      "venont": 2206,
      "afabla終": 2207,
      "firma": 2208,
      "ombrelon終": 2209,
      "katon終": 2210,
      "planon終": 2211,
      "pentr": 2212,
      "komuni": 2213,
      "busx": 2214,
      "jor": 2215,
      "farigxis終": 2216,
      "vento終": 2217,
      "filon終": 2218,
      "eliris終": 2219,
      "vortojn終": 2220,
      "japana終": 2221,
      "japanujo終": 2222,
      "zorg": 2223,
      "atingis終": 2224,
      "klaso終": 2225,
      "posttagmeze終": 2226,
      "volu": 2227,
      "biciklon終": 2228,
      "onta終": 2229,
      "gxejo終": 2230,
      "projek": 2231,
      "forte終": 2232,
      "dono終": 2233,
      "demandi終": 2234,
      "prunte": 2235,
      "fo終": 2236,
      "cxer": 2237,
      "sxal": 2238,
      "veras終": 2239,
      "maro終": 2240,
      "novajn終": 2241,
      "rendev": 2242,
      "rendevu": 2243,
      "fing": 2244,
      "almen": 2245,
      "liajn終": 2246,
      "produk": 2247,
      "hejmo終": 2248,
      "mangxajxo終": 2249,
      "rigardi終": 2250,
      "vojagx": 2251,
      "almenaux終": 2252,
      "glas": 2253,
      "enu": 2254,
      "arti": 2255,
      "perme": 2256,
      "eniri終": 2257,
      "eksi": 2258,
      "super終": 2259,
      "pari": 2260,
      "gxustatempe終": 2261,
      "stult": 2262,
      "horojn終": 2263,
      "solvi終": 2264,
      "komputilo終": 2265,
      "personoj終": 2266,
      "historio終": 2267,
      "rimarkis終": 2268,
      "eraro終": 2269,
      "elliti": 2270,
      "auxdas終": 2271,
      "montri終": 2272,
      "lokon終": 2273,
      "proksima終": 2274,
      "cxapelon終": 2275,
      "ekti": 2276,
      "telefonon終": 2277,
      "cxesi終": 2278,
      "montris終": 2279,
      "euxro": 2280,
      "sxar": 2281,
      "mio終": 2282,
      "protek": 2283,
      "trancxi": 2284,
      "malvarmu": 2285,
      "vojagxi終": 2286,
      "panon終": 2287,
      "tata終": 2288,
      "sxu終": 2289,
      "liter": 2290,
      "taksi": 2291,
      "igo終": 2292,
      "demandas終": 2293,
      "tigas終": 2294,
      "enca終": 2295,
      "trovas終": 2296,
      "niajn終": 2297,
      "sesa終": 2298,
      "konser": 2299,
      "monato終": 2300,
      "rapida終": 2301,
      "stranga終": 2302,
      "komputilon終": 2303,
      "glaci": 2304,
      "momento終": 2305,
      "numeron終": 2306,
      "ujon終": 2307,
      "pot": 2308,
      "eskap": 2309,
      "rapor": 2310,
      "proksimume終": 2311,
      "polici": 2312,
      "tablon終": 2313,
      "fenestron終": 2314,
      "valoras終": 2315,
      "universitato終": 2316,
      "auxtomo": 2317,
      "ji": 2318,
      "ordo終": 2319,
      "okaze終": 2320,
      "doloron終": 2321,
      "nel": 2322,
      "pas終": 2323,
      "vink": 2324,
      "vinon終": 2325,
      "popul": 2326,
      "rajn終": 2327,
      "bonsxan": 2328,
      "brul": 2329,
      "urbon終": 2330,
      "aliajn終": 2331,
      "frazon終": 2332,
      "malvarma終": 2333,
      "auxskulti終": 2334,
      "trajnon終": 2335,
      "maltrankvili": 2336,
      "vidu終": 2337,
      "dezir": 2338,
      "aviadilo終": 2339,
      "rojn終": 2340,
      "tron終": 2341,
      "hazar": 2342,
      "difek": 2343,
      "negxo終": 2344,
      "vocx": 2345,
      "tino終": 2346,
      "spektis終": 2347,
      "landoj終": 2348,
      "git": 2349,
      "fruk": 2350,
      "buti": 2351,
      "bedauxrinde終": 2352,
      "saj終": 2353,
      "arbaro終": 2354,
      "spu": 2355,
      "panjo終": 2356,
      "talo終": 2357,
      "uzi": 2358,
      "onklo終": 2359,
      "mano終": 2360,
      "konst": 2361,
      "dire終": 2362,
      "duono終": 2363,
      "konsilon終": 2364,
      "malsanul": 2365,
      "gxener": 2366,
      "freneza終": 2367,
      "nervo": 2368,
      "nepre終": 2369,
      "ju終": 2370,
      "konvink": 2371,
      "temas終": 2372,
      "unuan終": 2373,
      "rakontis終": 2374,
      "situas終": 2375,
      "tenison終": 2376,
      "opinio終": 2377,
      "rel": 2378,
      "taj": 2379,
      "vel": 2380,
      "litigxis終": 2381,
      "malbone終": 2382,
      "fidas終": 2383,
      "ela終": 2384,
      "istoj終": 2385,
      "pal": 2386,
      "bonas終": 2387,
      "mangxu終": 2388,
      "rekon": 2389,
      "planas終": 2390,
      "medika": 2391,
      "dolarojn終": 2392,
      "restoracio終": 2393,
      "stojn終": 2394,
      "atak": 2395,
      "malofte終": 2396,
      "paco終": 2397,
      "horlogxo終": 2398,
      "inteligenta終": 2399,
      "ie終": 2400,
      "ono": 2401,
      "intaj終": 2402,
      "prenas終": 2403,
      "bieron終": 2404,
      "libera終": 2405,
      "euxropo終": 2406,
      "aver": 2407,
      "obe": 2408,
      "vu": 2409,
      "stro終": 2410,
      "tigxas終": 2411,
      "prin": 2412,
      "manojn終": 2413,
      "dilon終": 2414,
      "mangxajxon終": 2415,
      "fini終": 2416,
      "sukcesas終": 2417,
      "pasinta終": 2418,
      "felicxaj終": 2419,
      "memori終": 2420,
      "ekzem": 2421,
      "malfermi終": 2422,
      "edu": 2423,
      "elspez": 2424,
      "eter": 2425,
      "dili": 2426,
      "pagis終": 2427,
      "blo": 2428,
      "kontrol": 2429,
      "cxevalo終": 2430,
      "erarojn終": 2431,
      "trum": 2432,
      "kovri": 2433,
      "bak": 2434,
      "dro": 2435,
      "levi": 2436,
      "meri": 2437,
      "teg": 2438,
      "tial終": 2439,
      "org": 2440,
      "manon終": 2441,
      "seku": 2442,
      "menton終": 2443,
      "simp": 2444,
      "advo": 2445,
      "ricevi終": 2446,
      "mensogis終": 2447,
      "diligen": 2448,
      "lej": 2449,
      "luno終": 2450,
      "onojn終": 2451,
      "atan終": 2452,
      "neniel終": 2453,
      "trafi": 2454,
      "longan終": 2455,
      "kuri終": 2456,
      "konstruajxo終": 2457,
      "venontan終": 2458,
      "floroj終": 2459,
      "van終": 2460,
      "ene終": 2461,
      "print": 2462,
      "kana": 2463,
      "bebo終": 2464,
      "sukcesos終": 2465,
      "vespermangxo終": 2466,
      "rifuzis終": 2467,
      "alan終": 2468,
      "diver": 2469,
      "ludon終": 2470,
      "tagojn終": 2471,
      "zorgas終": 2472,
      "adre": 2473,
      "semajnon終": 2474,
      "traduki終": 2475,
      "veturis終": 2476,
      "gol": 2477,
      "ok終": 2478,
      "vaj終": 2479,
      "tilon終": 2480,
      "malrapide終": 2481,
      "disto終": 2482,
      "bongust": 2483,
      "ska終": 2484,
      "soci": 2485,
      "teo終": 2486,
      "instruas終": 2487,
      "mortigi終": 2488,
      "brazi": 2489,
      "televidon終": 2490,
      "vendejo終": 2491,
      "gxojn終": 2492,
      "esplor": 2493,
      "bro": 2494,
      "ure終": 2495,
      "respondis終": 2496,
      "respondon終": 2497,
      "mesagxon終": 2498,
      "prefere終": 2499,
      "auxskultas終": 2500,
      "telefonis終": 2501,
      "najbar": 2502,
      "ken終": 2503,
      "oran": 2504,
      "orig": 2505,
      "digis終": 2506,
      "sep終": 2507,
      "favor": 2508,
      "morti終": 2509,
      "kanton終": 2510,
      "bonvole終": 2511,
      "sxangxis終": 2512,
      "lernejon終": 2513,
      "florojn終": 2514,
      "pilkon終": 2515,
      "ekzempl": 2516,
      "printem": 2517,
      "mos終": 2518,
      "pura終": 2519,
      "test": 2520,
      "detru": 2521,
      "lajn終": 2522,
      "radi": 2523,
      "egal": 2524,
      "donacon終": 2525,
      "bre": 2526,
      "proba": 2527,
      "senkulp": 2528,
      "mado終": 2529,
      "malsam": 2530,
      "intencis終": 2531,
      "mensog": 2532,
      "blanka終": 2533,
      "bojn終": 2534,
      "malbonan終": 2535,
      "foriros終": 2536,
      "atentu終": 2537,
      "staris終": 2538,
      "sxuojn終": 2539,
      "stacidomo終": 2540,
      "paux": 2541,
      "prem": 2542,
      "pol": 2543,
      "detal": 2544,
      "manoj終": 2545,
      "lakton終": 2546,
      "lumon終": 2547,
      "donac": 2548,
      "bezonos終": 2549,
      "porti終": 2550,
      "kuragx": 2551,
      "klarigi終": 2552,
      "okulvi": 2553,
      "germanan終": 2554,
      "akceptis終": 2555,
      "fresx": 2556,
      "sxlosilon終": 2557,
      "cis終": 2558,
      "enta終": 2559,
      "fidi終": 2560,
      "foriru終": 2561,
      "koro終": 2562,
      "malricx": 2563,
      "elcxer": 2564,
      "bis終": 2565,
      "dre": 2566,
      "tun": 2567,
      "sxak": 2568,
      "regxo終": 2569,
      "ridis終": 2570,
      "pleni": 2571,
      "eca終": 2572,
      "grande": 2573,
      "komi": 2574,
      "belaj終": 2575,
      "fenestro終": 2576,
      "horlogxon終": 2577,
      "flugha": 2578,
      "ste終": 2579,
      "ligi": 2580,
      "dika終": 2581,
      "prokra": 2582,
      "iga終": 2583,
      "novaj終": 2584,
      "moder": 2585,
      "japanan終": 2586,
      "cxi-matene終": 2587,
      "staras終": 2588,
      "dek-": 2589,
      "venonta終": 2590,
      "dangxera終": 2591,
      "interesigxas終": 2592,
      "celo終": 2593,
      "tekst": 2594,
      "stra": 2595,
      "sxpar": 2596,
      "posxt": 2597,
      "komer": 2598,
      "problemoj終": 2599,
      "glason終": 2600,
      "malsanulejo終": 2601,
      "dra": 2602,
      "gl": 2603,
      "mel": 2604,
      "muz": 2605,
      "s-": 2606,
      "kapo終": 2607,
      "tason終": 2608,
      "kompar": 2609,
      "skon終": 2610,
      "acxe": 2611,
      "jaron終": 2612,
      "demandu終": 2613,
      "ebre": 2614,
      "lauxeble終": 2615,
      "metas終": 2616,
      "kreskis終": 2617,
      "danci終": 2618,
      "mer": 2619,
      "erg": 2620,
      "respek": 2621,
      "progre": 2622,
      "rugxa終": 2623,
      "tenis終": 2624,
      "jxet": 2625,
      "harojn終": 2626,
      "germana終": 2627,
      "minutojn終": 2628,
      "parizo終": 2629,
      "hebre": 2630,
      "ordin": 2631,
      "into終": 2632,
      "ripoz": 2633,
      "ekzak": 2634,
      "pasintan終": 2635,
      "pardonon終": 2636,
      "00終": 2637,
      "amaniere終": 2638,
      "ron": 2639,
      "roj終": 2640,
      "antojn終": 2641,
      "ezi": 2642,
      "malsano終": 2643,
      "kapti終": 2644,
      "apart": 2645,
      "propra終": 2646,
      "grek": 2647,
      "cxo": 2648,
      "revo終": 2649,
      "egan終": 2650,
      "londono終": 2651,
      "malsatas終": 2652,
      "kontenta終": 2653,
      "nego": 2654,
      "religio終": 2655,
      "simpla終": 2656,
      "amon終": 2657,
      "vendas終": 2658,
      "studis終": 2659,
      "pluvis終": 2660,
      "letero終": 2661,
      "mortinta終": 2662,
      "igxo終": 2663,
      "olog": 2664,
      "kontak": 2665,
      "bonega終": 2666,
      "patron終": 2667,
      "nomas終": 2668,
      "haltigi終": 2669,
      "okto": 2670,
      "akiri終": 2671,
      "ebria終": 2672,
      "apartamen": 2673,
      "titaj終": 2674,
      "civi": 2675,
      "malgr": 2676,
      "maldekstr": 2677,
      "des": 2678,
      "hospi": 2679,
      "eblaj終": 2680,
      "ofen": 2681,
      "isla": 2682,
      "preter": 2683,
      "konsideras終": 2684,
      "enamigxis終": 2685,
      "kine": 2686,
      "revi": 2687,
      "lago終": 2688,
      "farigxi終": 2689,
      "pasx": 2690,
      "amik": 2691,
      "sinjor": 2692,
      "relati": 2693,
      "malgraux終": 2694,
      "banko終": 2695,
      "dado終": 2696,
      "klu": 2697,
      "staro終": 2698,
      "inst": 2699,
      "maldun": 2700,
      "sidas終": 2701,
      "regx": 2702,
      "pla": 2703,
      "nagx": 2704,
      "terura終": 2705,
      "dolcx": 2706,
      "salaj": 2707,
      "malfruas終": 2708,
      "akciden": 2709,
      "historion終": 2710,
      "grupo終": 2711,
      "viandon終": 2712,
      "firmao終": 2713,
      "kro": 2714,
      "kraj": 2715,
      "kian終": 2716,
      "neniom終": 2717,
      "mondon終": 2718,
      "hundoj終": 2719,
      "kutimis終": 2720,
      "mensogas終": 2721,
      "dinda終": 2722,
      "acion終": 2723,
      "fajro終": 2724,
      "jxurn": 2725,
      "zi終": 2726,
      "tria終": 2727,
      "elojn終": 2728,
      "bonajn終": 2729,
      "akom": 2730,
      "segxo終": 2731,
      "sepa終": 2732,
      "viron終": 2733,
      "instruis終": 2734,
      "doloras終": 2735,
      "kuirejo終": 2736,
      "monatoj終": 2737,
      "cxokol": 2738,
      "oktobro終": 2739,
      "den終": 2740,
      "sing": 2741,
      "kulo終": 2742,
      "tasko終": 2743,
      "okupi": 2744,
      "elektis終": 2745,
      "birdoj終": 2746,
      "amuza終": 2747,
      "vilagxo終": 2748,
      "pov": 2749,
      "supren": 2750,
      "tut": 2751,
      "kantis終": 2752,
      "mangxos終": 2753,
      "koleras終": 2754,
      "finigxis終": 2755,
      "invitis終": 2756,
      "auxtomobi": 2757,
      "kapi": 2758,
      "homa終": 2759,
      "varma終": 2760,
      "buson終": 2761,
      "unufoje終": 2762,
      "pluvas終": 2763,
      "lernej": 2764,
      "renkonti": 2765,
      "lernantoj終": 2766,
      "grim": 2767,
      "lejla終": 2768,
      "bank": 2769,
      "goj終": 2770,
      "hol": 2771,
      "muro終": 2772,
      "esti": 2773,
      "konsentis終": 2774,
      "amuzi": 2775,
      "kompl": 2776,
      "urb": 2777,
      "monate終": 2778,
      "pregxejo終": 2779,
      "interre": 2780,
      "agxe終": 2781,
      "tenu終": 2782,
      "klare終": 2783,
      "rakonto終": 2784,
      "sako終": 2785,
      "mion終": 2786,
      "ligi終": 2787,
      "mont": 2788,
      "logxi終": 2789,
      "frazojn終": 2790,
      "cxeestis終": 2791,
      "ekzer": 2792,
      "vekigxis終": 2793,
      "momente終": 2794,
      "eti": 2795,
      "troj終": 2796,
      "malmulte終": 2797,
      "real": 2798,
      "konata終": 2799,
      "dispon": 2800,
      "volon": 2801,
      "lasos終": 2802,
      "doku": 2803,
      "surhavis終": 2804,
      "edzinon終": 2805,
      "usona終": 2806,
      "suferas終": 2807,
      "foli": 2808,
      "patrinon終": 2809,
      "koramikino終": 2810,
      "skribu終": 2811,
      "fron": 2812,
      "cxiumatene終": 2813,
      "hararon終": 2814,
      "impres": 2815,
      "malsxpar": 2816,
      "matematiko終": 2817,
      "beb": 2818,
      "pir": 2819,
      "toler": 2820,
      "tomason終": 2821,
      "esperanton終": 2822,
      "dangxero終": 2823,
      "universo終": 2824,
      "evidente終": 2825,
      "anstataux終": 2826,
      "ekzakte終": 2827,
      "go": 2828,
      "iliaj終": 2829,
      "nas終": 2830,
      "sojn終": 2831,
      "stir": 2832,
      "ignor": 2833,
      "luk": 2834,
      "dosi": 2835,
      "francio終": 2836,
      "kunveno終": 2837,
      "haltis終": 2838,
      "kolera終": 2839,
      "aflik": 2840,
      "vortaro終": 2841,
      "posedas終": 2842,
      "cir": 2843,
      "gren": 2844,
      "eston終": 2845,
      "timis終": 2846,
      "efekti": 2847,
      "temo終": 2848,
      "konsistas終": 2849,
      "malfermita終": 2850,
      "sxuoj終": 2851,
      "vizagxon終": 2852,
      "hero": 2853,
      "nelon": 2854,
      "probable終": 2855,
      "rop": 2856,
      "tante終": 2857,
      "onkl": 2858,
      "plej": 2859,
      "lav": 2860,
      "pacxjo終": 2861,
      "kompan": 2862,
      "naci": 2863,
      "vokis終": 2864,
      "zorgi終": 2865,
      "suficxas終": 2866,
      "akompan": 2867,
      "indu": 2868,
      "indas終": 2869,
      "verkis終": 2870,
      "jxal": 2871,
      "movi": 2872,
      "auxskultis終": 2873,
      "ismo終": 2874,
      "birdo終": 2875,
      "dependas終": 2876,
      "proponon終": 2877,
      "popolo終": 2878,
      "permesi": 2879,
      "nelonge終": 2880,
      "pomojn終": 2881,
      "trej": 2882,
      "jarcen": 2883,
      "influ": 2884,
      "kantas終": 2885,
      "trans終": 2886,
      "interesas終": 2887,
      "kalkul": 2888,
      "fieras終": 2889,
      "non終": 2890,
      "oto終": 2891,
      "sti終": 2892,
      "arto終": 2893,
      "malal": 2894,
      "kanto終": 2895,
      "cxesi": 2896,
      "centro終": 2897,
      "fraton終": 2898,
      "fratinon終": 2899,
      "plane": 2900,
      "anstataux": 2901,
      "tigu終": 2902,
      "arme": 2903,
      "pozi": 2904,
      "kondi": 2905,
      "blo終": 2906,
      "danta終": 2907,
      "felicxi": 2908,
      "akcepti終": 2909,
      "utila終": 2910,
      "fremd": 2911,
      "honesta終": 2912,
      "jorko終": 2913,
      "avino終": 2914,
      "kver": 2915,
      "rol": 2916,
      "ordi": 2917,
      "pomon終": 2918,
      "mitaj終": 2919,
      "kukon終": 2920,
      "kapon終": 2921,
      "kasxis終": 2922,
      "marian終": 2923,
      "lauxte終": 2924,
      "somero終": 2925,
      "supren終": 2926,
      "saluton終": 2927,
      "cxemizon終": 2928,
      "relative終": 2929,
      "fas終": 2930,
      "entre": 2931,
      "plagxo終": 2932,
      "jxetis終": 2933,
      "ekster終": 2934,
      "bostonon終": 2935,
      "fut": 2936,
      "sxlosil": 2937,
      "biciklo終": 2938,
      "vundita終": 2939,
      "vizagxo終": 2940,
      "afabl": 2941,
      "vortaron終": 2942,
      "dimancxe終": 2943,
      "prezidanto終": 2944,
      "ras終": 2945,
      "su終": 2946,
      "veg": 2947,
      "konver": 2948,
      "dirus終": 2949,
      "fermis終": 2950,
      "skribo": 2951,
      "hundojn終": 2952,
      "nombr": 2953,
      "malfacilas終": 2954,
      "sank": 2955,
      "zono終": 2956,
      "listo終": 2957,
      "resan": 2958,
      "prezo終": 2959,
      "konduto終": 2960,
      "utilas終": 2961,
      "nuntempe終": 2962,
      "gxenerale終": 2963,
      "aser": 2964,
      "cin": 2965,
      "sagxa終": 2966,
      "tiaj終": 2967,
      "dilo終": 2968,
      "katojn終": 2969,
      "foton終": 2970,
      "spekti終": 2971,
      "tea": 2972,
      "sukero終": 2973,
      "lastatempe終": 2974,
      "flanko終": 2975,
      "klarigis終": 2976,
      "rekomen": 2977,
      "auxskultu終": 2978,
      "germanio終": 2979,
      "ponto終": 2980,
      "afri": 2981,
      "plenumi終": 2982,
      "sistemo終": 2983,
      "malkovris終": 2984,
      "hazarde終": 2985,
      "aero終": 2986,
      "ci終": 2987,
      "fro": 2988,
      "krom": 2989,
      "laj終": 2990,
      "gxis": 2991,
      "algxer": 2992,
      "turi": 2993,
      "grandas終": 2994,
      "priv": 2995,
      "felicxas終": 2996,
      "konsilis終": 2997,
      "flughaveno終": 2998,
      "seni": 2999,
      "zo": 3000,
      "sxtor": 3001,
      "bonvolas終": 3002,
      "uzu終": 3003,
      "koloro終": 3004,
      "kuras終": 3005,
      "kvina終": 3006,
      "registaro終": 3007,
      "nigra終": 3008,
      "apo": 3009,
      "eon終": 3010,
      "igx": 3011,
      "maj": 3012,
      "malpravas終": 3013,
      "cxie終": 3014,
      "scio終": 3015,
      "voje終": 3016,
      "akiris終": 3017,
      "lundo終": 3018,
      "estonteco終": 3019,
      "proponis終": 3020,
      "lan終": 3021,
      "ra終": 3022,
      "deka終": 3023,
      "ekono": 3024,
      "pag": 3025,
      "prenos終": 3026,
      "infanon終": 3027,
      "teron終": 3028,
      "samtempe終": 3029,
      "telefoni終": 3030,
      "manieron終": 3031,
      "fantom": 3032,
      "tauxgas終": 3033,
      "deseg": 3034,
      "besto終": 3035,
      "coj終": 3036,
      "stato終": 3037,
      "prakti": 3038,
      "scienco終": 3039,
      "antaro終": 3040,
      "mario終": 3041,
      "tema終": 3042,
      "bilet": 3043,
      "filinon終": 3044,
      "turon終": 3045,
      "vestajxojn終": 3046,
      "pasigi終": 3047,
      "alportis終": 3048,
      "caj終": 3049,
      "igxu終": 3050,
      "okci": 3051,
      "entoj終": 3052,
      "ligas終": 3053,
      "risk": 3054,
      "konkur": 3055,
      "kasx": 3056,
      "okazi終": 3057,
      "lasas終": 3058,
      "frazoj終": 3059,
      "korpo終": 3060,
      "plimulto終": 3061,
      "vizitas終": 3062,
      "bildon終": 3063,
      "amikinon終": 3064,
      "euxrop": 3065,
      "psi": 3066,
      "scienc": 3067,
      "profi": 3068,
      "pianon終": 3069,
      "boj": 3070,
      "koramiko終": 3071,
      "eviti終": 3072,
      "malvarme終": 3073,
      "familion終": 3074,
      "permesu終": 3075,
      "gxuas終": 3076,
      "dubas終": 3077,
      "insulo終": 3078,
      "malliberejo終": 3079,
      "from": 3080,
      "tuno終": 3081,
      "malaperis終": 3082,
      "sep": 3083,
      "fero終": 3084,
      "parolos終": 3085,
      "dena": 3086,
      "portu": 3087,
      "sekvis終": 3088,
      "edzigxis終": 3089,
      "ripari終": 3090,
      "disting": 3091,
      "bol": 3092,
      "cojn終": 3093,
      "glu": 3094,
      "pano終": 3095,
      "arboj終": 3096,
      "kialon終": 3097,
      "simi": 3098,
      "embar": 3099,
      "nacia終": 3100,
      "bordo終": 3101,
      "grave": 3102,
      "gitaj終": 3103,
      "butiko終": 3104,
      "robon終": 3105,
      "opinie終": 3106,
      "kunsi": 3107,
      "kapablis終": 3108,
      "sakon終": 3109,
      "antikv": 3110,
      "cxarma終": 3111,
      "populara終": 3112,
      "singar": 3113,
      "apro": 3114,
      "agas終": 3115,
      "jac": 3116,
      "enir": 3117,
      "arab": 3118,
      "malnovan終": 3119,
      "malricxa終": 3120,
      "kuni": 3121,
      "venkis終": 3122,
      "sensen": 3123,
      "fermita終": 3124,
      "malsata終": 3125,
      "sekv": 3126,
      "plene終": 3127,
      "rompi": 3128,
      "angle終": 3129,
      "eraras終": 3130,
      "veturas終": 3131,
      "eksplo": 3132,
      "gxuis終": 3133,
      "sxuldas終": 3134,
      "kristnasko終": 3135,
      "gajni終": 3136,
      "postulas終": 3137,
      "artikol": 3138,
      "advokato終": 3139,
      "adreson終": 3140,
      "ami終": 3141,
      "adas終": 3142,
      "aopinie終": 3143,
      "bur": 3144,
      "ana終": 3145,
      "anojn終": 3146,
      "provos終": 3147,
      "serpen": 3148,
      "landon終": 3149,
      "cxinio終": 3150,
      "koncerto終": 3151,
      "plezuro終": 3152,
      "rugxan終": 3153,
      "meritas終": 3154,
      "evolu": 3155,
      "gojn終": 3156,
      "tecon終": 3157,
      "gxia終": 3158,
      "malmultaj終": 3159,
      "defen": 3160,
      "ekse": 3161,
      "emaj終": 3162,
      "kutimas終": 3163,
      "acxetas終": 3164,
      "rakonti終": 3165,
      "surprizita終": 3166,
      "ridetis終": 3167,
      "organi": 3168,
      "dispu": 3169,
      "duo": 3170,
      "forlasi終": 3171,
      "uran終": 3172,
      "vast": 3173,
      "sand": 3174,
      "montru終": 3175,
      "alvokis終": 3176,
      "strecxi": 3177,
      "okulvitrojn終": 3178,
      "sxtu": 3179,
      "eksciis終": 3180,
      "vendre": 3181,
      "perdi終": 3182,
      "egi": 3183,
      "mortos終": 3184,
      "grandajn終": 3185,
      "bob終": 3186,
      "opiniis終": 3187,
      "kulpas終": 3188,
      "projekto終": 3189,
      "adi終": 3190,
      "ena終": 3191,
      "alko": 3192,
      "blan終": 3193,
      "dufoje終": 3194,
      "sendi終": 3195,
      "legu終": 3196,
      "kompreneble終": 3197,
      "kauxzis終": 3198,
      "kuraciston終": 3199,
      "dauxris終": 3200,
      "peza終": 3201,
      "feston終": 3202,
      "dolaroj終": 3203,
      "hospitalo終": 3204,
      "planedo終": 3205,
      "bulo終": 3206,
      "enton終": 3207,
      "tiu": 3208,
      "malproksime終": 3209,
      "kuiri終": 3210,
      "havus終": 3211,
      "venki終": 3212,
      "komun": 3213,
      "nagxas終": 3214,
      "menci": 3215,
      "postenon終": 3216,
      "deziris終": 3217,
      "belega終": 3218,
      "nombro終": 3219,
      "malsanas終": 3220,
      "malfermu終": 3221,
      "batis終": 3222,
      "fisxo終": 3223,
      "adiaux": 3224,
      "mirinda終": 3225,
      "hispanan終": 3226,
      "oci": 3227,
      "tano終": 3228,
      "stiri終": 3229,
      "stelo終": 3230,
      "suspek": 3231,
      "tagmangxo終": 3232,
      "geedz": 3233,
      "facilas終": 3234,
      "zorgu終": 3235,
      "celas終": 3236,
      "blua終": 3237,
      "perfekta終": 3238,
      "ameriko終": 3239,
      "jxaluz": 3240,
      "hezi": 3241,
      "enhavas終": 3242,
      "kialo終": 3243,
      "fermu終": 3244,
      "eblan終": 3245,
      "espero終": 3246,
      "mendis終": 3247,
      "balon終": 3248,
      "fraux": 3249,
      "datoj終": 3250,
      "supre終": 3251,
      "imagi終": 3252,
      "brazilo終": 3253,
      "ster": 3254,
      "malhel": 3255,
      "lerta終": 3256,
      "aligxis終": 3257,
      "finon終": 3258,
      "solaj終": 3259,
      "ploras終": 3260,
      "strando終": 3261,
      "nauxa終": 3262,
      "sekura終": 3263,
      "fojfoje終": 3264,
      "dus終": 3265,
      "iden": 3266,
      "med": 3267,
      "oper": 3268,
      "tulo終": 3269,
      "sus終": 3270,
      "pak": 3271,
      "monto終": 3272,
      "fabri": 3273,
      "soi": 3274,
      "preferus終": 3275,
      "preferata終": 3276,
      "koncerne終": 3277,
      "najbaro終": 3278,
      "edzinigxis終": 3279,
      "serioze終": 3280,
      "idio": 3281,
      "ofer": 3282,
      "ovojn終": 3283,
      "energ": 3284,
      "elteni終": 3285,
      "pacon終": 3286,
      "sencon終": 3287,
      "sendepen": 3288,
      "survoje終": 3289,
      "belas終": 3290,
      "matenmangxo終": 3291,
      "ricevas終": 3292,
      "semajnoj終": 3293,
      "germanujo終": 3294,
      "algxerio終": 3295,
      "-a終": 3296,
      "dato終": 3297,
      "oka終": 3298,
      "tigxi終": 3299,
      "sxo終": 3300,
      "povu終": 3301,
      "konsciis終": 3302,
      "prof": 3303,
      "skis終": 3304,
      "pensu終": 3305,
      "temper": 3306,
      "instrui終": 3307,
      "komenci終": 3308,
      "flank": 3309,
      "gepatrojn終": 3310,
      "absol": 3311,
      "vintro終": 3312,
      "bruo終": 3313,
      "skatolon終": 3314,
      "origin": 3315,
      "sandvi": 3316,
      "alkohol": 3317,
      "afoje終": 3318,
      "etoj終": 3319,
      "iel終": 3320,
      "um": 3321,
      "tilo終": 3322,
      "kioto終": 3323,
      "pomo終": 3324,
      "malsukcesis終": 3325,
      "havu終": 3326,
      "fizi": 3327,
      "ejoj終": 3328,
      "sop": 3329,
      "meto": 3330,
      "petu終": 3331,
      "nomis終": 3332,
      "decidon終": 3333,
      "komencu終": 3334,
      "elekti終": 3335,
      "kvindek終": 3336,
      "onklino終": 3337,
      "sxlosilojn終": 3338,
      "avan": 3339,
      "geni": 3340,
      "vul": 3341,
      "enoj終": 3342,
      "arest": 3343,
      "gxi": 3344,
      "inven": 3345,
      "vita終": 3346,
      "ree終": 3347,
      "egon終": 3348,
      "vocxon終": 3349,
      "frapis終": 3350,
      "kanad": 3351,
      "sonor": 3352,
      "kontrak": 3353,
      "kriti": 3354,
      "eksteren終": 3355,
      "bill終": 3356,
      "akceptas終": 3357,
      "regulojn終": 3358,
      "veki": 3359,
      "sporto終": 3360,
      "promeni終": 3361,
      "vojagxis終": 3362,
      "fridu": 3363,
      "diligente終": 3364,
      "acxetos終": 3365,
      "iujn終": 3366,
      "gxem": 3367,
      "allo": 3368,
      "sxr": 3369,
      "pomoj終": 3370,
      "elef": 3371,
      "verkisto終": 3372,
      "hungar": 3373,
      "ekstar": 3374,
      "samo終": 3375,
      "placxis終": 3376,
      "trankvila終": 3377,
      "piedpil": 3378,
      "nekre": 3379,
      "blankan終": 3380,
      "profunda終": 3381,
      "policisto終": 3382,
      "konvinki終": 3383,
      "entrepren": 3384,
      "tan": 3385,
      "timo終": 3386,
      "migxi終": 3387,
      "regas終": 3388,
      "amaso終": 3389,
      "dum": 3390,
      "atenton終": 3391,
      "bov": 3392,
      "ekstre": 3393,
      "berber": 3394,
      "plori終": 3395,
      "permesi終": 3396,
      "usonanoj終": 3397,
      "onidir": 3398,
      "jane終": 3399,
      "pant": 3400,
      "sagx": 3401,
      "aturo終": 3402,
      "supo終": 3403,
      "laci": 3404,
      "bonege終": 3405,
      "sciu終": 3406,
      "biero終": 3407,
      "demandoj終": 3408,
      "mema終": 3409,
      "felicxo終": 3410,
      "mateno終": 3411,
      "vizitos終": 3412,
      "somer": 3413,
      "plenumis終": 3414,
      "purigi終": 3415,
      "agrabla終": 3416,
      "papero終": 3417,
      "masxino終": 3418,
      "butiku": 3419,
      "sekure": 3420,
      "s-ro終": 3421,
      "povintus終": 3422,
      "armeo終": 3423,
      "celon終": 3424,
      "os": 3425,
      "sul": 3426,
      "steloj終": 3427,
      "are終": 3428,
      "kusxas終": 3429,
      "ome": 3430,
      "ditaj終": 3431,
      "vena終": 3432,
      "vendi終": 3433,
      "brun": 3434,
      "fratoj終": 3435,
      "junaj終": 3436,
      "sekva終": 3437,
      "sukcesi終": 3438,
      "kriis終": 3439,
      "gxustan終": 3440,
      "impost": 3441,
      "eraroj終": 3442,
      "forgesi終": 3443,
      "taskon終": 3444,
      "kvardek終": 3445,
      "distan": 3446,
      "skatolo終": 3447,
      "hejmtaskojn終": 3448,
      "bebon終": 3449,
      "denaska終": 3450,
      "absolu": 3451,
      "fleg": 3452,
      "mam": 3453,
      "enojn終": 3454,
      "malplena終": 3455,
      "mantelon終": 3456,
      "atendos終": 3457,
      "esperis終": 3458,
      "kvali": 3459,
      "flue終": 3460,
      "acxetu終": 3461,
      "decido終": 3462,
      "sincer": 3463,
      "ofici": 3464,
      "punkto終": 3465,
      "komencigxis終": 3466,
      "gitaron終": 3467,
      "jarcento終": 3468,
      "bileton終": 3469,
      "avanta": 3470,
      "tar": 3471,
      "tanta終": 3472,
      "kistoj終": 3473,
      "aloj終": 3474,
      "sxto": 3475,
      "lam": 3476,
      "latin": 3477,
      "forto終": 3478,
      "speg": 3479,
      "senton終": 3480,
      "legom": 3481,
      "savi終": 3482,
      "komenco終": 3483,
      "konstruis終": 3484,
      "sana終": 3485,
      "permesas終": 3486,
      "objek": 3487,
      "maljunulo終": 3488,
      "humor": 3489,
      "diferenco終": 3490,
      "farend": 3491,
      "odoras終": 3492,
      "data終": 3493,
      "noj終": 3494,
      "oce": 3495,
      "pron": 3496,
      "mallu": 3497,
      "kuiras終": 3498,
      "auxa終": 3499
    },
    "merges": [
      "a s終",
      "s t",
      "i s終",
      "l a終",
      "o n終",
      "e st",
      "m i終",
      "e n",
      "a n",
      "c x",
      "t i",
      "o n",
      "e r",
      "est as終",
      "t o",
      "a r",
      "g x",
      "k i",
      "n e終",
      "v i終",
      "a l",
      "o r",
      "l i終",
      "i n",
      "s x",
      "p r",
      "v i",
      "p o",
      "m i",
      "a j終",
      "a u",
      "j n終",
      "m o終",
      "t r",
      "a n終",
      "a l終",
      "l i",
      "o j終",
      "e n終",
      "v as終",
      "d e終",
      "i r",
      "to mo終",
      "a t",
      "c i",
      "k e終",
      "m al",
      "o l",
      "s i",
      "d e",
      "k u",
      "cx u終",
      "au x終",
      "e k",
      "e l",
      "n i終",
      "o m",
      "o jn終",
      "r e",
      "o s終",
      "m an",
      "r i",
      "u n",
      "t a終",
      "p l",
      "u l",
      "a m終",
      "a j",
      "k on",
      "cx i",
      "k aj終",
      "h a",
      "est is終",
      "s u",
      "au x",
      "e t",
      "sx i終",
      "e s",
      "d i",
      "e l終",
      "l a",
      "f ar",
      "r a",
      "b on",
      "t o終",
      "t e終",
      "v ol",
      "e m",
      "to m終",
      "p a",
      "po r終",
      "k a",
      "p ar",
      "ti o終",
      "d o終",
      "a m",
      "j o終",
      "v en",
      "s ci",
      "cx i終",
      "u n終",
      "d ir",
      "po vas終",
      "d is終",
      "p er",
      "d a終",
      "ha vas終",
      "b l",
      "en i",
      "gx is終",
      "a jn終",
      "mi a終",
      "ti on終",
      "u s終",
      "pr o",
      "f i",
      "ti u終",
      "pr i終",
      "gx i終",
      "v er",
      "t a",
      "d u",
      "n eni",
      "r u",
      "f or",
      "p li終",
      "v is終",
      "t u",
      "t as終",
      "e z",
      "an k",
      "d as終",
      "e g",
      "i n終",
      "vol as終",
      "mi n終",
      "s p",
      "i g",
      "i li終",
      "t on終",
      "a k",
      "r an",
      "t is終",
      "ki el終",
      "b r",
      "sx at",
      "ki on終",
      "m ul",
      "ku n終",
      "p en",
      "k om",
      "u r",
      "in t",
      "s e",
      "i a終",
      "in o終",
      "d i終",
      "m on",
      "gx as終",
      "l u",
      "n e",
      "s en",
      "n o",
      "z i",
      "f er",
      "u j終",
      "aj x",
      "vi n終",
      "p i",
      "an t",
      "o m終",
      "ki u終",
      "k o終",
      "m ar",
      "tr e終",
      "l o",
      "to j終",
      "sci as終",
      "n a",
      "j e終",
      "d on",
      "to m",
      "f a",
      "n u",
      "b or",
      "m or",
      "li n終",
      "s k",
      "ki am終",
      "d on終",
      "la bor",
      "ti e終",
      "o l終",
      "l er",
      "pen s",
      "vi a終",
      "v o終",
      "i o終",
      "e c",
      "sxat as終",
      "st o終",
      "s o終",
      "e d",
      "at en",
      "k re",
      "dir is終",
      "e j",
      "on i終",
      "pr en",
      "e r終",
      "far i終",
      "tr o終",
      "v o",
      "ta g",
      "par ol",
      "t i終",
      "man jo終",
      "p o終",
      "d en",
      "a mi",
      "s e終",
      "on o終",
      "t em",
      "t aj終",
      "gx o終",
      "l o終",
      "aj n",
      "gx in終",
      "d u終",
      "b i",
      "est i終",
      "f o",
      "h el",
      "h o",
      "pl e",
      "t el",
      "de vas終",
      "a cx",
      "e bl",
      "e li",
      "se d終",
      "ti un終",
      "ple j終",
      "ki o終",
      "si an終",
      "at o終",
      "nu r終",
      "in g",
      "j ar",
      "an o終",
      "en c",
      "i on終",
      "g is終",
      "al i",
      "ki al終",
      "es per",
      "s o",
      "g ran",
      "tr o",
      "g i終",
      "su r終",
      "b o",
      "mi an終",
      "b o終",
      "ir i終",
      "neni am終",
      "b ez",
      "r o終",
      "un u終",
      "to jn終",
      "bez on",
      "bon e終",
      "li a終",
      "no v",
      "li br",
      "ku l",
      "ka z",
      "p or",
      "p er終",
      "du m終",
      "er o終",
      "pr e",
      "h om",
      "cxi uj終",
      "bon a終",
      "si a終",
      "o kaz",
      "l on終",
      "hel p",
      "in i",
      "k o",
      "n un終",
      "u z",
      "pens as終",
      "at a終",
      "g ra",
      "c er",
      "c e",
      "in f",
      "ank or",
      "cx e終",
      "m en",
      "h i",
      "et is終",
      "ti n",
      "ankor aux終",
      "ir as終",
      "st ru",
      "vi an終",
      "m e終",
      "an g",
      "ul o終",
      "h ej",
      "sp ek",
      "ir is終",
      "a p",
      "o t",
      "pr o終",
      "la s",
      "v ar",
      "ki e終",
      "c es",
      "far is終",
      "e f",
      "pa tr",
      "d or",
      "ti el終",
      "l eg",
      "v us終",
      "n i",
      "pr i",
      "d an",
      "s er",
      "r en",
      "ant aux終",
      "l ing",
      "d o",
      "int er",
      "m e",
      "a gx",
      "l an",
      "bezon as終",
      "g i",
      "f ran",
      "k ol",
      "ki om終",
      "de man",
      "fa ci",
      "mul te終",
      "g ar",
      "k on終",
      "vi dis終",
      "o p",
      "f ra",
      "t an終",
      "est os終",
      "ven is終",
      "g as終",
      "m a",
      "sk ri",
      "ver e終",
      "cxi am終",
      "l on",
      "mal s",
      "f ru",
      "t en",
      "b u",
      "a so終",
      "t e",
      "j am終",
      "k an",
      "q u",
      "j un",
      "ho di",
      "& qu",
      "ot ;終",
      "&qu ot;終",
      "v os終",
      "fran c",
      "tom on終",
      "j on終",
      "m as終",
      "ki un終",
      "st u",
      "su r",
      "par o",
      "in k",
      "s ek",
      "bon vol",
      "h or",
      "kom pren",
      "hodi aux終",
      "p u",
      "k na",
      "g e",
      "s on",
      "k v",
      "ar o終",
      "v on終",
      "paro li終",
      "tr a",
      "r o",
      "ajx o終",
      "sx in終",
      "ebl e終",
      "po s",
      "ha vis終",
      "lon g",
      "parol as終",
      "tom aso終",
      "an oj終",
      "pl en",
      "c o終",
      "v or",
      "tr i終",
      "un u",
      "k or",
      "j x",
      "t er",
      "neni u終",
      "hom oj終",
      "po st",
      "m o",
      "de k終",
      "su k",
      "u st",
      "a do終",
      "e b",
      "u jn終",
      "sx an",
      "z o終",
      "vi r",
      "h un",
      "bonvol u終",
      "st r",
      "cx am",
      "skri b",
      "k el",
      "ra pi",
      "m u",
      "cx a",
      "i gxis終",
      "m em",
      "ec o終",
      "kon tr",
      "in stru",
      "m is終",
      "man gx",
      "v et",
      "kre das終",
      "o f",
      "am as終",
      "de z",
      "pl u",
      "f in",
      "dir i終",
      "cxam br",
      "s on終",
      "faci l",
      "ler ne",
      "ri gar",
      "t u終",
      "pos t終",
      "f eli",
      "tem po終",
      "mar y終",
      "pl u終",
      "m on終",
      "ku r",
      "gran da終",
      "ci o終",
      "vol is終",
      "er on終",
      "b e",
      "suk ces",
      "a fer",
      "i u終",
      "mi li",
      "mar ia終",
      "m a終",
      "ek st",
      "n ia終",
      "dir as終",
      "tr an",
      "k l",
      "tu te終",
      "k si",
      "p et",
      "sp on",
      "p on終",
      "s am",
      "fi l",
      "sci is終",
      "p li",
      "to s終",
      "aux r",
      "cxi u終",
      "d oj終",
      "k aux終",
      "si n終",
      "ant aux",
      "pro bl",
      "ig is終",
      "mul taj終",
      "e vi",
      "ajx on終",
      "do mo終",
      "sx ajn",
      "hi er",
      "b el",
      "pa tro終",
      "a spek",
      "op ini",
      "k ri",
      "ven os終",
      "e jo終",
      "b er",
      "bo st",
      "s em",
      "gx os終",
      "ed z",
      "k oj終",
      "r aj",
      "hier aux終",
      "sx i",
      "k a終",
      "pa s",
      "v esper",
      "fo je終",
      "tel ef",
      "f u",
      "far as終",
      "feli cx",
      "d an終",
      "cx e",
      "v e終",
      "s a",
      "kna b",
      "mul t",
      "n om",
      "mi aj終",
      "of te終",
      "an te終",
      "cxa r終",
      "mor g",
      "an ta終",
      "re spon",
      "i om終",
      "ti om終",
      "vi di終",
      "ank aux終",
      "c en",
      "c on終",
      "k is終",
      "r om",
      "morg aux終",
      "st as終",
      "i ta終",
      "ku n",
      "b a",
      "d ol",
      "i sto終",
      "help i終",
      "es is終",
      "ren kon",
      "est u終",
      "ku ra",
      "so la終",
      "po vis終",
      "ku ti",
      "ti uj終",
      "b al",
      "m aten",
      "vi zi",
      "no k",
      "su fi",
      "ler n",
      "tr ink",
      "in on終",
      "j ap",
      "kon si",
      "on on終",
      "i lin終",
      "v a終",
      "ka p",
      "i am終",
      "ec x終",
      "et o終",
      "ig i終",
      "vi vo終",
      "bost ono終",
      "g o終",
      "gx ust",
      "la st",
      "libr on終",
      "dez iras終",
      "po vus終",
      "n in終",
      "hej m",
      "l e",
      "s ol",
      "j en終",
      "cxi o終",
      "kon as終",
      "ka pa",
      "lo gxas終",
      "pr es",
      "pro ksi",
      "f r",
      "in ta終",
      "f lu",
      "cxi on終",
      "l aux終",
      "ir u終",
      "neni on終",
      "s en終",
      "tr i",
      "don is終",
      "po li",
      "mem or",
      "al o終",
      "est us終",
      "acx et",
      "k as終",
      "jap an",
      "cxi u",
      "st oj終",
      "at on終",
      "om en",
      "aj ne終",
      "f un",
      "ki uj終",
      "sx ia終",
      "fru e終",
      "si m",
      "ar on終",
      "lerne jo終",
      "a gxo終",
      "bon an終",
      "patr ino終",
      "d ojn終",
      "ajx ojn終",
      "vo j",
      "s ki",
      "ti en終",
      "l et",
      "facil e終",
      "kapa bl",
      "de ci",
      "ul oj終",
      "an on終",
      "kom enc",
      "okaz is終",
      "opini as終",
      "g en",
      "v u終",
      "rapi de終",
      "for g",
      "mon on終",
      "el o終",
      "cxi -",
      "franc an終",
      "st ar",
      "pr ez",
      "f l",
      "jar oj終",
      "j u",
      "z or",
      "be la終",
      "de vus終",
      "o ku",
      "an to終",
      "aux dis終",
      "inf anoj終",
      "d om",
      "ur bo終",
      "ig as終",
      "acx etis終",
      "si ajn終",
      "in oj終",
      "far u終",
      "j o",
      "gx on終",
      "al ia終",
      "ek zi",
      "tag o終",
      "jun a終",
      "de k",
      "ajx oj終",
      "s al",
      "sxajn as終",
      "a d",
      "el ek",
      "m in",
      "ang l",
      "ami ko終",
      "ek z",
      "dir u終",
      "g a",
      "sen tas終",
      "mals an",
      "ir os終",
      "kl ar",
      "ri ce",
      "k i終",
      "su b",
      "ekst er",
      "tro vis終",
      "mon o終",
      "mal fer",
      "sxat us終",
      "p e終",
      "pres kaux終",
      "g u終",
      "cxambr o終",
      "li ber",
      "z on終",
      "ri cx",
      "sufi cxe終",
      "aspek tas終",
      "long e終",
      "m es",
      "nov a終",
      "gx o",
      "gx u終",
      "probl em",
      "e mo終",
      "l aux",
      "est o終",
      "si aj終",
      "d os終",
      "tu j終",
      "k ar",
      "m et",
      "gx en",
      "me m終",
      "cx ir",
      "v a",
      "vi ro終",
      "lan do終",
      "i de",
      "sem ajn",
      "pre fer",
      "ling vo終",
      "k ato終",
      "or o終",
      "s kul",
      "raj tas終",
      "mon do終",
      "mal var",
      "ce p",
      "fra tin",
      "aux to終",
      "man gxas終",
      "mor ti",
      "libr o終",
      "pr a",
      "man i",
      "don u終",
      "m ez",
      "k aux",
      "d a",
      "g a終",
      "p etis終",
      "labor o終",
      "aux ton終",
      "ge patr",
      "ne ces",
      "kompren as終",
      "tu r",
      "labor as終",
      "hej me終",
      "man gxi終",
      "di s",
      "mult ajn終",
      "tran s",
      "labor on終",
      "nov an終",
      "k ci",
      "r ek",
      "ali an終",
      "am b",
      "ebl as終",
      "ka jn終",
      "kontr aux終",
      "ven i終",
      "b la終",
      "s ono終",
      "vi aj終",
      "un i",
      "sx t",
      "tem pon終",
      "e s終",
      "li an終",
      "ami koj終",
      "ra kon",
      "pl or",
      "po z",
      "jx us終",
      "o kul",
      "h ar",
      "ki n",
      "b li",
      "aux skul",
      "bal d",
      "el on終",
      "f ak",
      "sx ajne終",
      "den to終",
      "ka f",
      "er i",
      "esper as終",
      "ven as終",
      "mi l",
      "mu zi",
      "i m",
      "b ed",
      "hun do終",
      "u jo終",
      "hejm en終",
      "int enc",
      "pens is終",
      "bald aux終",
      "telef on",
      "f al",
      "man gxis終",
      "parol is終",
      "d er",
      "an toj終",
      "d aj終",
      "r is終",
      "ler ni終",
      "bed auxr",
      "v al",
      "a cio終",
      "men so",
      "si g",
      "hor o終",
      "sim pl",
      "pl acx",
      "a par",
      "b on終",
      "j a終",
      "o ve終",
      "g er",
      "ho mo終",
      "den ove終",
      "d ank",
      "int er終",
      "cx es",
      "mi ajn終",
      "ed zi",
      "p an",
      "jo h",
      "h al",
      "far os終",
      "angl an終",
      "i un終",
      "kon du",
      "mor tis終",
      "vesper e終",
      "na ski",
      "vi ajn終",
      "ekzi stas終",
      "man jon終",
      "kura ci",
      "ta bl",
      "pet as終",
      "i s",
      "b ra",
      "acxet i終",
      "vi vas終",
      "vi das終",
      "b at",
      "k ojn終",
      "b ar",
      "c a終",
      "tr ajn",
      "ver on終",
      "ec on終",
      "unu a終",
      "ger man",
      "di o終",
      "kon stru",
      "f en",
      "ti mas終",
      "bi l",
      "ser cx",
      "ti gxis終",
      "tu ta終",
      "b ri",
      "sci povas終",
      "fa mili",
      "don i終",
      "s i終",
      "sci i終",
      "ak vo終",
      "li aj終",
      "re z",
      "un o終",
      "s in",
      "ki a終",
      "a tin",
      "kv a",
      "eg as終",
      "felicx a終",
      "inf an",
      "am en",
      "inter es",
      "s an",
      "at em",
      "st ul",
      "pro vis終",
      "instru isto終",
      "er ar",
      "maten e終",
      "las is終",
      "p on",
      "ha vi終",
      "st ran",
      "ur o終",
      "de vis終",
      "tra du",
      "amb aux終",
      "las u終",
      "pl an",
      "tu tan終",
      "kel kajn終",
      "t al",
      "a mo終",
      "al venis終",
      "tag e終",
      "tr ank",
      "trank vi",
      "tel evi",
      "a b",
      "d in",
      "cx ef",
      "simpl e終",
      "gepatr oj終",
      "i gxas終",
      "eg a終",
      "ak cep",
      "v est",
      "st on終",
      "agx a終",
      "g os終",
      "agx on終",
      "d auxr",
      "v oj終",
      "pr et",
      "i gxi終",
      "m oj終",
      "tro vi終",
      "su poz",
      "edz ino終",
      "de v",
      "ling von終",
      "eg e終",
      "int us終",
      "leg i終",
      "a ci",
      "ur a終",
      "p is終",
      "r on終",
      "fi ne終",
      "cer te終",
      "dom on終",
      "per mes",
      "r i終",
      "kapabl as終",
      "cxi ujn終",
      "ti ta終",
      "m ojn終",
      "mal fru",
      "antaux e終",
      "at aj終",
      "inf ano終",
      "gi ta終",
      "f ek",
      "neni o終",
      "tr u",
      "v in",
      "sx is終",
      "et e終",
      "h on",
      "kel kaj終",
      "fr ato終",
      "per dis終",
      "t ek",
      "ver a終",
      "cxambr on終",
      "pu ti",
      "ven on",
      "kna bo終",
      "pr om",
      "c as終",
      "gxo j",
      "sx lo",
      "kol er",
      "afer o終",
      "a ti",
      "r est",
      "forg es",
      "o b",
      "fratin o終",
      "u x",
      "ver o終",
      "k vin終",
      "mal bon",
      "bi ci",
      "kom puti",
      "b an",
      "deman dis終",
      "min u",
      "f ren",
      "o fi",
      "gx er",
      "si l",
      "fren ez",
      "r esti終",
      "ki ujn終",
      "ang la終",
      "at e終",
      "pren is終",
      "jar ojn終",
      "fi sx",
      "eb la終",
      "v un",
      "po sx",
      "pro pr",
      "v ojn終",
      "a di",
      "sukces is終",
      "f re",
      "ti a終",
      "knab ino終",
      "s a終",
      "mal facile終",
      "pa si",
      "b ru",
      "n or",
      "vet ur",
      "probl emo終",
      "deci dis終",
      "ko v",
      "re g",
      "faci la終",
      "ak ci",
      "rigar dis終",
      "renkon tis終",
      "let eron終",
      "bl e終",
      "tag on終",
      "g r",
      "uz as終",
      "ven u終",
      "k ra",
      "kuti me終",
      "g e終",
      "i om",
      "s is終",
      "ali aj終",
      "dol or",
      "to r",
      "em a終",
      "mon tr",
      "d r",
      "ver sxajne終",
      "sen tis終",
      "si tu",
      "cxir kaux終",
      "v e",
      "jar o終",
      "m u終",
      "gx ar",
      "tr a終",
      "gra vas終",
      "k r",
      "s per",
      "gran dan終",
      "cxiu tage終",
      "ek de終",
      "lu das終",
      "g ajn",
      "k to終",
      "vir ino終",
      "a per",
      "ni f",
      "fl or",
      "b est",
      "pi l",
      "leg is終",
      "fun kci",
      "per son",
      "sur pri",
      "g la",
      "m ur",
      "al ta終",
      "mal bona終",
      "ven o終",
      "no mo終",
      "labor i終",
      "lu di終",
      "pren i終",
      "tel o終",
      "o k",
      "po vos終",
      "et on終",
      "rice vis終",
      "a don終",
      "man gxo終",
      "ami kin",
      "u ti",
      "iom ete終",
      "gx a終",
      "gxar den",
      "lo gx",
      "skrib is終",
      "sx o",
      "ricx a終",
      "mal pli終",
      "kul p",
      "long a終",
      "kontr aux",
      "m etis終",
      "lo ko終",
      "f aj",
      "kre dis終",
      "ni an終",
      "st a終",
      "ig u終",
      "fen est",
      "z a終",
      "z e終",
      "cx in",
      "placx as終",
      "cer tas終",
      "d un",
      "fi lo終",
      "ap u",
      "franc a終",
      "br o終",
      "konsi der",
      "sig nif",
      "u ri",
      "kuraci sto終",
      "a f",
      "uni ver",
      "pas int",
      "famili o終",
      "k la",
      "enc o終",
      "k lo終",
      "plen a終",
      "vi vi終",
      "memor as終",
      "m omen",
      "ti am終",
      "ti gi終",
      "mi gxis終",
      "ten as終",
      "di ta終",
      "k ru",
      "tabl o終",
      "li g",
      "ku ne終",
      "a vi",
      "mi ta終",
      "nom on終",
      "ank o終",
      "aten di終",
      "a c",
      "a g",
      "tag oj終",
      "ki en終",
      "uz i終",
      "k al",
      "t ero終",
      "in for",
      "ne k終",
      "okaz as終",
      "at as終",
      "b ir",
      "mal sx",
      "problem on終",
      "na gxi終",
      "neces as終",
      "p e",
      "st or",
      "skrib i終",
      "forg esis終",
      "mi gxas終",
      "u son",
      "sx u",
      "aux str",
      "l oj終",
      "ti ujn終",
      "k u終",
      "an i",
      "li ti",
      "vi z",
      "neni un終",
      "aten dis終",
      "kri st",
      "s ko終",
      "oku p",
      "a ki",
      "en ci",
      "por don終",
      "post e終",
      "libr ojn終",
      "hun don終",
      "su per",
      "pr un",
      "infan ojn終",
      "t eni",
      "su b終",
      "trajn o終",
      "b oj終",
      "po j終",
      "s ak",
      "for iri終",
      "pi ta終",
      "ant aj終",
      "hi stor",
      "pra vas終",
      "f an",
      "h er",
      "l un",
      "vi von終",
      "op in",
      "cx o終",
      "tra f",
      "v ino終",
      "bedauxr as終",
      "p un",
      "er e終",
      "vet ero終",
      "e ux",
      "tr ak",
      "f ini",
      "al vo",
      "s om",
      "sek re",
      "c el",
      "ti sto終",
      "far tas終",
      "mal jun",
      "a fa",
      "en o終",
      "fa di",
      "aten das終",
      "ku ir",
      "okaz os終",
      "g u",
      "kon ten",
      "nok te終",
      "kon f",
      "dank on終",
      "help on終",
      "ekz amen",
      "z is終",
      "kv in",
      "l ojn終",
      "i gxos終",
      "proksi me終",
      "auxstr al",
      "g on終",
      "sp or",
      "ek s",
      "pa ci",
      "ka m",
      "pi e",
      "i uj終",
      "uz is終",
      "tem pe終",
      "kr om終",
      "p ez",
      "st at",
      "for ta終",
      "st re",
      "mi r",
      "komenc is終",
      "st ino終",
      "f est",
      "tag mez",
      "am a終",
      "mal trankvi",
      "pr omen",
      "par don",
      "ej on終",
      "me di",
      "prefer as終",
      "r estis終",
      "sxan gx",
      "in vi",
      "afer oj終",
      "stu den",
      "re venos終",
      "vol us終",
      "kre sk",
      "dan gxer",
      "ri de",
      "cxi un終",
      "e o終",
      "pi ed",
      "voj a",
      "j ek",
      "mal amas終",
      "mal granda終",
      "ta sk",
      "for iris終",
      "p ul",
      "st ri",
      "per sono終",
      "plen u",
      "parol u終",
      "ek o",
      "fo r終",
      "pre ci",
      "gra va終",
      "malsan a終",
      "k var",
      "an ti",
      "mal facil",
      "sin j",
      "kompren i終",
      "pu ri",
      "ga z",
      "cxes u終",
      "in da終",
      "mal frue終",
      "sxat egas終",
      "help is終",
      "sil en",
      "dan to終",
      "cen t終",
      "lern as終",
      "intenc as終",
      "i o",
      "t ajn終",
      "ul ojn終",
      "lern is終",
      "val or",
      "kon cer",
      "fadi l終",
      "f esto終",
      "gx u",
      "ir o終",
      "aux di終",
      "cer ta終",
      "u sono終",
      "si mil",
      "man kas終",
      "ten i終",
      "pas is終",
      "k ant",
      "sxat is終",
      "ide o終",
      "apu d終",
      "ri mar",
      "aux to",
      "kre di終",
      "por do終",
      "leg as終",
      "mult eko",
      "trink as終",
      "ki sto終",
      "sx tel",
      "joh ano終",
      "auxstral io終",
      "re gi",
      "vi v",
      "dor mis終",
      "n er",
      "al por",
      "labor is終",
      "pre par",
      "n ig",
      "st i",
      "atem pe終",
      "var m",
      "ni aj終",
      "last a終",
      "vizi ti終",
      "d am",
      "l ar",
      "n o終",
      "cx on終",
      "kva z",
      "supoz as終",
      "g ust",
      "ri l",
      "du a終",
      "hor lo",
      "hi sp",
      "su pr",
      "hom ojn終",
      "ce jo終",
      "kvaz aux終",
      "sx as終",
      "bi bli",
      "jar e終",
      "cxir kaux",
      "tro vi",
      "sercx as終",
      "i lia終",
      "mi s",
      "ta k",
      "prez en",
      "naski gxis終",
      "ti ko終",
      "fin fine終",
      "sxi an終",
      "n aj",
      "vor t",
      "tri dek終",
      "kaf on終",
      "h x",
      "n aux",
      "sx ul",
      "f ir",
      "stu di終",
      "k os終",
      "de pen",
      "nok to終",
      "ki ta終",
      "mi l終",
      "sx er",
      "mal juna終",
      "si ta終",
      "di gxis終",
      "poli co終",
      "k an終",
      "dor mas終",
      "rigar du終",
      "hisp an",
      "ri par",
      "ar a終",
      "bon aj終",
      "gxarden o終",
      "cx jo終",
      "gxust e終",
      "t ato終",
      "ki gxis終",
      "po s終",
      "du b",
      "vet uri",
      "dek str",
      "akci dento終",
      "s es",
      "on oj終",
      "eb ri",
      "kva r終",
      "avi adi",
      "h u",
      "i ma",
      "ti an終",
      "am uz",
      "ank am終",
      "kv ankam終",
      "fre m",
      "i an終",
      "ed zo終",
      "d ano終",
      "vo jo終",
      "las i終",
      "dan c",
      "s as終",
      "bezon is終",
      "bu so終",
      "mili to終",
      "o g",
      "vi vis終",
      "dir os終",
      "pens i終",
      "t eco終",
      "pro vas終",
      "fil ino終",
      "met u終",
      "str ato終",
      "afer ojn終",
      "japan io終",
      "or i",
      "pro vu終",
      "muzi kon終",
      "a la終",
      "s ami",
      "bl u",
      "ak von終",
      "ge edzi",
      "si dis終",
      "om br",
      "vizi tis終",
      "kaf o終",
      "semajn o終",
      "f ino終",
      "al on終",
      "g re",
      "ul on終",
      "vor toj終",
      "dol ar",
      "t aux",
      "cx ap",
      "re venis終",
      "deman do終",
      "dev intus終",
      "b aro終",
      "p a終",
      "mul ton終",
      "ami kon終",
      "libr oj終",
      "k ton終",
      "l as終",
      "on i",
      "in di",
      "pl ez",
      "su fer",
      "vir inoj終",
      "n ek",
      "z oj終",
      "al e終",
      "ci a終",
      "ka to",
      "sam e終",
      "f e",
      "la ca終",
      "kompren is終",
      "amikin o終",
      "int eli",
      "zi ta終",
      "edz ini",
      "pet i終",
      "sami o終",
      "inteli gen",
      "s un",
      "cx ar",
      "ha vos終",
      "di man",
      "bl ank",
      "nu tr",
      "g ru",
      "ri f",
      "f la",
      "de vos終",
      "ek o終",
      "kur is終",
      "gxust a終",
      "dis ku",
      "d ajn終",
      "r estas終",
      "rez ul",
      "i taj終",
      "si st",
      "far us終",
      "gran daj終",
      "prez i",
      "ti mi",
      "dor mi終",
      "post tagmez",
      "morti gis終",
      "studen toj終",
      "t on",
      "ri vero終",
      "g ri",
      "j es終",
      "s uno終",
      "ru gx",
      "kom enci",
      "ami kojn終",
      "funkci as終",
      "f ri",
      "hel pos終",
      "dr ink",
      "in de終",
      "po se",
      "du on",
      "nu m",
      "vir oj終",
      "sufi cx",
      "ekster lan",
      "signif as終",
      "vi d",
      "di st",
      "mor to終",
      "ser io",
      "instru i",
      "nig r",
      "pr u",
      "fi er",
      "sp e",
      "pu bli",
      "mangx on終",
      "fil mo終",
      "n at",
      "deman don終",
      "fak te終",
      "& a",
      "ul ino終",
      "gxoj as終",
      "&a pos",
      "li k",
      "pren u終",
      "en to終",
      "di fer",
      "per fek",
      "sp i",
      "mani ero終",
      "gra v",
      "men to終",
      "k lon終",
      "est on",
      "pro fun",
      "ta to",
      "tel on終",
      "evi den",
      "a gra",
      "jar a終",
      "okul ojn終",
      "m at",
      "an stat",
      "el oj終",
      "mul tan終",
      "stu das終",
      "fin is終",
      "respon di終",
      "ant an終",
      "l in",
      "r estu終",
      "vor to終",
      "trink i終",
      "mal facila終",
      "fra zo終",
      "gx inta終",
      "su bi",
      "flu g",
      "b en",
      "cx esis終",
      "tr ojn終",
      "en ami",
      "don a",
      "prom es",
      "aper is終",
      "in s",
      "eg o終",
      "ho telo終",
      "sal u",
      "rest or",
      "z as終",
      "di o",
      "far en",
      "sp ez",
      "hel po終",
      "pre ta終",
      "okup ata終",
      "ar bo終",
      "lu dis終",
      "don as終",
      "pli bon",
      "2 0",
      "k li",
      "s mo終",
      "lu do終",
      "kol or",
      "nok ton終",
      "krist na",
      "est ro終",
      "cxi- vespere終",
      "an ton終",
      "to kio終",
      "ven de",
      "du k",
      "skrib as終",
      "c e終",
      "j an",
      "tr e",
      "fal is終",
      "bibli ot",
      "k lo",
      "par ko終",
      "ko stas終",
      "hor oj終",
      "ofi cejo終",
      "univer si",
      "lan jo終",
      "vor ton終",
      "sam a終",
      "sem ajne終",
      "ide on終",
      "m aj終",
      "tr om",
      "cxi elo終",
      "t am",
      "m an終",
      "n eg",
      "er ojn終",
      "spek tas終",
      "g aj",
      "h o終",
      "pa per",
      "am is終",
      "se kur",
      "mu me終",
      "sxt eli",
      "d aux",
      "ta do終",
      "ki om",
      "vi an",
      "sen dis終",
      "no migxas終",
      "fer i",
      "joh n終",
      "rez ig",
      "n a終",
      "s kato",
      "ka toj終",
      "pro p",
      "vo jon終",
      "fil mon終",
      "s ang",
      "vi de",
      "em as終",
      "sxan con終",
      "kel k",
      "n un",
      "deman dojn終",
      "telef ono終",
      "ekster e終",
      "interes a終",
      "z ar",
      "mal kov",
      "ven on終",
      "dan te終",
      "inter e",
      "n u終",
      "ki es終",
      "mor tin",
      "fo j",
      "ling vojn終",
      "fu mi終",
      "stul ta終",
      "sxlo si",
      "1 9",
      "v an",
      "to ro終",
      "tro vos終",
      "rigar das終",
      "cxef urbo終",
      "ar an",
      "mal sxatas終",
      "fi k",
      "s oj終",
      "pro gra",
      "bat al",
      "forges u終",
      "for lasis終",
      "okul oj終",
      "m atem",
      "z ojn終",
      "pro pon",
      "fo jon終",
      "ling voj終",
      "unu e終",
      "muzi ko終",
      "tato eb",
      "matem ati",
      "l e終",
      "renkon ti終",
      "naski gx",
      "sxo for",
      "l is終",
      "en iris終",
      "vi dos終",
      "ha v",
      "aux tom",
      "en on終",
      "li to終",
      "don os終",
      "kap tis終",
      "problem ojn終",
      "dauxr e終",
      "minu toj終",
      "n is終",
      "s ano終",
      "mon a",
      "ci on終",
      "help as終",
      "kant i終",
      "ak ti",
      "plu vo終",
      "atin gi終",
      "preci ze終",
      "spe ci",
      "subi te終",
      "v ali",
      "in te終",
      "li o終",
      "de vi",
      "par to終",
      "sam an終",
      "last an終",
      "hon est",
      "sxtel is終",
      "e ta終",
      "al venos終",
      "se s終",
      "franc e終",
      "sxajn is終",
      "gajn is終",
      "k las",
      "re lig",
      "kon sentas終",
      "poli ti",
      "propr an終",
      "traf is終",
      "e ki",
      "mul to終",
      "lu zi",
      "ob ser",
      "a gxas終",
      "k at",
      "st aci",
      "eli ri終",
      "pli an終",
      "knab inoj終",
      "trovi gxas終",
      "o dor",
      "far ita終",
      "sp ir",
      "ma sx",
      "cxe mi",
      "bel an終",
      "aspek tis終",
      "sxi aj終",
      "a pen",
      "vi la",
      "aten du終",
      "apar tenas終",
      "a son終",
      "gx oj終",
      "sa mi終",
      "simil as終",
      "klo po",
      "f ama終",
      "st acio終",
      "esper anto終",
      "stu dento終",
      "sur havas終",
      "malfer mis終",
      "in ojn終",
      "ur on終",
      "multeko sta終",
      "a s",
      "m ini",
      "er oj終",
      "ig ita終",
      "eli r",
      "enc on終",
      "rom pis終",
      "pl ano終",
      "kon sen",
      "pa gi終",
      "sxat ata終",
      "te jo終",
      "malsx al",
      "apen aux終",
      "a ku",
      "in a終",
      "kiom a終",
      "kelk foje終",
      "k vi",
      "par to",
      "gxen ti",
      "t us終",
      "an c",
      "es pri",
      "par o終",
      "son as終",
      "sxi po終",
      "bibliot eko終",
      "ti gis終",
      "si o終",
      "plu vos終",
      "intere si",
      "v alo終",
      "en liti",
      "pa f",
      "ig os終",
      "ak o終",
      "post ul",
      "afer on終",
      "daux ri",
      "j ust",
      "p i終",
      "po po",
      "pro vi終",
      "ur aj終",
      "oku pita終",
      "pasi gis終",
      "opin ion終",
      "tatoeb a終",
      "k e",
      "mal antaux終",
      "re t",
      "help u終",
      "jx ur",
      "plu v",
      "cxe val",
      "trink is終",
      "a dis終",
      "em on終",
      "ka do終",
      "sxan gxi終",
      "met i終",
      "mani ere終",
      "best oj終",
      "a vo終",
      "kol ek",
      "er aron終",
      "te on終",
      "prom esis終",
      "s or",
      "mal nova終",
      "lu mo終",
      "por tis終",
      "hejm task",
      "le ci",
      "situ acio終",
      "ekzamen o終",
      "sinj oro終",
      "li gis終",
      "kon sci",
      "di a",
      "sci volas終",
      "eg is終",
      "sercx is終",
      "e fi",
      "f on",
      "ki sis終",
      "pl o",
      "dir ek",
      "knab oj終",
      "ba z",
      "&apos ;終",
      "tam en終",
      "po jn終",
      "par donu終",
      "respon de",
      "mal liber",
      "kon is終",
      "ne pr",
      "lo gxis終",
      "fo jo終",
      "respon do終",
      "g an終",
      "cx is終",
      "ek sci",
      "tu ro終",
      "por tas終",
      "i tal",
      "s an終",
      "la kto終",
      "skri bi",
      "te amo終",
      "sukces o終",
      "plor is終",
      "pret as終",
      "st is終",
      "sx a",
      "de s終",
      "am eri",
      "du dek終",
      "voj agxo終",
      "r estos終",
      "v ek",
      "gx ero終",
      "venon t",
      "afa bla終",
      "fir ma",
      "ombr elon終",
      "k aton終",
      "pl anon終",
      "pen tr",
      "kom uni",
      "bu sx",
      "j or",
      "far igxis終",
      "ven to終",
      "fi lon終",
      "eli ris終",
      "vor tojn終",
      "japan a終",
      "japan ujo終",
      "zor g",
      "atin gis終",
      "kla so終",
      "posttagmez e終",
      "vol u",
      "bici klon終",
      "on ta終",
      "gx ejo終",
      "pro jek",
      "for te終",
      "don o終",
      "deman di終",
      "prun te",
      "f o終",
      "cx er",
      "sx al",
      "ver as終",
      "mar o終",
      "nov ajn終",
      "ren dev",
      "rendev u",
      "f ing",
      "al men",
      "li ajn終",
      "pro duk",
      "hej mo終",
      "mangx ajxo終",
      "rigar di終",
      "voj agx",
      "almen aux終",
      "g las",
      "en u",
      "ar ti",
      "per me",
      "en iri終",
      "ek si",
      "su per終",
      "par i",
      "gxust atempe終",
      "stul t",
      "hor ojn終",
      "sol vi終",
      "komputi lo終",
      "person oj終",
      "histor io終",
      "rimar kis終",
      "er aro終",
      "el liti",
      "aux das終",
      "mon tri終",
      "lo kon終",
      "proksi ma終",
      "cxap elon終",
      "ek ti",
      "telef onon終",
      "cxes i終",
      "montr is終",
      "eux ro",
      "sx ar",
      "mi o終",
      "pro tek",
      "tran cxi",
      "malvar mu",
      "voja gxi終",
      "p anon終",
      "t ata終",
      "sx u終",
      "li ter",
      "ta ksi",
      "ig o終",
      "deman das終",
      "ti gas終",
      "enc a終",
      "tro vas終",
      "ni ajn終",
      "ses a終",
      "kon ser",
      "mon ato終",
      "rapi da終",
      "stran ga終",
      "komputi lon終",
      "gla ci",
      "momen to終",
      "num eron終",
      "u jon終",
      "po t",
      "es kap",
      "ra por",
      "proksi mume終",
      "poli ci",
      "tabl on終",
      "fenest ron終",
      "valor as終",
      "universi tato終",
      "auxtom o",
      "j i",
      "or do終",
      "okaz e終",
      "dolor on終",
      "n el",
      "p as終",
      "v ink",
      "v inon終",
      "po pul",
      "ra jn終",
      "bon sxan",
      "br ul",
      "ur bon終",
      "ali ajn終",
      "fra zon終",
      "malvar ma終",
      "auxskul ti終",
      "trajn on終",
      "maltrankvi li",
      "vi du終",
      "dez ir",
      "aviadi lo終",
      "r ojn終",
      "tr on終",
      "ha zar",
      "di fek",
      "ne gxo終",
      "vo cx",
      "tin o終",
      "spek tis終",
      "lan doj終",
      "gi t",
      "fru k",
      "bu ti",
      "bedauxr inde終",
      "s aj終",
      "ar baro終",
      "sp u",
      "pan jo終",
      "t alo終",
      "u zi",
      "on klo終",
      "man o終",
      "kon st",
      "dir e終",
      "du ono終",
      "konsi lon終",
      "malsan ul",
      "gxen er",
      "frenez a終",
      "ner vo",
      "nepr e終",
      "j u終",
      "kon vink",
      "tem as終",
      "unu an終",
      "rakon tis終",
      "situ as終",
      "teni son終",
      "opin io終",
      "r el",
      "t aj",
      "v el",
      "li tigxis終",
      "mal bone終",
      "fi das終",
      "e la終",
      "i stoj終",
      "p al",
      "bon as終",
      "mangx u終",
      "rek on",
      "plan as終",
      "medi ka",
      "dolar ojn終",
      "restor acio終",
      "st ojn終",
      "at ak",
      "mal ofte終",
      "pa co終",
      "horlo gxo終",
      "inteligen ta終",
      "i e終",
      "on o",
      "int aj終",
      "pren as終",
      "bi eron終",
      "liber a終",
      "euxro po終",
      "a ver",
      "o be",
      "v u",
      "st ro終",
      "ti gxas終",
      "pr in",
      "man ojn終",
      "di lon終",
      "mangx ajxon終",
      "fin i終",
      "sukces as終",
      "pas inta終",
      "felicx aj終",
      "memor i終",
      "ekz em",
      "malfer mi終",
      "e du",
      "el spez",
      "et er",
      "di li",
      "pa gis終",
      "bl o",
      "kontr ol",
      "cxe valo終",
      "erar ojn終",
      "tru m",
      "kov ri",
      "b ak",
      "d ro",
      "l evi",
      "m eri",
      "t eg",
      "ti al終",
      "or g",
      "man on終",
      "se ku",
      "men ton終",
      "sim p",
      "ad vo",
      "rice vi終",
      "menso gis終",
      "dili gen",
      "l ej",
      "l uno終",
      "on ojn終",
      "at an終",
      "neni el終",
      "tra fi",
      "long an終",
      "kur i終",
      "konstru ajxo終",
      "venon tan終",
      "flor oj終",
      "v an終",
      "en e終",
      "pr int",
      "kan a",
      "be bo終",
      "sukces os終",
      "vesper mangxo終",
      "rif uzis終",
      "al an終",
      "di ver",
      "lu don終",
      "tag ojn終",
      "zor gas終",
      "ad re",
      "semajn on終",
      "tradu ki終",
      "vetur is終",
      "g ol",
      "o k終",
      "v aj終",
      "ti lon終",
      "mal rapide終",
      "di sto終",
      "bon gust",
      "sk a終",
      "so ci",
      "te o終",
      "instru as終",
      "morti gi終",
      "bra zi",
      "televi don終",
      "vende jo終",
      "gx ojn終",
      "es plor",
      "br o",
      "ur e終",
      "respon dis終",
      "respon don終",
      "mes agxon終",
      "prefer e終",
      "auxskul tas終",
      "telefon is終",
      "naj bar",
      "k en終",
      "or an",
      "or ig",
      "di gis終",
      "se p終",
      "fa vor",
      "mor ti終",
      "kan ton終",
      "bonvol e終",
      "sxan gxis終",
      "lerne jon終",
      "flor ojn終",
      "pil kon終",
      "ekzem pl",
      "print em",
      "m os終",
      "p ura終",
      "t est",
      "de tru",
      "la jn終",
      "ra di",
      "eg al",
      "dona con終",
      "b re",
      "pro ba",
      "sen kulp",
      "ma do終",
      "mals am",
      "intenc is終",
      "menso g",
      "blank a終",
      "b ojn終",
      "mal bonan終",
      "for iros終",
      "aten tu終",
      "star is終",
      "sxu ojn終",
      "staci domo終",
      "p aux",
      "pr em",
      "po l",
      "de tal",
      "man oj終",
      "la kton終",
      "lu mon終",
      "don ac",
      "bezon os終",
      "por ti終",
      "kura gx",
      "klar igi終",
      "okul vi",
      "german an終",
      "akcep tis終",
      "fre sx",
      "sxlosi lon終",
      "c is終",
      "en ta終",
      "fi di終",
      "for iru終",
      "kor o終",
      "mal ricx",
      "el cxer",
      "b is終",
      "d re",
      "t un",
      "sx ak",
      "re gxo終",
      "ri dis終",
      "pl eni",
      "ec a終",
      "gran de",
      "ko mi",
      "bel aj終",
      "fenest ro終",
      "horlo gxon終",
      "flug ha",
      "st e終",
      "li gi",
      "di ka終",
      "pro kra",
      "ig a終",
      "nov aj終",
      "mo der",
      "japan an終",
      "cxi- matene終",
      "star as終",
      "dek -",
      "venon ta終",
      "dangxer a終",
      "interesi gxas終",
      "c elo終",
      "t ekst",
      "st ra",
      "sx par",
      "po sxt",
      "kom er",
      "problem oj終",
      "glas on終",
      "malsanul ejo終",
      "d ra",
      "g l",
      "m el",
      "m uz",
      "s -",
      "ka po終",
      "ta son終",
      "kom par",
      "sk on終",
      "acx e",
      "jar on終",
      "deman du終",
      "eb re",
      "laux eble終",
      "met as終",
      "kresk is終",
      "danc i終",
      "m er",
      "er g",
      "re spek",
      "pro gre",
      "ru gxa終",
      "ten is終",
      "jx et",
      "har ojn終",
      "german a終",
      "minu tojn終",
      "pari zo終",
      "h ebre",
      "or din",
      "in to終",
      "ri poz",
      "ekz ak",
      "pasint an終",
      "pardon on終",
      "0 0終",
      "a maniere終",
      "r on",
      "r oj終",
      "an tojn終",
      "ez i",
      "mals ano終",
      "kap ti終",
      "apar t",
      "propr a終",
      "g rek",
      "cx o",
      "re vo終",
      "eg an終",
      "lon dono終",
      "mals atas終",
      "konten ta終",
      "neg o",
      "relig io終",
      "simp la終",
      "am on終",
      "ven das終",
      "stu dis終",
      "plu vis終",
      "let ero終",
      "mortin ta終",
      "i gxo終",
      "ol og",
      "kon tak",
      "bon ega終",
      "patr on終",
      "nom as終",
      "hal tigi終",
      "ok to",
      "aki ri終",
      "ebri a終",
      "apart amen",
      "ti taj終",
      "ci vi",
      "mal gr",
      "mal dekstr",
      "de s",
      "ho spi",
      "ebl aj終",
      "of en",
      "is la",
      "pret er",
      "konsider as終",
      "enami gxis終",
      "ki ne",
      "re vi",
      "la go終",
      "far igxi終",
      "pa sx",
      "ami k",
      "sinj or",
      "rel ati",
      "malgr aux終",
      "b anko終",
      "d ado終",
      "k lu",
      "st aro終",
      "in st",
      "mal dun",
      "si das終",
      "re gx",
      "pl a",
      "na gx",
      "ter ura終",
      "dol cx",
      "sal aj",
      "malfru as終",
      "akci den",
      "histor ion終",
      "gru po終",
      "vian don終",
      "firma o終",
      "k ro",
      "k raj",
      "ki an終",
      "neni om終",
      "mon don終",
      "hun doj終",
      "kuti mis終",
      "menso gas終",
      "din da終",
      "aci on終",
      "faj ro終",
      "jxur n",
      "z i終",
      "tr ia終",
      "el ojn終",
      "bon ajn終",
      "ak om",
      "se gxo終",
      "se pa終",
      "vir on終",
      "instru is終",
      "dolor as終",
      "kuir ejo終",
      "mona toj終",
      "cxo kol",
      "okto bro終",
      "d en終",
      "s ing",
      "ku lo終",
      "ta sko終",
      "oku pi",
      "elek tis終",
      "bir doj終",
      "amuz a終",
      "vila gxo終",
      "po v",
      "su pren",
      "tu t",
      "kan tis終",
      "mangx os終",
      "koler as終",
      "fini gxis終",
      "invi tis終",
      "auxtomo bi",
      "ka pi",
      "hom a終",
      "var ma終",
      "bu son終",
      "unu foje終",
      "plu vas終",
      "lerne j",
      "renkon ti",
      "lern antoj終",
      "gri m",
      "lej la終",
      "b ank",
      "g oj終",
      "h ol",
      "m uro終",
      "est i",
      "kon sentis終",
      "am uzi",
      "kom pl",
      "ur b",
      "mon ate終",
      "pre gxejo終",
      "inter re",
      "agx e終",
      "ten u終",
      "klar e終",
      "rakon to終",
      "sak o終",
      "mi on終",
      "li gi終",
      "mon t",
      "lo gxi終",
      "fra zojn終",
      "cxe estis終",
      "ekz er",
      "ve kigxis終",
      "momen te終",
      "e ti",
      "tr oj終",
      "mal multe終",
      "re al",
      "kon ata終",
      "di spon",
      "vol on",
      "las os終",
      "do ku",
      "sur havis終",
      "edz inon終",
      "uson a終",
      "sufer as終",
      "fo li",
      "patr inon終",
      "kor amikino終",
      "skrib u終",
      "fr on",
      "cxiu matene終",
      "har aron終",
      "im pres",
      "malsx par",
      "matemati ko終",
      "b eb",
      "p ir",
      "to ler",
      "tom ason終",
      "esper anton終",
      "dan gxero終",
      "univer so終",
      "eviden te終",
      "anstat aux終",
      "ekzak te終",
      "g o",
      "i liaj終",
      "n as終",
      "s ojn終",
      "st ir",
      "ig nor",
      "lu k",
      "do si",
      "fran cio終",
      "kun veno終",
      "hal tis終",
      "koler a終",
      "af lik",
      "vort aro終",
      "pose das終",
      "c ir",
      "g ren",
      "est on終",
      "ti mis終",
      "ef ekti",
      "te mo終",
      "konsi stas終",
      "malfer mita終",
      "sxu oj終",
      "viz agxon終",
      "her o",
      "nel on",
      "proba ble終",
      "r op",
      "t ante終",
      "on kl",
      "pl ej",
      "la v",
      "pa cxjo終",
      "kom pan",
      "na ci",
      "vo kis終",
      "zor gi終",
      "suficx as終",
      "akom pan",
      "in du",
      "in das終",
      "ver kis終",
      "jx al",
      "mo vi",
      "auxskul tis終",
      "is mo終",
      "bir do終",
      "depen das終",
      "prop onon終",
      "popo lo終",
      "perme si",
      "nelon ge終",
      "po mojn終",
      "tr ej",
      "jar cen",
      "inf lu",
      "kan tas終",
      "tran s終",
      "interes as終",
      "kal kul",
      "fier as終",
      "n on終",
      "o to終",
      "st i終",
      "ar to終",
      "mal al",
      "kan to終",
      "cxe si",
      "cen tro終",
      "fr aton終",
      "fratin on終",
      "plan e",
      "anstat aux",
      "ti gu終",
      "ar me",
      "po zi",
      "kon di",
      "bl o終",
      "dan ta終",
      "feli cxi",
      "akcep ti終",
      "uti la終",
      "frem d",
      "honest a終",
      "jor ko終",
      "a vino終",
      "k ver",
      "r ol",
      "or di",
      "po mon終",
      "mi taj終",
      "ku kon終",
      "ka pon終",
      "ka sxis終",
      "mar ian終",
      "laux te終",
      "som ero終",
      "supr en終",
      "salu ton終",
      "cxemi zon終",
      "relati ve終",
      "f as終",
      "en tre",
      "pl agxo終",
      "jx etis終",
      "ekst er終",
      "bost onon終",
      "fu t",
      "sxlo sil",
      "bici klo終",
      "vun dita終",
      "viz agxo終",
      "afa bl",
      "vort aron終",
      "diman cxe終",
      "prezi danto終",
      "r as終",
      "s u終",
      "v eg",
      "kon ver",
      "dir us終",
      "fer mis終",
      "skri bo",
      "hun dojn終",
      "nom br",
      "malfacil as終",
      "s ank",
      "z ono終",
      "li sto終",
      "re san",
      "prez o終",
      "kondu to終",
      "uti las終",
      "nun tempe終",
      "gxener ale終",
      "a ser",
      "c in",
      "s agxa終",
      "ti aj終",
      "di lo終",
      "ka tojn終",
      "fo ton終",
      "spek ti終",
      "te a",
      "suk ero終",
      "last atempe終",
      "fl anko終",
      "klar igis終",
      "rek omen",
      "auxskul tu終",
      "german io終",
      "pon to終",
      "af ri",
      "plenu mi終",
      "sist emo終",
      "malkov ris終",
      "hazar de終",
      "a ero終",
      "c i終",
      "f ro",
      "k rom",
      "l aj終",
      "gx is",
      "al gxer",
      "tu ri",
      "gran das終",
      "pri v",
      "felicx as終",
      "konsi lis終",
      "flugha veno終",
      "s eni",
      "z o",
      "sx tor",
      "bon volas終",
      "uz u終",
      "kol oro終",
      "kur as終",
      "kvin a終",
      "regi staro終",
      "nigr a終",
      "a po",
      "e on終",
      "i gx",
      "m aj",
      "mal pravas終",
      "cxi e終",
      "sci o終",
      "vo je終",
      "aki ris終",
      "lun do終",
      "eston teco終",
      "propon is終",
      "l an終",
      "r a終",
      "de ka終",
      "ek ono",
      "pa g",
      "pren os終",
      "inf anon終",
      "ter on終",
      "sam tempe終",
      "telef oni終",
      "mani eron終",
      "fan tom",
      "taux gas終",
      "des eg",
      "b esto終",
      "c oj終",
      "st ato終",
      "pr akti",
      "sci enco終",
      "ant aro終",
      "mar io終",
      "tem a終",
      "bi let",
      "fil inon終",
      "tur on終",
      "vest ajxojn終",
      "pasi gi終",
      "alpor tis終",
      "c aj終",
      "i gxu終",
      "o kci",
      "en toj終",
      "li gas終",
      "ri sk",
      "kon kur",
      "ka sx",
      "okaz i終",
      "las as終",
      "fra zoj終",
      "kor po終",
      "pli multo終",
      "vizi tas終",
      "bil don終",
      "amikin on終",
      "eux rop",
      "p si",
      "sci enc",
      "pro fi",
      "pi anon終",
      "bo j",
      "kor amiko終",
      "evi ti終",
      "malvar me終",
      "famili on終",
      "permes u終",
      "gxu as終",
      "dub as終",
      "ins ulo終",
      "malliber ejo終",
      "f rom",
      "t uno終",
      "mal aperis終",
      "se p",
      "fer o終",
      "parol os終",
      "den a",
      "por tu",
      "sek vis終",
      "edzi gxis終",
      "ripar i終",
      "dist ing",
      "b ol",
      "c ojn終",
      "g lu",
      "p ano終",
      "ar boj終",
      "ki alon終",
      "si mi",
      "em bar",
      "na cia終",
      "bor do終",
      "gra ve",
      "gi taj終",
      "bu tiko終",
      "ro bon終",
      "opini e終",
      "kun si",
      "kapabl is終",
      "sak on終",
      "anti kv",
      "cxar ma終",
      "popul ara終",
      "sing ar",
      "a pro",
      "a gas終",
      "j ac",
      "en ir",
      "ar ab",
      "mal novan終",
      "mal ricxa終",
      "ku ni",
      "ven kis終",
      "sen sen",
      "fer mita終",
      "mals ata終",
      "sek v",
      "plen e終",
      "rom pi",
      "angl e終",
      "erar as終",
      "vetur as終",
      "eks plo",
      "gxu is終",
      "sxul das終",
      "kristna sko終",
      "gaj ni終",
      "postul as終",
      "arti kol",
      "advo kato終",
      "adre son終",
      "a mi終",
      "a das終",
      "a opinie終",
      "b ur",
      "an a終",
      "an ojn終",
      "pro vos終",
      "ser pen",
      "lan don終",
      "cxin io終",
      "koncer to終",
      "plez uro終",
      "rugx an終",
      "meri tas終",
      "e volu",
      "g ojn終",
      "t econ終",
      "gx ia終",
      "mal multaj終",
      "de fen",
      "ek se",
      "em aj終",
      "kuti mas終",
      "acxet as終",
      "rakon ti終",
      "surpri zita終",
      "ride tis終",
      "org ani",
      "di spu",
      "du o",
      "for lasi終",
      "ur an終",
      "va st",
      "san d",
      "montr u終",
      "alvo kis終",
      "stre cxi",
      "okulvi trojn終",
      "sx tu",
      "ek sciis終",
      "ven dre",
      "per di終",
      "eg i",
      "mor tos終",
      "gran dajn終",
      "bo b終",
      "opini is終",
      "kulp as終",
      "projek to終",
      "a di終",
      "en a終",
      "al ko",
      "bl an終",
      "du foje終",
      "sen di終",
      "leg u終",
      "kompren eble終",
      "kaux zis終",
      "kuraci ston終",
      "dauxr is終",
      "pez a終",
      "fest on終",
      "dolar oj終",
      "hospi talo終",
      "plane do終",
      "b ulo終",
      "en ton終",
      "ti u",
      "mal proksime終",
      "ku iri終",
      "ha vus終",
      "ven ki終",
      "kom un",
      "na gxas終",
      "men ci",
      "post enon終",
      "dez iris終",
      "bel ega終",
      "nom bro終",
      "malsan as終",
      "malfer mu終",
      "bat is終",
      "fisx o終",
      "adi aux",
      "mir inda終",
      "hispan an終",
      "o ci",
      "t ano終",
      "st iri終",
      "st elo終",
      "su spek",
      "tag mangxo終",
      "ge edz",
      "facil as終",
      "zor gu終",
      "cel as終",
      "blu a終",
      "perfek ta終",
      "ameri ko終",
      "jxal uz",
      "h ezi",
      "en havas終",
      "ki alo終",
      "fer mu終",
      "ebl an終",
      "esper o終",
      "men dis終",
      "bal on終",
      "fr aux",
      "da toj終",
      "supr e終",
      "ima gi終",
      "brazi lo終",
      "st er",
      "mal hel",
      "ler ta終",
      "ali gxis終",
      "fin on終",
      "sol aj終",
      "plor as終",
      "stran do終",
      "naux a終",
      "sekur a終",
      "foj foje終",
      "d us終",
      "i den",
      "m ed",
      "o per",
      "t ulo終",
      "su s終",
      "pa k",
      "mon to終",
      "fa bri",
      "so i",
      "prefer us終",
      "prefer ata終",
      "koncer ne終",
      "naj baro終",
      "edzini gxis終",
      "serio ze終",
      "i dio",
      "o fer",
      "o vojn終",
      "en erg",
      "el teni終",
      "pa con終",
      "sen con終",
      "sen depen",
      "sur voje終",
      "bel as終",
      "maten mangxo終",
      "rice vas終",
      "semajn oj終",
      "german ujo終",
      "algxer io終",
      "- a終",
      "d ato終",
      "o ka終",
      "ti gxi終",
      "sx o終",
      "po vu終",
      "kon sciis終",
      "pro f",
      "sk is終",
      "pens u終",
      "tem per",
      "instru i終",
      "komenc i終",
      "fl ank",
      "gepatr ojn終",
      "ab sol",
      "vin tro終",
      "bru o終",
      "skato lon終",
      "orig in",
      "sand vi",
      "alko hol",
      "a foje終",
      "e toj終",
      "i el終",
      "u m",
      "ti lo終",
      "ki oto終",
      "po mo終",
      "mal sukcesis終",
      "ha vu終",
      "fi zi",
      "ej oj終",
      "so p",
      "me to",
      "pet u終",
      "nom is終",
      "deci don終",
      "komenc u終",
      "elek ti終",
      "kvin dek終",
      "onkl ino終",
      "sxlosil ojn終",
      "a van",
      "g eni",
      "v ul",
      "en oj終",
      "ar est",
      "gx i",
      "in ven",
      "vi ta終",
      "re e終",
      "eg on終",
      "vo cxon終",
      "fra pis終",
      "kan ad",
      "son or",
      "kontr ak",
      "kri ti",
      "ekster en終",
      "bil l終",
      "akcep tas終",
      "reg ulojn終",
      "ve ki",
      "spor to終",
      "promen i終",
      "voja gxis終",
      "fri du",
      "diligen te終",
      "acxe tos終",
      "i ujn終",
      "gx em",
      "al lo",
      "sx r",
      "po moj終",
      "el ef",
      "ver kisto終",
      "hun gar",
      "ekst ar",
      "sa mo終",
      "placx is終",
      "trankvi la終",
      "pied pil",
      "nek re",
      "blank an終",
      "profun da終",
      "polici sto終",
      "konvink i終",
      "entre pren",
      "t an",
      "ti mo終",
      "mi gxi終",
      "re gas終",
      "am aso終",
      "du m",
      "aten ton終",
      "bo v",
      "ekst re",
      "ber ber",
      "plor i終",
      "permes i終",
      "uson anoj終",
      "oni dir",
      "jan e終",
      "p ant",
      "s agx",
      "at uro終",
      "su po終",
      "la ci",
      "bon ege終",
      "sci u終",
      "bi ero終",
      "deman doj終",
      "mem a終",
      "felicx o終",
      "maten o終",
      "vizi tos終",
      "som er",
      "plenu mis終",
      "puri gi終",
      "agra bla終",
      "paper o終",
      "masx ino終",
      "buti ku",
      "seku re",
      "s- ro終",
      "pov intus終",
      "arme o終",
      "c elon終",
      "o s",
      "s ul",
      "st eloj終",
      "ar e終",
      "ku sxas終",
      "om e",
      "di taj終",
      "ven a終",
      "ven di終",
      "br un",
      "fra toj終",
      "jun aj終",
      "sek va終",
      "sukces i終",
      "kri is終",
      "gxust an終",
      "im post",
      "erar oj終",
      "forges i終",
      "task on終",
      "kvar dek終",
      "dist an",
      "skato lo終",
      "hejmtask ojn終",
      "beb on終",
      "dena ska終",
      "absol u",
      "f leg",
      "m am",
      "en ojn終",
      "mal plena終",
      "man telon終",
      "aten dos終",
      "esper is終",
      "kv ali",
      "flu e終",
      "acxet u終",
      "deci do終",
      "sin cer",
      "ofi ci",
      "pun kto終",
      "komenci gxis終",
      "git aron終",
      "jarcen to終",
      "bilet on終",
      "avan ta",
      "t ar",
      "t anta終",
      "ki stoj終",
      "al oj終",
      "sx to",
      "la m",
      "la tin",
      "for to終",
      "sp eg",
      "sen ton終",
      "leg om",
      "sa vi終",
      "komenc o終",
      "konstru is終",
      "san a終",
      "permes as終",
      "ob jek",
      "maljun ulo終",
      "hu mor",
      "difer enco終",
      "faren d",
      "odor as終",
      "d ata終",
      "n oj終",
      "o ce",
      "pr on",
      "mal lu",
      "ku iras終",
      "aux a終"
    ]
  }
}